#version: 0.2
Ġ t
Ġ a
h e
i n
r e
Ġt he
o n
e r
Ġ o
a t
Ġ s
e n
Ġ c
Ġ w
e s
i s
n d
i t
o r
Ġ p
a l
e d
Ġ b
Ġo f
a n
Ġ f
in g
Ġ in
a r
o u
Ġ m
Ġa nd
Ġt o
i c
i on
Ġ d
l e
r o
a s
Ġ h
Ġt h
en t
c t
Ġ e
i l
Ġ re
o m
v e
Ġ l
s t
Ġ n
l y
Ġb e
â Ģ
Ġ is
Ġ T
s e
o l
Ġ g
at ion
i m
i d
e t
u t
c e
o t
u r
r a
c h
o w
Ġ A
Ġf or
i g
Ġ S
Ġth at
Ġ u
Ġ on
Ġs t
v er
Ġ C
Ġ I
i r
Ġ y
u l
a y
a m
Ġa s
it h
e l
a d
he r
Ġp ro
Ġa re
Ġc on
Ġa n
Ġw ith
Ġw h
i f
Ġo r
Ġ it
Ġa l
Ġy ou
t er
o d
Ġ M
Ġ (
ĠT he
m ent
g e
Ġ 1
Ġ P
t h
o p
is t
at e
er s
Ġd e
il l
i es
Ġ B
Ġ he
a b
es s
Ġe x
u s
Ġw e
o re
e ct
Ġs u
Ġc om
it y
âĢ Ļ
es t
re s
i ve
Ġh a
a c
Ġ H
l d
ro m
u m
o s
Ġ v
k e
Ġb y
e m
an t
i v
q u
Ġ W
a in
Ġa t
n t
p p
ig h
Ġw as
Ġ D
u d
Ġ E
Ġf rom
a nd
Ġc an
o c
Ġc h
Ġ R
Ġ r
or t
Ġn e
Ġ F
Ġs e
i al
Ġ 2
u re
Ġn ot
Ġ âĢ
u n
ar t
Ġ N
ic al
Ġ G
Ġ le
Ġha ve
r i
Ġ L
o g
Ġs h
Ġ en
Ġth is
Ġs p
igh t
p t
0 0
Ġa b
r ou
ic h
re d
al l
Ġw or
ou ld
t her
g h
ion s
T he
o st
ou r
om e
at ed
Ġ im
d u
in e
Ġu s
ar d
p er
ou t
Ġp l
a g
Ġthe ir
el l
id e
f f
a ct
Ġ O
an s
Ġin t
as t
p l
e ar
a ge
Ġ J
u st
Ġwh ich
a k
Ġ k
Ġw he
ou s
e c
Ġthe y
Ġ U
i z
Ġyou r
Ġal l
i b
o od
ĠI n
Ġcon t
ul t
Ġa d
Ġw ill
Ġin c
c c
en d
i a
r u
Ġd is
âĢ Ŀ
a p
on g
Ġm ore
i p
Ġcom p
ation s
e w
Ġre s
ve l
Ġh as
e re
Ġd o
s o
ar y
or m
at er
ĠT h
en ce
Ġo ther
il d
Ġm an
ab le
u al
a re
Ġc l
Ġwe re
Ġb ut
k s
r y
in d
ĠâĢ ľ
' s
Ġp er
Ġon e
e p
Ġm e
a ch
an ce
Ġal so
Ġt e
Ġim p
ent s
o se
re at
Ġ1 9
as s
res s
ig n
a ke
as e
a u
a v
it ion
Ġs o
Ġ j
ct ion
ic e
Ġo ut
b er
Ġu n
ver y
Ġa r
Ġp art
im e
Ġa pp
on e
or d
Ġab out
is h
Ġe v
en s
am e
a ce
) .
Ġwh o
or y
ĠS t
ou nt
i re
o k
Ġst ud
Ġh is
ac k
Ġin f
Ġp e
u b
Ġ K
Ġs y
Ġ "
Ġcom m
or s
Ġthe m
Ġs c
it e
u e
c es
an g
ou nd
i ke
re e
n ow
ol og
l ow
ĠI t
Ġu p
Ġbe c
Ġp re
Ġth an
ĠC h
i e
Ġm ay
i le
r ic
Ġ qu
Ġs ome
if f
i an
Ġy ear
op le
Ġre c
ay s
Ġbe en
Ġthe re
at es
nd er
a il
ing s
Ġwhe n
m er
ou gh
Ġa g
Ġit s
p h
Ġg o
Ġint o
re n
Ġ2 0
Ġt ime
ver s
r it
Ġ V
Ġt ra
Ġthe se
Ġwor k
er v
t e
on s
Ġo ver
ĠTh is
rou gh
al ly
Ġpe ople
Ġh ad
l ud
Ġh ow
Ġd iff
on d
Ġt r
m s
au se
o ve
ter n
Ġcon s
Ġc ol
Ġ ro
Ġo ur
l l
Ġ ra
Ġ 3
Ġa ct
Ġu se
if ic
in t
Ġbe t
w e
Ġm ost
l ic
Ġu nder
Ġw ould
le ct
ir st
Ġk now
ment s
Ġs a
y s
Ġl ike
Ġb l
Ġd es
it ies
j ect
n ing
i ous
Ġa cc
Ġ Y
l es
o ok
al th
vel op
ro w
Ġt w
Ġne w
st em
Ġre l
Ġsu ch
Ġre p
Ġ if
Ġne ed
ation al
ff ect
i ent
o b
Ġan y
Ġinc lud
Ġch ild
Ġg en
he d
at ive
p le
Ġhe l
ul ar
Ġwh at
c ess
Ġon ly
Ġn o
) ,
Ġp r
Ġus ed
Ġpro v
c ed
at ing
y p
Ġhel p
Ġp h
o v
Ġp o
ĠU n
Ġpro du
Ġin d
Ġman y
Ġth rough
Ġa m
Ġf irst
Ġof f
Ġde velop
f ter
os s
i et
at h
Ġf e
ic s
Ġsp ec
u c
o ol
is e
Ġa c
Ġe m
rou nd
er m
ar k
Ġex p
Ġre g
n e
t s
ri b
ur ing
Ġtw o
in k
f ul
he n
Ġsy stem
is s
i ed
et h
ot h
ol d
Ġdiff ere
Ġo b
ib le
il ity
Ġde c
Ġas s
Ġat t
al s
Ġs ur
if e
as ed
Ġad d
t en
ro p
ĠH e
Ġ -
a w
er t
an ge
Ġ2 00
n g
Ġf l
ĠâĢ ĵ
Ġ20 1
I n
f ore
Ġsh ould
ra m
u res
ow er
Ġsu pp
ar ch
Ġw ell
we en
Ġw ater
Ġre m
Ġyear s
b le
se l
Ġin v
Ġc o
ra ct
ut ion
Ġsu b
ow n
g an
ad e
Ġc ould
Ġs m
Ġ 4
it s
Ġbet ween
he s
Ġp res
Ġwhe re
c y
Ġh igh
ic k
Ġtr ans
Ġhe alth
w n
u ch
il y
Ġ 5
e ver
Ġ her
ĠA s
Ġm ake
ant s
Ġe ar
Ġp ers
x t
id ent
Ġg et
it ed
f orm
Ġb u
Ġin ter
olog y
mer ic
Ġre se
Ġimp ort
Ġp ol
ur al
i vers
l and
i ence
ch n
Ġm od
Ġn um
t ing
Ġfor m
ch ool
Ġin st
Ġdis c
in es
on t
Ġex am
Ġf ound
ist s
ic t
Ġm ed
e f
is m
ual ly
ur n
in s
Ġl ar
Ġbec ause
Ġthe n
Ġa fter
g y
Ġle ar
Ġs im
Ġl ong
Ġc ent
Ġ very
Ġinf orm
Ġev en
o y
h at
Ġwor ld
at a
Ġj ust
Ġdiffere nt
f t
n ess
Ġe ffect
Ġh um
Ġex per
ot her
Ġc ar
Ġinc re
Ġd et
ĠA meric
at ure
Ġc ount
Ġw ay
ce pt
Ġ1 8
Ġ ed
Ġse e
g et
v ent
Ġt yp
ical ly
Ġre f
ak ing
Ġth ose
ol low
iv es
Ġ ke
Ġres p
Ġc all
Ġpro g
Ġp ub
Ġs ign
Ġgen er
Ġv ar
c er
i ew
Ġe very
c k
Ġsa id
ro s
or k
Ġs oc
Ġchild ren
Ġex t
om m
u es
Ġl oc
d s
ar m
Ġse c
t le
p s
Ġbe ing
Ġe ach
. âĢĿ
Ġres ult
Ġpro cess
Ġf act
as es
Ġp at
l ed
Ġl ife
Ġpart ic
Ġs et
Ġc a
ir on
ĠA l
ru ct
T h
ver n
Ġm y
at her
Ġimport ant
Ġg ra
Ġinform ation
v ed
ag es
Ġm uch
Ġd ist
od y
Ġm on
Ġs he
ĠW e
Ġre qu
Ġcomm un
Ġde f
c ent
Ġf am
Ġte chn
Ġc re
ĠP ro
Ġde p
Ġd uring
Ġ ent
iz ed
Ġo wn
Ġf ollow
w ard
Ġr ight
im es
. .
Ġre ad
Ġar t
g g
i o
Ġs ame
Ġle ad
ĠThe y
Ġle vel
ect ion
Ġf ood
h ip
ic es
ĠR e
Ġa ut
Ġdo es
Ġm ade
an y
Ġstud ents
Ġstud y
Ġpers on
iz e
Ġen d
Ġin s
Ġs k
t he
Ġst r
Ġ 6
Ġc ur
. ,
Ġf ind
t ed
Ġm in
ĠI f
Ġd ata
u nd
Ġpro ble
Ġp op
ĠF or
Ġg row
Ġb oth
Ġa v
ĠA n
Ġb ack
c on
1 9
Ġg ood
al e
Ġg rou
ar s
| |
Ġc he
Ġbe fore
Ġsm all
v iron
ivers ity
ĠA r
Ġex pl
Ġsh ow
Ġag ain
Ġh ist
in ce
Ġcomp le
Ġus ing
Ġg l
2 0
in al
Ġs chool
st and
Ġpro t
ial ly
r on
Ġc or
in ed
i el
iv id
Ġd i
om en
al ity
Ġb o
re ad
00 0
n ce
Ġm ain
t y
ro l
d er
ĠH ow
Ġof ten
Ġt est
Ġp oss
Ġt reat
is hed
Ġst ate
a x
Ġl it
ĠN ew
Ġv al
Ġh im
ut e
o h
ĠI nd
Ġs ol
Ġwh ile
im ate
Ġl ess
er gy
Ġn ow
ire ct
oc k
i x
Ġd ay
r an
ĠS p
Ġdis e
Ġo cc
e x
Ġnum ber
ur y
i en
Ġs erv
Ġc ell
Ġt ake
ul ation
r al
ak es
Ġm em
Ġr is
Ġhum an
Ġor gan
Ġprov id
i er
Ġp ower
viron ment
ĠS c
d ition
Ġv is
e red
Ġrese arch
Ġf un
iet y
a ir
Ġch ar
iv ing
u p
Ġm ust
Ġact iv
Ġ1 0
ter s
Ġdes ign
Ġsupp ort
Ġb ody
Ġ est
i qu
Ġd own
Ġbe l
Ġth ree
us s
her s
v es
Ġa round
Ġha nd
it al
v en
a h
Ġgo vern
Ġl ook
Ġcon f
Ġpl an
Ġe lect
Ġcl ass
Ġd id
Ġcomm on
d ay
Ġg reat
c l
Ġpo int
ĠB ut
g er
re nt
Ġst art
Ġ 7
a j
a ve
Ġre du
âĢ Ķ
i um
sel f
Ġl and
ain s
Ġs er
Ġlar ge
Ġcont in
g en
ou se
Th is
Ġc le
ros s
v ing
Ġexam ple
Ġre t
Ġrep ort
r ing
Ġth ough
it ions
a red
act er
ĠI s
Ġ 8
ion al
as h
Ġinclud ing
Ġo p
Ġc our
e e
c om
or n
Ġcon st
ra in
ou th
Ġc are
, âĢĿ
Ġall ow
Ġcall ed
e g
Ġs om
ul l
Ġunder stand
i ver
Ġpub lic
ĠThe re
. "
w ay
Ġw rit
âĢ ĵ
Ġe qu
Ġst ill
Ġbu ild
n er
ĠA nd
1 0
iv en
Ġm et
Ġed uc
Ġad v
el s
Ġbe h
es p
ater ial
Ġknow n
Ġth ink
ivid ual
in c
Ġp ract
ĠY ou
i red
os ed
Ġ ide
Ġqu est
oc i
re en
Ġd r
om s
ere st
Ġg u
ect ed
Ġapp ro
Ġf ew
l ish
i od
Ġpl ace
Ġm at
Ġ19 9
in ation
Ġ 9
Ġe as
âĢ ľ
b ers
Ġst and
ĠâĢ ĺ
it ive
con om
ent ial
en se
d e
Ġm ight
iv ed
r ies
ra ph
id s
iz ation
m e
er al
ĠW h
Ġwith out
our ces
ou n
ĠE ng
Ġch ang
Ġt em
i or
as on
ĠThe se
Ġde m
t t
Ġen vironment
ĠUn iversity
r ation
Ġca us
Ġwith in
ord ing
Ġis s
eth od
Ġsy m
Ġind ividual
er ing
ert ain
Ġpres ent
Ġpl ay
Ġw ant
i ans
ill ion
Ġen ergy
Ġprodu ct
ĠAmeric an
en g
Ġd irect
Ġp ur
pt ion
m an
ĠD e
l ine
Ġch ange
Ġph ys
Ġc ap
Ġm aterial
Ġdevelop ment
Ġ ident
Ġl aw
l ess
ĠC on
Ġim m
Ġsoc ial
ff ic
Ġlear n
Ġp ot
Ġan other
al k
ang u
Ġdise ase
Ġd on
t on
or th
Ġp ass
Ġ &
Ġb re
Ġa ir
Ġpro f
in ess
Ġare a
Ġs l
Ġs it
are nt
u g
Ġp os
Ġpro ject
Ġb en
Ġw omen
Ġimp ro
et s
olog ical
ab ility
Ġl ight
ag n
Ġ ve
aj or
r ist
Ġm us
' t
Ġh ome
Ġre st
Ġdes c
if ied
Ġbel ie
cc ess
Ġb as
ain ed
r is
Ġint erest
Ġan t
Ġcont rol
Ġinclud e
at s
Ġc ult
b s
ro du
I t
er c
Ġe t
Ġen g
Ġris k
iel d
Ġbl ood
ĠP h
ent al
Ġgovern ment
at ic
Ġme as
Ġb est
if y
Ġo pp
Ġagain st
Ġprog ram
Ġo ld
ent ly
i k
a z
Ġbec ome
l ished
Ġm il
Ġm ark
at ural
Ġle g
w ays
Ġse ver
Ġm ethod
c ing
Ġm ove
g in
Ġp ar
ĠA d
Ġw ar
Ġl ow
Ġear ly
Ġp ain
Ġan al
Ġe conom
t o
is ion
er n
ĠS h
Ġan im
Ġhe re
he re
ĠHow ever
ar c
Ġe le
Ġor der
h or
Ġpro per
Ġbet ter
our ce
Ġf ore
Ġl ast
iss ion
e ad
Ġre al
Ġsec ond
ard s
u se
in ing
Ġme ans
Ġke ep
Ġo per
Ġto o
Ġprov ide
Ġgrou p
am p
Ġfam ily
_ _
Ġt er
Ġhist ory
ent ion
Ġs ay
or ies
Ġm ajor
ĠUn ited
id er
Ġposs ible
Ġc ause
Ġu nt
Ġocc ur
Ġpartic ular
an k
pl es
ĠR es
Ġt re
ic le
Ġde v
ra p
Ġcur rent
ill s
Ġav ail
Ġf in
e ed
ot e
Ġper cent
w are
ir c
Ġne ar
Ġor ig
ĠE x
ĠC ol
ĠC l
Ġto p
Ġsever al
re t
og raph
ĠâĢ Ķ
p ect
Ġsa f
Ġadd ition
ĠW hen
Ġin du
Ġinv ol
Ġper iod
Ġme an
id ence
l u
Ġ1 5
p ar
v iew
Ġs ince
in a
Ġab le
o id
i ents
og n
Ġha pp
Ġh ig
Ġe l
Ġm en
Ġm ar
Ġ Z
Ġlear ning
Ġl angu
Ġop en
Ġspec ies
Ġth ings
Ġper form
Ġsc ient
, "
Ġb us
ĠG od
ĠC an
Ġpro m
Ġben ef
th ough
Ġc al
s y
at or
am es
Ġare as
ĠP l
Ġn on
Ġn ame
Ġother s
Ġs ays
Ġam ong
Ġf re
ĠS e
ĠC omm
ĠSt ates
il ar
Ġl im
Ġfe el
u rop
ĠA t
Ġ [
Ġcount ry
Ġb ased
Ġa ffect
p ort
o le
Ġ .
Ġob ject
Ġtreat ment
w w
W hat
ĠT o
Ġfollow ing
Ġ Q
os p
pl oy
o f
Ġc ertain
Ġf our
l ing
Ġt imes
Ġavail able
Ġsign ific
Ġc ost
end s
om p
Ġcon d
Ġpl ant
end ed
Ġpre vent
s c
ab ly
Ġf ac
Ġacc ess
r id
un e
Ġc ase
el f
ur ther
Ġhe ad
Ġcon n
b e
st it
Ġd el
Ġv iew
Ġa ge
ĠCh rist
Ġ1 7
Ġwe e
Ġloc al
Ġr un
Ġst ruct
ot s
Ġcell s
is ed
Ġcom e
oc us
Ġre ce
Ġb ro
ol ution
Ġlit tle
Ġl ab
Ġsu ccess
Ġf ree
Ġl o
Ġb ir
Ġp ost
res ent
Ġp ress
ĠE n
eth ing
ĠC ent
op e
Ġmon th
gg est
W e
Ġb i
Ġl ater
urop e
w ork
ĠN ational
Ġproble m
o int
Ġl ist
ress ion
h y
Ġtyp e
Ġv ol
Ġlevel s
Ġin tern
Ġp ut
Ġf ar
Ġyou ng
Ġle t
Ġunt il
Ġc reat
Ġf low
Ġproble ms
Ġn atural
Ġass oci
g ed
st r
ic ult
1 2
Ġh ard
Ġ1 2
Ġse em
it her
p or
n ot
on es
an ces
Ġsu ggest
Ġt urn
Ġam ount
he m
I f
Ġg iven
1 8
a per
Ġcomp ut
ĠA f
Ġpol it
ate ly
Ġb ook
ĠO r
o ks
Ġs w
Ġm ult
ure d
A s
ort un
ĠT e
Ġm aking
Ġc irc
Ġhe art
Ġsh ort
Ġsom ething
ĠB e
ic ation
led ge
ut ure
Ġdet erm
Ġbeh av
ak en
o ver
Ġimp act
ap s
at ory
Ġch o
Ġ ess
ĠE urope
id es
ĠU S
Ġfun ction
Ġv ir
Ġf ocus
Ġal ong
Ġ $
age ment
Ġlike ly
Ġcour se
Ġde ath
Ġf il
oh n
Ġd ue
Ġsignific ant
ĠO n
f ace
Ġ 0
ĠA ll
Ġra d
Ġinv est
Ġapp ear
Ġd ra
or ld
ĠM ed
Ġcom b
p r
Ġwor ds
Ġal ways
v ious
Ġeduc ation
Ġcle ar
Ġm illion
n ed
Ġs ing
Ġ1 6
Ġd ays
ri ed
our s
Ġus ually
c le
an c
Ġpop ulation
Ġh y
Ġsystem s
s p
Ġcent ury
Ġincre ase
Ġte ac
Ġg r
ec ially
et ic
Ġlangu age
Ġcommun ity
Ġre le
as ter
end ing
ĠW hat
em ber
Ġob s
a pp
Ġb rain
Ġg ive
m it
Ġresult s
Ġto day
Ġex ist
Ġp ast
Ġdesc rib
m in
Ġcond itions
Ġ er
Ġsim ilar
Ġm ov
m ost
Ġdiff icult
ap e
Ġaut hor
ore d
Ġab ove
ive ly
as ing
Ġspec ific
Ġl ine
Ġtem per
i ation
Ġcre ate
Ġcan cer
Ġrec ord
l er
Ġest ab
Ġsp ace
ob al
Ġwh y
Ġe y
ĠB rit
Ġp arent
pt oms
The re
Ġchar acter
at ors
Ġne xt
Ġen c
is c
Ġneed s
ru ction
rib ut
id d
ĠS o
Ġexper ience
esp ecially
Ġpro p
1 1
Ġdisc uss
Ġbe gin
Ġg re
ain ing
Ġ '
Ġ ill
Ġcons um
Ġtechn ology
Ġd am
Ġchang es
Ġspec ial
ĠE ar
sel ves
Ġne cess
Ġas k
Ġc rit
Ġapp lic
Ġf uture
5 0
Ġne ver
S t
Ġk ind
Ġle ast
Ġstr ong
Ġm ot
n al
Ġac ross
y m
H ow
Ġvar ious
Ġhig her
a f
ĠB l
ĠAf ric
Ġhow ever
Ġle ft
Ġresp ons
iqu e
f or
Ġs ide
ort s
Ġt ry
Ġbus iness
Ġto get
ĠG erm
Ġtoget her
b y
Ġt ru
ru g
Ġcount ries
Ġn et
Ġrese arc
Ġcol le
Ġcomple te
ra y
ate g
a im
at ch
an e
om es
Ġprof ess
Ġa way
il ities
one y
od e
al f
Ġen ough
Ġt erm
le t
du ct
om an
Ġwork ing
o x
Ġto ol
th ing
ac es
Ġ especially
Ġche m
av es
Ġwor ks
Ġha ving
o ot
u ed
u ment
Ġrequ ire
Ġke y
ĠJ ohn
Ġc y
Ġimpro ve
Ġte am
Ġpl ants
Ġc ases
Ġ19 8
il t
ac y
ach ing
ĠW ar
Ġbec ame
Ġc r
i res
Ġf ull
Ġgener al
N A
Ġstud ies
g es
Ġ z
ist ic
Ġw ays
Ġrel ations
Ġrep resent
ys is
Ġeffect s
Ġpr im
le ment
Ġacc ount
s w
al es
am m
ĠEng lish
Ġs ens
it or
Ġsub ject
it ing
Ġn orm
Ġtyp es
1 5
Ġcons ider
Ġre ason
ar ing
Ġf und
2 00
i pp
ot t
Ġgo ing
h ing
Ġm ic
a pt
Ġwhe ther
Ġst ep
Ġcon cer
Ġg round
en cy
3 0
s ide
ere nce
Ġh ouse
a ut
Ġpol ic
Ġprot ect
/ /
a e
Ġsym ptoms
A n
read y
Ġknow ledge
ĠS ome
m ber
i ol
le y
Ġf urther
Ġphys ical
Ġm ind
ĠW orld
Ġm akes
Ġs elf
Ġl ower
ch ie
Ġc ity
ific ation
F or
Ġinf lu
Ġro le
ĠG o
l o
Ġsu m
ĠO ne
Ġ3 0
ed i
ĠL e
Ġquest ion
er y
an n
un g
Ġgrou ps
ir d
Ġpat ients
Ġsc ience
Ġe ff
Ġem ploy
Ġst at
ur ch
1 6
Ġo pt
u nt
au gh
Ġst ory
.. .
ĠIn tern
Ġch all
ĠW ith
ib ility
: //
Ġsu re
ac c
Ġb ig
ĠG en
at ures
sy ch
Ġse en
Ġcl ose
Ġen s
ĠTh at
Ġval ue
Ġn ut
Ġr ather
Ġpartic ip
re l
ur ity
c ul
Ġfl u
Ġp red
Ġwor d
Ġd ig
Ġl oss
Ġ1 4
Ġte xt
et imes
and s
Ġoff ic
ra ms
Ġal ready
Ġne g
Ġind ic
Ġto ward
Ġactiv ity
Ġl ive
r ight
Ġs ite
Ġpro b
Ġmod el
ĠC ar
re am
ĠM ar
Ġbe low
Ġpot ential
ĠA m
it es
ĠC al
p ut
ab les
Ġret urn
1 7
Ġactiv ities
Ġd one
am in
Ġr ange
Ġw ind
Ġw r
Ġev idence
Ġproduct s
b on
Ġ ur
Ġe ither
Ġres ources
Ġsu n
Ġtra dition
es c
ĠHe alth
Ġre ally
ĠG e
ove red
ver age
Ġn ational
Ġo il
ou ra
Ġd iet
Ġrec ogn
Ġdevelop ed
Ġcol lect
Ġsing le
Ġph ot
Ġde g
u ation
Ġgrow th
Ġf ive
Ġprodu ction
y n
ear ch
Ġacc ording
ĠB y
Ġl ot
ĠD r
E R
iv il
ub lic
Ġon ce
e b
Ġqu ality
Ġart icle
Ġmed ical
Ġf all
Ġup on
ip le
1 3
Ġmem bers
Ġev ent
Ġdo ct
i am
Ġr ate
c hes
os is
Ġm ass
iv al
f act
Ġrel ig
Ġa chie
Ġbuild ing
1 4
ide red
u le
Ġwho le
Ġb at
Ġiss ues
Ġindu st
ĠI m
Ġt aken
Ġresearc hers
ip s
Ġsur face
Ġin it
Ġme et
ĠN orth
Ġs ent
W hen
is on
Ġc ame
Ġs ource
v al
Ġan n
Ġadd ress
Ġdet ail
as k
et er
ĠS he
Ġthem selves
ib r
ĠT r
Ġd est
ĠS oc
ĠAmeric a
our nal
Ġre d
Ġf ield
Ġl iving
Ġcl imate
Ġn ature
Ġfre qu
Ġpolit ical
f er
ro ll
ĠA b
Ġd om
Ġredu ce
Ġcan not
Ġh old
Ġcon cept
Ġab s
Ġd rug
Ġc ut
ĠM ay
Ġwh ite
et y
re ct
Ġquest ions
Ġcons idered
Ġto t
ric t
Ġcre ated
Ġ19 7
ĠS outh
Ġp aper
Ġthough t
Ġw ide
ĠA ust
ĠY ork
Ġobs erv
re me
or g
Ġf ri
Ġt ell
le ep
ffic ient
pl ic
ill ed
l ike
en n
Ġint rodu
) :
re g
ap an
r ont
Ġ ver
Ġf ail
ĠR ep
Ġl ay
Ġit self
Ġincre ased
Ġassoci ated
Ġst ates
ĠAs s
Ġact ually
Ġs ize
Ġ1 3
s h
Ġanim als
Ġright s
Ġhist or
ĠSt ud
Ġpress ure
Ġrec omm
Ġad ult
Ġsk ills
Ġs ound
âĢ ¦
ep end
o ber
Ġd oc
o on
Ġbl ack
ut ions
Ġwee k
Ġal most
Ġwe ight
Ġunderstand ing
Ġp ay
Ġsim ple
Ġfam il
" .
m a
Ġm or
Ġpub lished
Ġso il
Ġrequ ired
Ġgl obal
Ġent ire
ĠM an
Ġ =
ĠA ct
ĠS y
S A
Ġpract ice
ĠP r
Ġsk in
art ment
Ġrelations hip
Ġopp ortun
Ġcomple x
se qu
Ġrel ated
Ġar g
ĠEar th
Ġeconom ic
en ed
Ġs al
C h
iv ity
ac ed
Ġide a
Ġmain t
Ġf at
Ġst ress
Ġstud ent
ol ic
op h
Ġmark et
Ġneed ed
it ud
Ġeffect ive
Ġqu ick
Ġprovid es
Ġcon dition
ne y
g ing
Ġab ility
us h
Ġto ok
ag ed
ly ing
ĠD ep
l ight
. )
g o
Ġmaterial s
Ġf ish
Ġmod ern
h ib
Ġsp e
Ġh alf
it ary
Ġh tt
Ġcl aim
T o
Ġeng ine
A l
p ro
er ve
Ġman agement
ol l
Ġpr iv
Ġpur p
os es
Ġcom es
row n
Ġpart s
Ġp ort
ac ks
Ġm oney
ĠH ist
ĠG u
en ing
Ġsu per
g est
ed s
a i
Ġex erc
Ġar ch
ra d
ore s
um p
Ġpro te
c ient
Ġsu ff
Ġav oid
Ġ vers
Ġexper ien
Ġhealth y
ĠSt ate
ut es
p ly
Ġnecess ary
Ġc at
Ġbe gan
ag ing
ur s
Ġf ire
ve re
Ġserv ices
Ġre act
ch an
ĠH is
Ġe ver
Ġan sw
Ġcon duct
es e
m y
Ġp ath
Ġ X
ĠJ apan
m b
Ġar r
Ġy et
Ġcol l
in ter
Ġparent s
Ġmonth s
Ġl ink
Ġg reen
Ġmed ic
Ġ |
ri pt
us ion
Ġreg ion
Ġappro ach
ir m
Ġ19 6
Ġs ense
Ġc op
Ġh ours
Ġg e
Ġcomput er
Ġass ess
ab it
Ġg as
W h
Ġb ar
Ġ1 00
Ġse par
s on
u el
Ġst op
n ces
um e
ĠBrit ish
Ġr ul
iz ing
em pt
en ces
Ġd og
ens ive
Ġchem ical
Ġlit er
Ġprodu ce
he t
Ġe mer
Ġpop ular
b o
ab or
Ġfact ors
z e
idd le
r ated
Ġthrough out
Ġhe at
Ġ5 0
ed eral
ĠC o
Ġpr inc
ect ions
es tern
Ġmeas ure
ĠC ont
b ased
ĠCan ad
Ġt ar
Ġpat tern
Ġanal ysis
Y ou
ict ion
Ġs am
Ġrec ent
Ġperson al
Ġreg ard
er ous
ĠD o
Ġso ft
Ġa ction
Ġincre asing
ig ure
ĠC omp
g ar
Ġbehav ior
Ġcol or
Ġt aking
Ġj ob
y l
Ġread ing
h old
Ġre pl
ĠA fter
Ġon line
Ġthe rap
uc k
ic les
E S
ĠN e
Ġpre vious
is ing
Ġserv ice
Ġlong er
Ġinter act
Ġshow s
ĠJ ew
Ġcon c
p id
cc ording
Ġt alk
Ġindividual s
ul ations
Ġdis ord
Ġ ut
Ġl a
Ġf arm
em ic
Ġcont ent
Ġstruct ure
- -
Ġprovid ed
Ġs ix
Ġpos ition
on se
Ġb ur
Ġenvironment al
Ġmat ter
Ġsur v
Ġtot al
ow s
Ġsoc iety
Ġfe ed
Ġtru e
r ate
Ġbu ilt
ĠP e
min ist
Ġth ing
Ġ2 5
ab et
Ġindust ry
Ġter ms
I D
Ġmean ing
w h
Ġb ring
ĠRes earch
Ġwrit ing
Ġv iol
Ã ©
ĠIn stit
en e
c hed
ist ance
Ġse x
Ġhe av
ar ies
Ġcaus ed
Ġtemper ature
Ġde b
y le
is ter
Ġche ck
Ġmus ic
Ġbre ak
land s
ve y
Ġmed ia
l or
Ġin j
Ġdesign ed
Ġ1 1
ric ult
Ġtra ining
Ġre v
m on
Ġac cept
l t
in ary
Ġa st
ĠI I
Ġcomp any
n s
Ġprog rams
uc le
Ġsh own
Ġcont act
Ġexper im
Ġs at
ful ly
Ġc e
Ġear th
Ġl ives
an ced
ren g
Ġet c
ail y
ĠWh ile
Ġinclud es
rough t
Ġl ove
ĠS chool
a ff
Ġs leep
Ġorig inal
Ġmethod s
Ġdi agn
Ġcult ure
h ood
ren ch
d om
Ġbenef its
Ġth reat
ast ic
Ġp age
Ġeas y
Ġrel ative
Ġsaf e
ist ics
at ives
Ġl ed
ĠS ec
Ġcaus es
le x
Ġtra vel
ron ic
rop ri
Ġcont ain
Ġvar i
ĠE m
imate ly
du c
Ġpos itive
Ġs low
Ġsom etimes
Ġsim ply
Ġpol l
as c
Ġex c
os ition
ĠS u
Ġschool s
am ed
ing ton
Ġcle an
Ġv ide
ĠN o
um b
Ġw ild
Ġ19 4
Ġstand ard
Ġbelie ve
Ġl if
av ing
ad es
Ġm ach
Ġvar iety
it ation
Ġmic ro
Ġmove ment
Ġgre ater
Ġem b
Ġscient ists
ĠK ing
Ġsp read
i us
r im
n ers
ĠP res
ri or
Ġtar get
Ġsub st
Ġorig in
Ġa verage
Ġe at
Ġ Â
u ge
Ġiss ue
A T
Ġus es
Ġreport ed
Ġde ep
Ġwrit ten
A R
Ġreg ular
Ġinvol ved
c il
Ġp le
r ast
n ew
Ġpre c
B ut
Ġst e
erv ation
Ġc amp
Ġme chan
Ġp sych
ĠP ar
ight s
ĠAust ral
Ġcar bon
ac hes
ĠInd ia
ar ily
b an
er ation
Ġf ru
Ġev ents
Ġf em
Ġp ict
Ġdem on
Ġresp ect
Ġ- -
__ __
Ġfor ms
b or
Ġfor ce
Ġref er
al ing
Ġb acter
Ġdo ing
Ġim age
Ġdevelop ing
Ġs ources
u fact
Ġparticular ly
ĠP er
k now
Ġb r
Ġdam age
ĠM in
ial s
Ġfore st
Ġnet work
Ġnorm al
ra nd
Ġident ify
ĠSc ience
ri e
Ġenc oura
Ġbas ic
Ġfood s
ie f
Ġcomp an
Ġsh are
Ġt ax
Ġl og
2 2
Ġf ace
ĠCh ina
I N
Ġatt empt
l ies
Ġst reng
Ġl ate
Ġout side
op s
Ġl ack
Ġw ood
ver se
Ġhelp s
os ure
eng th
end er
Ġre view
ĠA ug
ac hed
Ġpo or
Ġresp onse
he st
Ġimp lement
Ġser ious
Ġe c
Ġrem ov
Ġcomp on
ĠE d
Ġprodu ced
Ġgener ally
Ġatt ention
ct ions
Ġext reme
Ġc ross
ĠJ es
o or
o ly
ĠW ill
Ġens ure
is ions
Ġc ust
Ġcomp et
Ġs qu
Ġgrow ing
Ġa p
Ġm ess
Ġvis it
ĠH ar
Ġide as
ĠCent er
Ġser ies
Ġint eg
is es
Ġteac hers
Ġse a
Ġh arm
ut h
rib ution
Ġs ou
ir it
Ġag o
an a
Ġc oun
Ġnum bers
im um
ĠJ u
Ġprob ably
Ġsaf ety
Ġcons ist
ell ing
am b
Ġintern ational
Ġdra w
Ġvir us
ĠJ an
Ġa ff
u ary
vent ion
Ġsu st
Ġb al
m ing
se t
Ġm other
Ġfe et
Ġem ot
Ġexp ress
er g
ĠC ount
l s
id ed
Ġf a
Ġo x
Ġse lect
Ġcomm it
ĠM e
Ġc it
h aps
ol es
Ġpre p
Ġcontin ue
Ġl at
Ġlead ers
O N
2 5
ec ause
ers on
O n
Ġdis pl
Ġ2 4
r or
Ġv it
Ġwe bs
ĠQ u
ĠP art
Ġd ou
Ġpolic y
Ġatt ack
O R
w here
Ġind epend
os ing
Ġchall eng
Ġn ight
Ġ ir
g round
em s
ĠA pp
Ġelect ric
Ġdef in
ra ft
c ies
if orn
t ies
Ġve get
in ks
Ġcor rect
o es
Ġanim al
i ot
Ġth us
Ġ /
Ġess ential
Ġinclud ed
Ġget ting
Ġhy d
f ect
Ġthere fore
Ġpat ient
Ġt akes
ĠI nt
ĠM any
Ġcon cent
Ġestab lished
iss ions
I S
Ġco ver
n a
Ġest im
use um
Ġw all
Ġinst ead
y ing
Ġa ware
o very
Ġ201 0
ĠF rench
Ġlook ing
ĠB o
Ġdoes n
Ġm agn
Ġsome one
abet es
ro om
Ġe th
Ġk ids
Ġinst it
itud e
Ġc ivil
h a
re w
Ġman ufact
ĠE duc
ĠP re
ce ll
Ġb ab
Ġcol on
Ġpoint s
ograph y
Ġmil itary
Ġto wn
Ġd ang
iforn ia
anc ial
Ġinvest ig
Ġbo oks
ĠC ons
Ġqu ite
Ġth ous
Ġd aily
r s
he l
Ġpr int
Ġthe ory
Ġhe ld
ww w
ĠInstit ute
Ġsec urity
Ġeas ily
Ġt ree
Ġw arm
ens ion
Ġbir th
Ġth ird
ĠM ore
ĠR uss
ĠGerm an
ad s
e xt
Ġd iv
Ġdiffere nce
Ġ201 2
if t
Ġt ur
Ġadd ed
Ġf ul
ĠE l
ce ed
Ġtradition al
Ġcommun ities
Ġdeterm ine
Ġprim ary
ĠA c
as ons
Ġscient ific
ĠA g
in o
Ġcomp ared
il le
ĠDep artment
Ġstart ed
ĠInd ian
Ġca pt
ĠEurope an
Ġref lect
Ġlar ger
Ġtool s
Ġ4 0
Ġn ation
Ġapp ropri
Ġimm edi
Ġf av
Ġsol ar
A N
Ġsp eed
und red
ound s
Ġre ve
Ġprog ress
Ġun ique
Ġseem s
Ġv acc
Ġfamil ies
Ġallow s
Ġins ide
Ġdirect ly
el t
Ġdoct or
Ġf ront
Ġb it
Ġdoc ument
Ġquick ly
Ġtre es
Ġoff er
Ġneg ative
Ġs il
Ġachie ve
Ġhum ans
Ġperform ance
Ġmult iple
d en
ĠF ran
her n
ĠM ost
ell ow
Ġal though
Ġev al
l ied
Ġdise ases
Ġdemon str
ĠG l
Ġal tern
Ġs old
Ġact ive
Ġspe ak
Ġw ent
pr il
2 1
Ġdec re
Ġey e
Ġaddition al
ĠM arch
Ġhigh ly
or ks
ĠCal ifornia
ther n
ĠY our
2 3
Ġinf ection
Ġbeh ind
r ig
Ġac id
Ġas pect
gen cy
Ġm ental
ien cy
Ġcompan ies
Ġa ud
ĠJ une
Ġt iss
ur ies
Ġh ar
Ġt ri
Ġr out
rid ge
r ance
Ġn ucle
Ġ201 1
ĠChrist ian
om et
Ġse vere
an cy
I C
Ġh abit
Ġlab or
Ġt end
Ġhtt p
Ġwh ose
Ġdr ink
um an
an ks
Ġcent ral
ĠO ct
y ond
Ġf oot
j oy
Ġext ra
Ġw alk
Ġg ard
Ġso on
Ġbegin ning
O ne
Ġb ase
om ing
Ġtrans port
ol ar
Ġ i
Ġh ost
r ition
Ġansw er
ul ate
form ation
Ġinter p
ĠCh ar
ce an
le b
Ġg ame
H e
Ġh ot
Ġbro ad
m ar
it er
Ġele ments
Ġs us
ĠIntern ational
i ers
Ġexerc ise
ĠJes us
Ġh or
Ġprot ection
al y
Ġst ri
ĠW est
ĠAr t
ort hern
iqu es
ter m
Ġcrit ical
ro gen
ĠAfric an
ines e
Ġthink ing
Ġlead ing
Ġp rior
ĠB ar
ĠAug ust
Ġdec l
Ġf ram
ĠR ec
Ġn orth
Ġd ry
l ier
n ov
Ġl ost
Ġel se
il os
im s
c oh
Ġb ad
l ation
Ġsupp ly
S o
âĢ ¢
Ġanal y
ĠR et
ĠC O
ash ington
Ġcl in
Ġexp ect
Ġvide o
Ġs ection
Ġpro ced
ĠS m
Ġprote in
ĠHist ory
Ġm ount
Ġpurp ose
Ġval ues
ĠO ther
Ġtoward s
p e
Ġan cient
Ġob t
Ġrece ived
4 0
Ġuse ful
Ġc ard
ĠD av
is ms
ĠJu ly
v ant
ĠG ree
Ġte aching
ĠCh ild
Ġor d
Ġlim ited
se e
Ġst ay
ib er
iel ds
ĠAl though
il s
ĠH er
ĠSe pt
I V
Ġcap ital
Ġf ight
Ġsit uation
ĠAfric a
Ġh undred
Ġlar gest
ĠN ot
Ġcont ains
Ġdescrib ed
ch ing
Ġsym b
c ks
Ġstr ateg
Ġd ark
Ġj o
Ġb rought
Ġj ud
ĠP ress
Ġpriv ate
Ġ200 9
Ġdec ision
ĠO f
Ġmin utes
ĠC or
Ġcont ribut
Ġnew s
or ing
Ġ ,
il es
Ġc red
Ġrem ains
Ġm om
Ġcust om
w ise
se ct
ro te
Ġrelig ious
Ġad minist
Ġfe atures
le ction
Ġ x
19 9
ra el
Ġacc ur
Ġon es
m ission
ar r
Ġag ree
Ġinflu ence
ri ption
om b
hen s
ĠM us
ist ry
Ġloc ated
Ġadult s
Ġse arch
ĠS ch
Ġad op
Ġhand s
A t
us ed
Ġf ast
Ġestab lish
ar ian
Ġst ra
Ġs outh
Ġcap ac
ĠR iver
Ġun c
Ġsh all
Ġim ages
ĠK e
ĠA nt
Ġg ot
Ġfin ancial
e al
Ġqu ant
Ġcar ry
Ġgo al
c ome
ibr ary
Ġwr ite
6 0
olog ies
Ġm ill
Ġnear ly
Ġ2 1
Ġp ack
ĠM on
Ġapplic ation
m ed
ĠC ong
u k
A nd
Ġsoft ware
Ġen joy
Ġse ason
ĠT ra
Ġwork ers
Ġc ool
Ġr ates
iz ations
ĠPro g
ĠU s
ou d
Ġlaw s
est ic
Ġag ricult
im in
Ġdis p
Ġex act
Ġex cept
Ġbe aut
Ġbl ock
Ġcomm and
âĢĿ .
ĠT w
l ife
Ġrem ain
P A
Ġpl aces
8 0
Ġf ather
Ġrequ ires
Ġbec omes
Ġde ad
f ort
ud d
in ct
Ġhim self
Ġre ach
ĠA pril
ĠEng land
pp er
it is
at t
ĠCh inese
Ġf ederal
Ġl ength
Ġb orn
Ġim ag
st er
g n
Ġan g
ul ated
' re
Ġst ru
a ul
ĠF irst
e qu
Ġe p
Ġw a
b it
od ies
ĠRe g
Ġtest s
ra g
Ġeff orts
Ġv ict
Ġdem and
Ġco ast
o ke
ĠAmeric ans
v est
ĠS w
Ġm ole
Ġmil es
Ġto ld
ĠAss oci
Ġbas is
Ġsa w
ĠS erv
Ġsust ain
Ġl ines
u ous
Ġra re
Ġcit iz
Ġwee ks
ĠGo vern
Ġfor ces
ĠH ere
E N
Ġsit es
ce mber
Ġdev ices
ĠM y
it ect
im al
w ater
Ġs n
A S
c o
ent ially
Ġimport ance
u ments
y ear
Ġproper ty
am a
all ed
ond on
Ġcost s
Ġm ention
Ġe ating
i ra
ip ment
al t
Ġsur round
a id
Ġdig ital
ĠW ashington
at ur
ĠM c
ove mber
coh ol
ĠPres ident
Ġu lt
Ġmem ory
Ġbacter ia
id ents
ie ce
Ġ200 8
Ġdev ice
ĠCanad a
Ġnot hing
Ġproject s
Ġh ous
Ġle aves
Ġsum mer
Ġe gg
Ġsol ution
Ġey es
Ġobject s
Ġfri ends
Ġresp ond
2 4
res h
Ġt it
Ġd ied
Ġtechn iques
Ġra pid
Ġtyp ically
Ġm is
Ġcent er
Ġt able
Ġwas te
Ġve h
Ġc ou
Ġappropri ate
Ġf it
Ġmon itor
Ġp an
Ġany thing
c ial
Ġwebs ite
k ing
yp e
ĠIs rael
Ġh ope
Ġ201 3
Ġb ul
ap ter
ĠEduc ation
Ġrespons ible
Ġapplic ations
Ġcommun ication
Ġprocess es
Ġs on
i ar
iz es
ĠC ity
Ġtest ing
Ġsp irit
Ġg ives
Ġad j
c les
h am
Ġcult ural
Ġ :
Ġd er
se c
Ġfollow ed
Ġcreat ing
augh t
ĠD ay
Ġevery thing
Ġteac her
ĠF rom
ix ed
Ġad apt
E D
Ġbe yond
Ġleg al
f ord
ĠJ ournal
Ġk ing
Ġconst it
Ġpract ices
Ġold er
ĠWill iam
Ġm id
Ġask ed
I T
ĠP ol
Ġ200 7
i pl
an ish
ĠJan uary
Ġconst ruction
Ġf inal
l in
Ġdi abetes
Ġrec ently
ĠCh urch
Ġtra de
b ack
Ġsu gar
he ad
Ġp en
Ġexam ples
om y
Ġaut om
Ġins p
ĠF eb
Ġcommun ic
Ġdep end
) ;
oc ol
og en
Ġcont roll
Ġb ott
ĠG reat
ed ia
Ġc am
Ġm iddle
Ġce leb
Ġd ate
The se
ĠP ark
Ġexp ected
ĠSept ember
on y
m osp
Ġgu id
i ples
Ġb reat
Ġc ode
Ġbenef it
ex ic
Ġant i
Ġadv ant
Ġcol d
Ġconn ect
Ġf ear
ĠOct ober
est s
Ġsmall er
Ġc rop
B y
Ġstand ards
u it
Ġwe b
Ġgra du
Ġre asons
Ġprovid ing
Ġ ice
Ġrece ive
Ġdest ro
Ġeconom y
en ge
Ġu nd
ed om
Ġcontin ued
ough t
Ġp et
Ġt en
ill ing
Ġf uel
Ġpo ly
Ġinst ru
Ġf ile
Ġcon sequ
em y
Ġcho ose
Ġbehav i
Ġloc ation
Ġtherap y
Ġ2 3
Ġsc reen
ĠS an
ĠDe velop
Ġus er
Ġcurrent ly
Ġrul es
ĠI S
Ġplan et
Ġfor mer
Ġst age
E x
Ġb illion
Ġset t
ĠTe chn
ĠE ast
e v
Ġopportun ity
Ġw oman
Ġcomplete ly
Ġc ru
m en
Ġeff ort
c an
Ġra in
a ur
Ġorgan ization
Ġconf lic
Ġappro x
hem at
Ġexp osure
gy pt
Ġsuccess ful
W ith
Ġcal cul
Ġal one
Ġw rote
ĠV al
Ġcolle ction
Ġbe g
ĠIn c
b ook
ĠDe cember
ĠE ven
Ġocc up
str ial
Ġ19 3
ell ig
Ġle ave
A C
Ġdiffere nces
Ġne igh
Ġaffect ed
Ġw inter
o ff
rie ved
ver t
ĠAr ch
Ġbir ds
Ġtry ing
i os
ĠC oun
rib ute
Ġgo es
Wh ile
ĠV ir
ĠL ear
Ġear lier
ord s
Ġoccur s
Ġelect r
Ġgen etic
Ġmem ber
Ġequ ipment
Ġn amed
Ġm iss
ĠCount y
air s
ĠN ovember
ĠL ondon
Ġmod els
ĠO ur
lo ad
Ġro om
ĠSy stem
ĠD is
ĠTr ans
Ġc ra
ic a
mit ted
Ġw on
ĠR ed
Ġ6 0
Ġsc ale
Ġse qu
Ġsh ape
o e
Ġcour t
ĠComm un
at ers
oc ks
Ġh on
Ġconst ant
ĠA ccording
Ġdeg ree
ĠC om
Ġallow ed
ing u
Ġd en
oc r
ur g
Ġevery one
Ġinterest ing
Ġv ia
ul a
ru ary
i able
re es
Ġch urch
Ġs ch
Ġs we
2 6
t ime
Ġmeas ures
Ġyour self
ĠL aw
Ġrecomm end
Ġprofess ional
Ġus ers
Ġte eth
Ġdrug s
2 7
Ġe ight
ens ity
k y
Ġde al
Ġform ed
Ġstreng th
od ay
m ore
ĠSoc iety
w ide
Ġh yp
Ġpl aced
Ġw ond
ter y
ib ly
Ġmaint ain
it able
Ġcommon ly
ĠR oman
Ġpre gn
Ġdisc overed
Ġpur ch
Ġper fect
ĠM exic
ar a
l amm
ire ction
Ġm ax
Ġvis ual
l am
Ġr ule
Ġper haps
Ġr ise
Ġte ach
ĠThe n
Ġg ir
ĠS im
2 9
d ing
ĠB i
Ġex ec
Ġredu ced
Ġapp lied
Ġover all
or ge
osp ital
u ff
I I
ĠD NA
ĠH igh
A L
Ġpred ict
Ġwe ather
or ation
Ġf air
Ġp ow
Ġhistor ical
Ġcom ing
Ġvir t
re et
Ġg ave
Ġcomm erc
Ġte le
Ġc ateg
E C
Ġdispl ay
" ,
ĠRe ad
Ġro ad
Ġro ck
ĠD uring
if ul
ĠBl ack
Ġstep s
Ġident ified
Ġsymb ol
Ġis n
Ġent er
Ġstat us
Ġr iver
Ġev olution
Ġem p
re c
P ro
Ġdid n
Ġm ob
Ġshow ed
Ġm ig
Ġpres ence
ph as
Ġen h
S ome
Ġv ill
en cies
Ġpower ful
Ġmajor ity
Ġrelative ly
ĠE gypt
Ġt ou
for ce
ĠAl so
Ġto x
Ġcont ext
it ch
Ġnot e
od es
Ġtra ck
Ġac qu
Ġr ich
ĠGerm any
Ġj oint
Ġfru it
ĠIn st
un ch
ra b
ĠB ecause
Ġmov ing
Ġass ign
ĠH ouse
Ġro b
os y
al ed
Ġincre ases
i ate
know n
ĠP at
Ġ19 5
Ġful ly
7 0
Ġat mosp
e es
Ġact ions
2 8
b re
ĠCong ress
Ġant ib
Ġc ities
Ġg old
Ġs ect
Ġappear s
Ġill ness
Ġun it
b l
Ġproper ties
rel ated
ĠN ow
Ġvers ion
ĠW ater
ot ed
st e
ain t
Ġm ut
Ġpe ace
er o
Ġp iece
Ġrem ember
Ġph ilos
c raft
ĠRet rieved
Ġm outh
ĠPro t
Ġcho ice
Ġwork ed
Ġsit u
Ġbab y
ĠM od
Ġc ry
Ġn ames
Ġele ment
res p
ent y
Ġas se
Ġ2 8
qu e
a ign
Ġstru gg
Ġtrans fer
ĠAustral ia
Ġcomp ar
ĠGen eral
ĠF in
ast e
Ġill ust
am ent
Ġb all
Ġst ories
Ġr at
Ġm ission
Ġ200 0
Ġal cohol
ĠS ince
Ġmom ent
Ġnut ri
ien ces
Ġ200 6
âĢĿ ,
U n
in ated
Ġconst ruct
ĠPh il
Ġpattern s
Ġmach ine
Ġsign s
tern al
ri ef
as ion
Ġlim it
k en
Ġexp and
Ġbelie f
ĠAssoci ation
ru pt
ĠJ ust
Ġc ook
ĠJapan ese
Ġw id
Ġwor th
Ġbre ast
p ris
Ġatt ract
Ġcapac ity
Ġfun ctions
à ¤
Ġac ad
Ġfor ward
Ġchang ed
Ġarch itect
Ġg iving
c ious
ĠC our
c he
ĠCon f
Ġe fficient
Ġv o
Ġf resh
ĠU se
Ġexist ing
ĠCoun cil
Ġass ist
ĠMed ic
Ġsur vey
Ġoff ers
Ġan x
Ġin sect
Ġ2 6
ĠA re
Ġd at
Ġeduc ational
ĠPe ople
Ġthous ands
Ġrep e
Ġfore ign
Ġcitiz ens
om as
Ġinc or
Ġass um
ul s
ĠEn vironment
ĠUn ion
Ġimm une
h ouse
Ġrun ning
ger y
I s
Ġinst ance
Ġcon vers
ess ion
ĠFeb ruary
ĠA ng
re hens
Ġequ al
Ġdetail s
Ġd irection
Ġf igure
ĠR o
ant ic
ĠSoc ial
in y
y d
ĠJew ish
ĠU N
Ġwe ak
Ġopportun ities
ĠS ur
Ġch ance
at in
ir ing
Ġfem ale
Ġp p
c ont
Ġdef ined
Ġt ask
ograph ic
Ġreg ions
ĠPro f
Ġtiss ue
i ance
Ġb ound
Ġfind ings
Ġcompon ents
Ġlearn ed
io x
Ġfri end
Ġgr ass
Ġst aff
A ll
i ant
ĠThe ir
Ġdisord er
Ġres istance
Ġeval u
Ġst ar
Ġh uge
Ġsuggest s
Ġdet ect
d o
Ġpict ure
Ġvit amin
Ġdist ance
Ġj ournal
ee ch
h ors
Ġfact or
ĠProg ram
p art
A d
ab ilities
Ġbelie ved
ĠT ur
ĠIntern et
Ġsepar ate
ĠF rance
Ġreport s
Ġ ing
le ge
Ġpass ed
Ġdestro y
Ġexpl ain
Ġwr ong
Ġse ven
Ġchalleng es
Ġin nov
Ġf ert
H E
R E
ur ance
Ġoff ice
pp ed
Ġbal ance
Ġpr ice
or age
Ġmus cle
Ġevent ually
ĠW estern
ric k
Ġqu al
Ġbo x
Ġgard en
ic ip
ĠN A
D A
Ġn ative
ed ing
er a
ĠF l
Ġ +
Ġem issions
Ġ201 5
Ġcont ract
ĠS ee
Ġcar ried
O S
Ġ2 2
is ation
if ically
pect ive
Ġ200 5
Ġex hib
ĠTh us
Ġs ac
r ates
Ġtr uth
Ġst im
Ġvis ion
Ġw atch
ĠE ach
Ġabs or
Ġfam ous
ĠDav id
c ular
Ġstrateg ies
Ġ2 7
ĠP ublic
ec es
Ġmov ed
Ġnucle ar
Ġinc ome
l im
A fter
Ġb ra
ĠU K
om ic
Ġgu ide
Ġimmedi ately
Ġm ap
9 0
Ġpl ans
Ġopt ions
ĠG reen
Ġdist ribution
n es
Ġapp ly
Ġbl ue
Ġsp ring
Ġgo als
y gen
u ild
Ġm al
Ġe ffic
ĠP al
Ġorgan izations
Ġdec ades
Ġplan ning
om a
ig en
Ġfil m
Ġpres ident
Ġne u
The y
Ġcoll abor
Ġb ank
Ġa im
Ġstruct ures
ĠIn ter
ward s
Ġpop ulations
Ġfav or
Ġsex ual
B e
Ġst yle
ĠM ich
Ġact ual
Ġhig hest
Ġgen e
Ġapprox imately
Ġtechn ologies
Ġp hen
Ġd ivid
Ġg ain
olog ist
Ġd yn
u ing
Ġconsum ption
b ed
Ġex cess
Ġfa ith
Ġpart y
Ġcommerc ial
Ġextreme ly
ch ar
Ġhapp en
Ġc and
ch ange
Ġexperien ces
Ġinst ruct
Ġchall enge
Ġem phas
Ġbo ard
Ġclass room
Ġcop y
te e
ĠD on
Ġtre ated
al d
il it
Ġheav y
ĠC ur
Ġp ick
Ġdisord ers
ĠL ord
Ġop in
Ġk id
Ġgener ation
Ġleg is
3 5
Ġlet ter
Ġconn ected
ke y
Ġobserv ed
Ġnut rition
Ġmedic ine
ĠV ol
ĠM at
ĠM or
Ġb odies
Ġclin ical
Ġestim ated
re st
Ġcont rast
Ġref erence
ord er
Ġur ban
op y
Ġha ir
r ant
Ġsl ight
Ġpl astic
ub e
Ġm ale
im ent
ul f
Ġexpl ore
Ġm er
Ġbec oming
c ast
Ġit ems
ĠM ary
Ġv es
Ġfe ature
A r
Ġm o
Ġf ig
Ġdec isions
Ġ â
Ġ ign
c are
z z
ent h
Ġsp ect
Ġpresent ed
ĠJ ames
Ġm ag
e an
i ated
Ġ iron
ĠM ic
Ġb one
ĠA ut
Ġ201 6
ĠDevelop ment
Ġro t
Ġtop ic
ot es
Ġfre edom
a res
Ġclear ly
Ġaspect s
a us
Ġno vel
Ġdes p
Ġf ields
Ġintrodu ced
Ġbuild ings
Ġg ames
Ġaltern ative
Ġmil k
og le
P h
Ġindu strial
te red
Ġl iqu
Ġnot es
Ġrecord s
ĠN et
Ġsignificant ly
ing ly
Ġ esc
Ġtr ust
Ġgl ass
ĠR el
Ġoper ations
un ction
ĠRep ublic
Ġv ary
Ġtrans l
cl us
Ġ19 0
Ġset ting
Ġdep ression
plic ations
het ic
Ġconduct ed
Ġst ream
Ġres ource
Ġser ve
Ġsa ve
Ġstart ing
Ġre ality
ĠRe v
ĠB ra
e ared
Ġl ived
i as
por ary
Ġrele ased
Ġb ed
b al
ĠD ec
Ġdou b
m ark
op hy
Ġeas ier
Ġhouse hold
ĠH uman
ĠWe b
Ġviol ence
Ġg od
E T
ĠGovern ment
Ġb ran
ĠCol lege
ĠSp anish
Ġpart ners
ogn itive
Ġturn ed
ĠM useum
ĠPl an
Ġk illed
Ġgra ph
Ġh om
er ate
rou p
Ġrele ase
Ġh omes
id ing
Ġdiscuss ion
rom e
ĠD es
Ġnot ed
ap ers
Ġelectric ity
ĠSp ec
Ġwide ly
erv ed
el ines
Ġout put
Ġ8 0
Ġfrequ ently
Ġrequire ments
ĠChild ren
ed ic
Ġcomb ination
Ġcom pl
ĠF ound
Ġorgan ic
ous ly
Ġcy cle
n am
ĠF ood
Ġnum erous
Ġcaus ing
ĠGree k
Ġ201 4
Ġst ore
4 5
Ġcamp aign
Ġag g
Ġut il
Ġcon v
Ġindepend ent
p ed
ĠC he
Ġliter ature
Ġexp ression
Ġbat tle
im ens
Ġexperim ent
Ġth r
ere nces
Ġlay er
ri a
Ġparticip ants
Ġt our
Ġint ellig
ol ved
ĠA v
Ġ2 9
Ġtemper atures
ul um
ĠL et
Ġmin or
Ġany one
ro ph
ag er
w orks
stit ution
Ġo cean
Ġmet al
Ġpolic ies
ot ing
and er
ĠB udd
ĠO ver
olog ists
ress ive
Ġc overed
ĠGe orge
Ġwh om
Ġch ronic
ĠO b
i j
ol id
Ġget s
Ġis ol
Ġt im
Ġter rit
ess or
Ġrem ove
ĠA ir
Ġconn ection
ra ction
Ġhe ar
Ġlo ad
Ġsh ip
7 8
Ġw in
U S
ruct ure
a ult
Ġs em
ĠU nder
Ġmess age
as ks
at ically
t ical
Ġgr ant
ang ing
Ġbott om
Ġis land
i i
s s
m et
Ġsam ple
Ġb urn
Ġassess ment
Ġresult ing
Ġinterp ret
Ġun ivers
Ġs and
Ġox ygen
A M
ĠC ath
Ġcre ation
Ġaut hors
i eces
lic k
ĠP aul
id a
Ġris ks
Ġann ual
E M
Ġperform ed
Ġal g
Ġtr ig
r ans
Ġphys ic
ĠO ff
Ġt rib
C C
c ers
Ġintern al
Ġves sel
Ġwant ed
ĠS am
Ġd rop
ag o
Ġst orage
Ġrefer red
Ġn or
Ġhapp ens
Ġrelationship s
Ġpre fer
Ġread y
Ġdang erous
Ġbeaut iful
Ġmat hemat
ic ial
Ġchang ing
Ġdr ive
Ġtechn ique
S h
Ġsh ap
at form
Ġu pper
iven ess
Ġprinc iples
Ġfind ing
t a
Ġrecomm ended
Ġd ram
Ġrep rodu
P S
Ġmeet ing
r ations
Ġcharacter istics
r as
Ġgen es
Ġbel ong
Ġfeel ing
or ial
Ġcolle ge
Ġcirc um
ĠIs land
ot hes
Ġme at
3 3
resp ond
ish ing
Ġhelp ed
Ġfl ood
Ġt rou
ro g
oc al
Ġpre par
Ġdist inct
r um
Ġconf irm
Ġserv ed
ress ed
ĠB el
S p
Ġre b
Ġ200 4
ĠD em
Ġs av
ra w
Ġinit ial
Ġro ot
osy stem
Ġc ore
iet ies
Ġcoun ter
Ġup d
Ġback ground
ĠO nce
Ġdeg rees
w ith
Ġf ine
Ġn orthern
Ġbu y
Ġdeterm ined
Ġun f
ĠH IV
Ġrelig ion
Ġregard ing
Ġsp eech
H ere
ĠPro ject
le g
Ġexact ly
ĠS un
on ic
Ġstate ment
Ġrad iation
Ġt um
Ġex cell
ros c
Ġcal c
Ġun its
Ġinj ury
ĠOr gan
Ġremov ed
Ġcl ick
Ġcons ervation
Ġcomp rehens
Ġ18 6
m al
Ġv ul
Ġsol id
Ġple ase
Ġr ound
How ever
cept ion
Ġsol utions
Ġredu cing
ate gy
Ġsc en
Ġo ption
Ġmost ly
ĠWh y
Ġinvol ve
ro ad
in ate
Ġdescrib e
p ing
Ġhe ard
ortun ately
Ġrad io
Ġin put
Ġencoura ge
ĠW ork
ĠThere fore
ri age
le ase
Ġinf ections
Ġm ist
Ġar m
o ch
Ä ģ
Ġprevious ly
ĠE v
C on
v ision
ĠM ount
A ccording
Ġconflic t
w ell
ribut ed
Ġanx iety
Ġstr ategy
Ġmention ed
Ġc ris
Ġ #
Ġrepl ace
t es
Ġem ail
Ġel imin
Ġsur gery
7 5
um n
ri er
ĠF ore
Ġmot ion
Ġvol ume
Ġclass es
ag s
ĠIt s
Ġ201 7
Ġlink ed
ĠM ark
is her
Ġl ic
ĠH en
Ġinterest ed
Ġdog s
w ood
Ġpoll ution
Ġrele vant
oy al
ĠT ex
Ġcred it
Ġc ast
Ġ9 0
ar row
Ġd ie
Ġra ce
3 6
Ġp ip
Ġproper ly
Ġprep ared
Ġsay ing
Ġlead s
Ġme ant
re te
Ġto oth
augh ter
Ġland sc
Ġyou th
Ġob vious
ĠâĢ ¦
Ġk ill
Ġexp osed
Ġfail ure
Ġdec ided
ĠP ort
Ġadv anced
al le
Ġprop osed
Ġinf lamm
e k
Ġth ick
Ġke pt
ber g
M any
Ġexper ts
s u
Ġtre nd
Ġinvol ves
Ġadvant age
Ġprom ote
Ġart icles
Ġsy nt
Ġexperien ced
Ġprocess ing
ric ulum
Ġsou thern
Ġsp ent
Ġvol unt
Ġcl os
Ġsqu are
Ġe ast
Ġbro ther
Ġf ol
iver se
á ĥ
Ġg ender
Ġtrans form
Ġeffect ively
Ġreact ion
Ġchar ge
Ġinstit utions
Ġflu id
Ġpres c
ur t
ĠR ober
it z
b i
ĠAs ia
Ġoffic ial
ri an
N ew
T hat
Ġinv ent
k in
ut ed
Ġim pl
Ġm el
bo ard
Ġmanufact ure
ĠM ars
il ing
Ġamount s
ur ation
Ġw est
ĠG ra
Ġh our
Ġ7 0
Ġincor por
Ġl ib
Ġexper t
ĠS en
ĠI r
Ġadj ust
W hy
Ġin h
ĠS T
Ġdep ending
Ġpre t
Ġsp ot
Ġsign al
Ġs ort
Ġconc lud
Ġegg s
an cing
Ġ200 3
Ġa id
Ġess ay
ĠT est
Ġfin ally
Â °
Ġconcer n
Ġacad emic
Ġw aters
ify ing
Ġrem ained
Ġoper ation
ĠAc ad
am s
Al though
Ġp ages
el ine
ĠL a
Ġph ase
ĠS ub
Ġp ric
r us
ĠM al
Ġfor ced
R es
Ġdis s
re p
Ġh op
ĠPh ys
Ġconcer ns
Ġp ieces
Ġco al
ĠMexic o
Ġre ached
Ġwe alth
m at
Ġman age
ul es
am ental
Ġhelp ing
ĠR ich
u x
z a
ĠO ld
ĠJew s
ĠVir gin
d ed
Ġ ...
pl ace
Ġc ere
Ġinst all
Ġlo oks
n ic
Ġmain ly
Ġcontin ues
Ġsupport ed
Ġown ers
ĠServ ice
Ġdat ab
Ġl ung
ĠM art
ac ing
Ġsee k
Ġveget ables
Ġprofess ion
Ġelectr ical
stand ing
Ġcor respond
ĠIn f
Ġemot ional
A D
ĠL ife
ac ific
wh ich
y a
Ġs ong
ĠBrit ain
Ġsec ret
Ġatmosp here
ĠTh omas
Ġident ity
Ġtr ial
Ġfarm ers
ĠStud ents
Ġdisc over
ew ork
Ġsus p
ĠC ivil
Ġp un
ĠS er
C O
Ġcons ult
ĠB as
Ġp al
ak ers
v is
Ġse eds
Ġdefin ition
Ġchemical s
as tern
Ġdiagn osis
Ġn it
N ow
ren ce
is hes
ĠIs lam
Ġman ner
ĠB er
Ġmor ning
O ur
Ġdef ic
Ġcomple ted
Ġcom fort
Ġset tle
Ġconcept s
Ġpl atform
ĠMedic ine
h t
ĠWh ite
Ġcent uries
S T
ĠA rab
Ġd ro
Ġd oll
row s
ĠD irect
Ġwond er
Ġnot ice
3 8
w est
at ric
com es
op er
ĠJ er
Ġb an
Ġj our
ĠNA SA
Ġengine ering
Ġm ath
Ġlead er
Ġprofess or
Ġcon ver
' ll
Ġdrink ing
ĠCour t
Ġthe r
ear s
Ġbeg ins
Ġst ation
ĠM ac
Ġallow ing
Ġvul ner
Ġphen omen
Ġsu fficient
ĠH el
Ġfor t
ĠS al
Ġ200 1
Ġint ended
Ġt aught
orm al
cl usion
Ġlangu ages
it ors
Ġl inks
Ġy ellow
Ġform ation
Ġrecord ed
ĠB ay
ĠQ ue
ĠCent ral
Ġindic ate
ro ke
oss ible
ĠMed ical
Ġt ro
Ġra ised
ĠW ell
Ġ3 5
Ġtox ic
Ġco ord
c ol
Ġf oss
Ġoccur red
Ġw et
Ġres ist
Ġcom ment
Ġfrequ ency
Ġtechn ical
Ġhe aring
ĠAr my
esp ite
C l
ĠK ore
ov iet
Ġl ov
ĠM iss
Ġar my
Ġcomb ined
Ġse ed
m p
en ced
Ġm aster
ens us
Ġoff ered
Ġd ri
oun ced
ĠM et
Ġpract ical
Ġcollect ed
Ġgir ls
A meric
atur ally
b all
Ġn av
Ġsh ared
Ġb ond
ĠR em
ĠF re
ot ic
F rom
Ġkind s
Ġmot or
Ġsustain able
ĠB ible
Ġh orm
Ġst orm
Ġapp oint
ol ars
ĠM r
Ġlarge ly
nd rome
Ġh it
Ġsam ples
f ield
z ing
l ig
Ġh ospital
Ġless on
ĠSp ace
Ġs now
4 8
Ġgra nd
Ġfact s
Ġpurp oses
ĠRuss ian
om in
ĠD i
ĠNew s
Ġimpro ved
ĠE very
Ġpartic les
ĠAt l
go ing
R O
Ġexist ence
Ġprim arily
Ġaware ness
' ve
act ers
Ġproced ure
hip s
ĠTex as
Ġext ent
Ġvo ice
Ġg ar
Ġsur pris
Ġmot iv
w in
1 00
ok ing
ĠL ou
ĠA D
a el
u able
Ġb rief
Ġf lex
Ġredu ction
M ost
ver ty
rap y
ĠComm ission
Ġreturn ed
Ġemer gency
ak er
Ġauthor ity
Ġw ife
Ġflow ers
Ġcertain ly
Ġb ud
Ġide al
os en
Ġpo verty
Ġre new
t ion
Ġ18 9
Ġconsequ ences
Ġsh ar
Ġgra de
Ġinit i
Ġc ert
Ġdesp ite
Ġfocus ed
i xt
A P
Ġf ib
Ġpol ice
Ġbl og
os ite
Ġec osystem
Ġ200 2
as ure
Ġhigh light
Ġpers ons
Ġexpl an
Ġvacc ine
Ġk n
Ġlet ters
Ġsitu ations
Ġeffic iency
d es
o o
A b
Ġstra ight
Ġshow ing
Ġ Ã
Ġper man
g l
Ġf elt
Ġb ill
Ġb right
Ġrev olution
ĠH ol
Ġthough ts
Ġcont ribute
Ġadv ance
Ġbi ological
Ġ199 0
ĠSec ond
Ġm ere
ac he
Ġagricult ural
g ra
R I
Ġimm ig
ĠM ass
Ġsuggest ed
Ġsubject s
Ġm ort
ut ive
Ġst ars
3 9
Ġqu ar
or al
Ġhtt ps
Ġp ark
Ġjob s
Ġhabit at
Ġdyn am
E L
Ã ¡
am ple
Ġprot ected
ĠB en
ĠL atin
Ġliqu id
Ġc ognitive
oth ing
Ġexpl ains
Ġplay ed
Ġab use
r ich
v an
ĠB C
w hat
Ġclaim s
Ġdetail ed
Ã Ń
ol ute
ul ating
Ġrespons ibility
est ed
Ġgreat est
ar i
Ġf irm
Ġspec ifically
Ġbir d
Ġm ix
Ġn ations
Ġlook ed
Ġl iver
ad o
Ġneigh bor
et ers
ag ue
Ġfund amental
p oint
in ent
ough ly
Ġs end
ro c
Ġplay ing
Ġhe ight
Ġs in
N o
Ġra nd
Ġtreat ments
ĠCl ass
Ġmonitor ing
Ġmax imum
b and
ĠF urther
res ents
ĠD ist
Ġsy n
Ġexcell ent
Ġother wise
ĠM ont
Ġadv ice
Ġpr ison
ĠTechn ology
z y
Ġmus cles
Ġv ast
Ġpro s
Ġsc he
Ġhapp ened
Ġrecogn ized
l ar
Ġon to
Ġ Î
Ġoper ating
Ġsal t
Ġref ers
ĠS oviet
Ġhundred s
ĠEn ergy
Ġst em
Ġdom estic
ic ed
Ġchar acters
Ġsound s
Ġk m
ĠIn formation
th at
s es
Ġrand om
Ġn erv
ĠTw o
e y
Ġp ul
Ġst one
Ġtyp ical
Ġmin imum
rol og
in f
Ġcontroll ed
Ġpot entially
Ġimpact s
ĠE lect
Ġmeas ured
Ġcompon ent
Ġdivid ed
P l
un k
Ġinstru ment
Ġnutri ents
ĠD ise
Ġappro aches
Ġre form
ĠO p
ens es
Ġsat is
Ġhy per
Ġcons ists
Ġsurround ing
c ript
os a
Ġoffic ials
c est
Ġpers pective
igen ous
Ġf if
Ġmet ab
Ġslight ly
ĠCath olic
Ġcare er
Ġsp end
Ġch ann
Ġfollow s
p at
Ġfamil iar
Ġf le
Ġv ital
3 4
Ġv ent
Ġtit le
Ġkeep ing
st ood
ĠP acific
Ġast ron
om etimes
ĠS ou
Ġk new
Ġatt acks
Ġpro port
ang es
Ġincreasing ly
v ille
Ġare n
B C
Ġf aster
Ġth in
Ġex ternal
Ġsp l
Ġapp eared
ĠJ ose
Ġinterest s
Ġspirit ual
Ġne ut
ĠC le
Ġdis app
Ġro ll
Ġdou ble
Ġr ural
Ġcontin uous
Ġinst ruction
Ġgovern ments
Ġw estern
Ġw el
Ġdep th
il ed
Ġar ms
Ġb ow
Ġdirect or
Ġsect or
Ġstud ied
Ġfl at
O T
Ġl ik
ĠT oday
ĠB oth
act ive
Ġapp arent
Ġk il
Ġtra in
Ġp ray
N D
ĠSt and
Ġveh icle
ĠM il
IN G
ist an
ĠSt e
ĠB ook
Ġexpl ained
ĠRuss ia
m ic
ĠD el
it age
Ġd u
ĠR ights
ĠD ef
Ġmo ist
. ;
Ġrep resents
ak s
n ame
ĠM iddle
ipp ed
Ġmor al
Ġcon vent
ĠFound ation
? âĢĿ
ĠN or
ĠR ef
Ġaffect s
Ġsubst ant
Ġcou ple
I ON
Ġport ion
Ġfil es
ĠC D
Ġdoc uments
ĠF lor
Ġimm un
ail s
Ġperiod s
M ore
Ġag es
ĠChar les
Ġval id
Ġhelp ful
Ġfac ilities
Ġt asks
Ġtop ics
ate ver
ib l
ĠW ild
el lect
l a
Ġt ried
it ness
Ġall erg
rast ructure
Ġaccur ate
I m
Ġwall s
B N
ĠE conom
n el
Ġha z
ĠW ind
Ġch ief
Ġcl im
Ġsub sequ
Ġs en
ec k
Ġcont aining
Ġor al
Ġclose ly
l ers
ĠHist or
Ġprote ins
Ġf ing
al se
Ġcont em
Ġdep ends
Ġcris is
Ġpain t
Ġtest ed
d own
Ġconcer ned
Ġl ose
Ġdisc overy
is p
Ġcrop s
om pl
st ate
Ġra il
ĠCol umb
Ġal t
c hers
ĠLear ning
ĠL ibrary
Ġs ed
ra cy
Ġsuff ering
Ġcircum st
ies t
er ia
ind ing
ĠSm ith
Ġrapid ly
Ġst ated
g al
3 7
ĠW omen
Ġselect ed
4 4
T S
Ġdisc rim
Ġvis ible
Ġ201 8
Ġgood s
Ġconcent ration
19 8
Ġhar vest
Ġn arrow
Ġmedic ations
ĠW il
ĠFran c
Ġpart ies
Ġrec y
Ġ4 5
Ġcru cial
Ġview s
Ġn aturally
ĠL ake
Ġt ips
Ġele v
al ian
Ġmove ments
Ġp aid
r ants
ĠT reat
ĠL and
r ating
ĠCon stitution
Ġemploy ees
Ġfeel ings
Ġre in
ĠN ature
6 5
Ġfund ing
ce ler
Ġ *
Ġst ret
Ġmar ine
Ġle aving
ĠO ut
ĠHen ry
um in
Ġmed ium
Ġgrow n
Ġdel iver
ĠF am
Ġout comes
Ġwe ap
ĠEm p
um ber
ĠSe a
ost er
Ġdist ingu
ĠCar ol
Ġn an
Ġfl oor
Ġs ides
D uring
m as
Ġjust ice
Ġdiscuss ed
ĠSu pp
Ġinvest ment
Ġo d
An other
ĠP sych
ĠS uch
Ġres idents
ĠJ ud
Ġb and
ol f
Ġmy th
Ġpur s
M S
h i
Ġacc ompl
Ġcur riculum
ĠU p
ĠEnvironment al
ĠRober t
ĠD ata
asc ular
Ġh unt
Ġsm art
ĠN av
h ma
Ġ20 20
ific ial
ĠCont rol
____ ____
Ġro ots
. |
Ġleaders hip
Ġarg ument
d den
n y
re land
Ġcap able
ath y
Ġobt ained
Ġd ial
ĠUs ing
ĠA p
Ġadd ing
Ġpict ures
ĠInst ead
D o
Ġinter view
Ġ18 8
Ġdi am
ĠM em
Ġfru its
ĠAn other
Ġopin ion
Ġset s
Ġlat est
Ġp il
g ment
D r
angu age
3 2
D F
Ġd iversity
Ġimp ossible
Ġprevent ion
ro id
Ġj u
Ġacc omp
ocr atic
h ist
Ġtalk ing
Ġorigin ally
9 9
Ġcons cious
Ġrecogn ize
G en
Ġdeath s
ĠD isc
Ġd ream
ĠComp any
3 1
at tle
ĠVirgin ia
Ġsec ure
Ġdep os
M y
S ee
Ġreg ional
sp ec
Ġhous es
ĠP ers
ĠL ike
Ġm useum
Ġadv oc
os c
Ġing red
Ġcol ors
I nd
Ġmill ions
Ġpo et
l iam
Ġra ise
ĠM ake
Ġch apter
O ther
Ġfl ight
Ġprec ise
5 00
os ph
Ġcard i
Ġexp ensive
Ġsat ell
Ġinter f
Ġsubst ance
Ġp ig
Ġ199 9
âĢĻ .
Ġval uable
Ġtou ch
ul in
ĠF ederal
Ġan cest
us es
ic ks
Ġtra d
Ġcomput ers
ĠGo ogle
Ġsu dden
Ġbusiness es
Ġpric es
Ġcl osed
Ġproced ures
Ġfert il
Ġrec overy
Ġregular ly
f all
Ġform al
Ġprinc iple
Ġintrodu ction
ar io
ĠP ost
ĠK en
ĠT or
mb ly
Ġdecre ase
b ing
Ġm it
Ġg un
Ġrec on
Ġf rag
ct ic
ĠCanad ian
Ġex change
Ġp ure
Ġaccept ed
Ġb le
Ġrest rict
ol ve
Ġless ons
r ust
as ive
5 5
and a
Ġd ut
ĠH am
p ass
Ġph one
ag ues
Ġla un
ĠSc ient
Ġdescrib es
ad a
ĠL abor
Ġcall s
Ġm amm
D e
le ments
Ġwind ow
Ġtro ops
4 6
o oth
u ke
S c
Ġb rown
Ġcor por
ĠStud ies
Ġposs ibility
l ong
Ġantib iot
Ġp ump
Ġvill age
Ġposs ibly
Ġpar am
i ology
Ġnorm ally
Ġap art
Ġb ones
ĠMan agement
Ġp u
Ġrec ip
ab il
Ġun like
] .
ĠLou is
ĠA lex
Ġsuff er
L E
ĠG roup
ten ance
ĠComm it
plic ated
in et
Ġs ick
ĠS um
Ġco ff
Ġhor se
Ġagricult ure
re ed
ot he
ant a
Ġadop ted
t age
Ġer a
ĠOff ice
in ations
Ġinc l
Ġcl oud
ĠEng ine
ĠO x
Ġinf ected
7 6
Ġopen ed
Ġappear ance
4 9
viron ments
hem ical
Ġst ored
Ġland s
Ġapp rec
Ġph r
ot a
H O
Ġnet works
ĠI reland
Ġ201 9
Ġext ract
Ġwarm ing
Ġto w
Ġunder stood
Ġdoct ors
r ors
ĠRe view
Ġ <
Ġpregn ancy
uild ing
Ġdr iving
Ġsch olars
liam ent
Ġcomprehens ive
re m
ib ilities
ĠT em
Ġprodu cing
Ġadminist ration
Ġw ire
ber t
ex p
Ġenh ance
im er
pp ing
ht m
in du
Ġd ust
at o
Ġs an
Ġpret ty
Ġaccount s
ĠPro v
Ġentire ly
ĠS af
ĠG ood
Ġsold iers
T e
st on
Ġun less
Ġwild life
Ġm oon
Ġfac ilit
Ġfig ures
s hip
Ġinf rastructure
Ġdatab ase
Ġl ibrary
Ġslow ly
ĠT er
Ġshe l
ĠAn n
Ġmed ication
Ġprot ocol
Ġfram ework
Ġsens itive
Ġsurv ival
Ġcand id
Ġa w
Ġinc hes
Ġprep are
Ġagree ment
Ġintellig ence
Ġdig est
ad d
Ġto ler
Ġlist ed
st ruct
if ies
Ġposs ess
oles ter
Ġabs olute
Ġinflamm ation
Ġag encies
Ġtra ffic
Ġext ensive
Ġmar riage
Ġlat ter
Ġsu c
Ġ3 1
Ġgener ate
Ġrepe ated
Ġintern et
ĠB et
Ġspe aking
al ysis
Ġform at
Ġguid elines
Ġsecond ary
ĠP ower
Ġw ave
Ġcreat ive
U s
ur d
f ree
C S
Ġun iverse
Ġass istance
Ġr id
Ġ199 8
or gan
ĠN ations
Ġworld wide
Ġf ell
Ġwor se
Ġint ake
cl ing
it t
âĢ ĺ
Ġpl ate
om ach
ĠL eg
Ġre ject
pr ise
Ġlif est
ĠFlor ida
Ġreve aled
as p
se y
Ġst ages
ĠD iv
ĠA tt
ob e
Ġin ject
ĠB ro
av a
ĠIS BN
Ġsk y
Ġn arr
Ġmass ive
e er
in i
Ġachie ved
Ġt al
Ġwe ar
Ġint ellect
Ġg ather
Ġt iny
Ġ198 0
Ġlandsc ape
Ġact s
Ġch art
ĠK now
R e
Ġper ce
Ġexperim ents
Ġw ww
st ream
Ġsh ips
Ġt ail
ĠComm on
Ġr ub
Ġdi verse
k a
Ġst ock
Ġnew sp
Ġequ ival
olester ol
C ont
Ġind eed
Ġtrans mission
Ġcreat es
idd en
4 7
ĠY et
ĠC amb
w ar
Ġlab el
Ġforest s
Ġshe ll
Ġbud get
Ġt un
lud ing
Ġer ror
ro t
Ġtw ice
Ġsur f
cul es
ar ia
act s
ag ers
Ġmob ile
ct ive
Ġad equ
Ġman aged
u a
Ġim per
os al
Ġfail ed
ang ed
Ġpre f
ĠI d
Ġstrugg le
ĠUS A
ans ion
r ine
Ġa f
k i
Ġsupp lement
Ġed ge
Ġansw ers
Ġun s
yp es
Ġins urance
Ġveh icles
ed u
Ġelect ronic
Ġsurv ive
dition ally
iox ide
Ġf ill
in n
ĠT HE
Ġdoub t
ic on
ĠB ul
Ġstart s
be ing
O C
Ġdec line
Ġcalc ium
ĠJose ph
Ġair craft
Ġexpress ed
Ġcircumst ances
Ġinj uries
G o
Ġconstit ution
Ġs ell
es ity
Ġbehavi our
Ġa qu
or row
Ġcons id
Ġmin im
Ġf illed
n o
ĠM a
Ġread ers
Ġd in
ĠCh ic
b ran
ĠJ e
Ġd edic
ind er
f low
Ġg all
Ġst ick
Ġen vironments
Ġimpro ving
Ġmark ed
Ġinsect s
st s
z en
oc racy
ĠTh ose
Ġeng age
Ġsent ence
Ġrout ine
Ġlabor atory
y e
Ġmount ain
S e
ym ph
ig ation
rib ed
Ġsy ndrome
Ġcirc uit
ĠAustral ian
ol a
n ormal
or ter
Ġprodu ces
Ġrem aining
Ġaff ord
Ġ3 00
Ġd aughter
. âĢĻ
ĠM ad
Ġswe et
Ġg al
ab its
ĠL ong
if orm
ĠB ur
ĠF e
ĠG old
Ġch ain
b orn
Ġobt ain
Ġam b
Ġag ency
Ġtru ly
it an
ter ies
it a
Ġref uge
or ith
Ġf ixed
ĠD an
ab ric
Ġfound ation
Ġn urs
ic ians
ĠP eter
Ġpl ays
Ġrem ote
Ġext ended
Ġin ner
Ġpre m
app ing
Ġw ish
Ġtell s
ĠV ict
Ġdom in
Ġdec ade
Ġw ants
ĠB rown
Ġse lection
Ġgener ated
ĠM o
Ġsu itable
e per
Ġab und
Ġgreat ly
ĠOn ly
Ġv ote
Ġind ex
Ġhapp y
ĠAb out
Ġgra v
Ġpar alle
ĠProf essor
ar ant
Ġs ight
ink ing
Ġsee ing
Ġste el
on a
Ġtrans ition
Ġauthor ities
ĠH ome
U R
k ins
Ġw aves
Ġun known
Ġorgan ized
Ġbro ken
u nder
Ġopen ing
Ġloc ations
ĠIt aly
b ody
ere nt
Ġaud ience
Ġac celer
w ord
Ġmult i
b ut
ĠB re
Ġcrit ic
Ġcar s
er als
Ġsh ut
Ġdo or
ĠGl obal
ĠO F
ĠSou thern
Ġdes ire
Ġhealth care
Ġfoss il
Ġh us
Ġconsist ent
Ġsp orts
Ġmechan ism
in ction
ĠC ult
Ġcor n
Ġth or
ĠEx p
le vel
rop ical
Ġdisc ipl
Ġyoung er
Ġimplement ation
ĠR ome
Americ an
Ġp ull
Ġ >
Ġbe ar
ĠAn y
Ġdec ide
ĠK h
ĠH all
Ġder ived
w ing
Ġfound ed
ol s
og ue
Ġsc ript
Ġsign als
Ġphot ograph
Ġsub s
Ġc atch
Ġdist rict
he ast
ĠR ad
Ġsh aring
Ġcho ices
Ġperman ent
Ġ18 5
Ġz one
int s
ĠAcad emy
7 7
E n
i very
Ġstudy ing
Ġdestroy ed
Ġd ioxide
ĠI N
Ġ197 0
Ġ5 00
Ġa th
is ters
ĠL ab
ell ed
Ġrepresent ed
m ary
Ġa x
it ative
Ġf ly
Ġd ensity
ĠTh rough
Ġchild hood
Ġharm ful
Ġmanufact uring
ĠMic ro
ĠCommit tee
Ġdesc ription
f rom
ĠG al
Ġst omach
c alled
n ect
ĠP C
Ġindic ates
Ġf alse
Ġcour ses
ĠG et
Ġprinc ip
Ġbat tery
ld er
ĠPar is
Ġimmedi ate
b urg
ĠC amp
cl op
Ġcolle agues
Ġf asc
ĠSp ain
w o
Ġun p
Ġinstit ution
Ġcult iv
S ince
Ġelect ron
Ġrepl aced
Ġthous and
Ġac ids
Ġd ental
ĠCan cer
Ġprofession als
Ġjour ney
Ġatt end
Ġmain tenance
ĠRep ort
Ġeth nic
Ġun able
R ead
p et
Ã ¼
Ġfew er
ĠM ag
Ġdifficult y
C an
ĠN orthern
ce l
l ast
ot o
Ġsh ift
ĠSt at
Ġg one
Ġen able
Ġinteract ion
h and
ĠP M
Ġsol ve
Ġclos er
Ã ³
Ġvessel s
Ġl ots
iz er
ic ide
Ġopt im
c a
Ġour selves
Ġcare fully
Ġopp osite
Ġbenef icial
th rop
Ġpow ers
St ud
ir ation
Ġsupp lies
Ġread er
L A
g ent
st one
um s
Ġle af
Ġcult ures
en a
ant ly
Ġstand ing
ĠEx pl
in ity
Ġarr ived
Ġs od
Ã ¶
ĠS l
ĠP ub
Ġen emy
c her
Ġm os
ipp ing
ĠVal ley
ste in
ĠI ll
Ġlim its
ĠA C
ĠS k
Ġcomp osition
Ġst roke
ab ul
Ġcl ust
Ġacc um
on ed
ap ed
ĠC are
Ġcoff ee
Ġsuccess fully
Ġn ine
Ġrespons es
ĠIr ish
ut ch
ĠE th
Ġsequ ence
ign ed
Ġro of
as er
p an
Ġmole cules
k es
t ra
ĠSt reet
Ġstand s
ĠP an
Ġsk ill
9 5
Ġp ra
Ġgl uc
Ġmar ried
Ġres olution
Ġhyd rogen
Ġfl ag
Ġsim pl
Ġ199 7
Ġpurch ase
Ġknow s
Ġrem ark
ĠStud y
le ts
Ġconc rete
Ġemot ions
ĠPart y
f ortunately
et ime
Ġmagn etic
ĠDise ase
ĠEmp ire
f ish
Ġconsum ers
Ġres erv
Ġun us
z il
Ġwalk ing
Ġconvent ional
ĠP enn
âĢĻ ,
Ġcar b
Ġsuc ceed
Ġser ver
Ġfund s
ĠT ime
ph one
D P
a it
ct or
ĠB r
Ġnecess arily
Ġch osen
g u
Ġsupport s
ĠS ol
Ġne ck
Ġbo ost
Ġhand le
Ġiss ued
Ġsur ve
Ġfl av
Ġr ank
Ġc os
Ġal le
ĠM ill
Ġturn s
ific ations
t hen
Ġinter vention
ash ion
Ġfight ing
Ġdedic ated
Ġtra um
Ġpers ist
Ġsupport ing
Ġjo in
Ġout l
Ġhous ing
Ġalg orith
Ġch olesterol
Ġsupp osed
Ġjo ined
ĠN atural
Ġocc asion
Ġemploy ment
Ġover l
Ġth y
ra q
ot ion
um es
r d
.. ..
es ter
Ġwill ing
Ġult imately
ĠR ob
ĠSc iences
Ġsou l
Ġcol our
Ġcry st
qu it
ĠAd minist
Ġt aste
ĠB ank
Ġcom ments
Ġam az
Ġeas tern
Ġlist en
ĠBo ard
Ġreg ulations
Ġdeb ate
Ġvol tage
Ġterrit ory
P e
Ġvari able
ir ty
ĠE xt
Ġw itness
or a
Ġm ixed
Ġa er
ro vers
ĠC y
ĠI P
Ġvulner able
Ġsh ot
ia h
it ter
Ġex ists
Ġunder lying
Ġadminist r
ĠRich ard
ĠA S
Ġra w
g ans
Ġr hy
rib e
Ġm ice
Ġarchitect ure
Ġen ds
Ġearth qu
Ġcount y
Ġdef e
Ġbehavi ors
s uch
Ġte a
i h
Ġb order
Ġm ild
Ġcompar ison
Ġpr on
Ġgre w
Ġe pid
z ed
0 1
Ġrequ est
6 6
b ur
Ġris ing
i ability
ut er
ĠW he
Ġbig gest
Ġhe m
Ġphilos ophy
ĠC ap
Ġv oc
Ġlifest yle
Ġf iber
Ġac know
Ġobserv ations
es is
edi atric
Ġc ards
or ous
Ġcont ained
Ġatt ached
Ġpercent age
e en
Ġn ob
Ġl ies
ear chers
Ġm ac
ĠR oyal
ag on
ĠCl in
Ġwhere as
Ġrat io
Ġresult ed
Ġconn ections
Ġp us
Ġcomp ounds
Ġorgan isms
Ġcut ting
u gh
Ġgu arant
ĠSec urity
ĠC at
iction ary
Ġhor iz
0 5
Ġh abits
Ġrel ax
Ġmechan isms
ĠRev olution
st ruction
Ġcommunic ate
7 9
Ġpro ve
Ġtransport ation
I L
Ġfrequ ent
Ġfeed ing
c omm
h ow
ĠII I
Ġdraw ing
Ġcustom ers
Ġwh atever
Ġinstru ments
Ġy ield
Ġbreat hing
L et
ĠT imes
rit ing
Ġwrit er
Ġprom pt
ĠChic ago
ĠW ood
Ġcapt ure
Ġn erve
ir ds
ĠV is
ĠV iet
Ġreg ist
rodu ction
Ġequival ent
ĠIt alian
wh ile
Ġhe ro
Ġc art
Ġcont amin
Ġplay ers
Ġman if
Ġtw enty
Ġreact ions
t op
Ġpsych ological
ĠMich ael
ct ure
et ics
Ġpre val
Ġbl ocks
Ġreg ul
Ġus age
Ġarr ange
Ġcent re
Ġdist ur
ĠSc ott
ĠH oly
Ġbut ter
ĠAg ricult
h av
Ġdo i
Ġsm oke
ploy ment
Ġcr im
E P
Ġin hib
Ġele ction
Ġnear by
u ps
Ġg ap
Ġmach ines
F igure
ri ers
st ract
Ġfor th
Ġelect ro
Ġpolit ics
x ts
Ġ199 6
Ġt all
Ġst able
Ġtra ined
Ġf abric
ĠDes ign
el ess
B S
Ġb io
ĠE nd
Ġk it
Ġcr ime
Ġparticip ate
B l
Ġmat ters
Ġexplan ation
per or
Ġneg ot
Ġdemonstr ated
4 3
Ġsh op
Ġeval uation
Ġsp ok
ĠEx per
Ġb ot
oc y
Ġno ise
Ġc ats
Ġn one
a ud
Ġte en
Ġexpl o
ĠO h
Ġdown load
Ġve ter
ut s
ab led
e ers
om er
Ġst reet
I nt
ure au
Ġc row
Ġb rand
ars h
b our
he red
Ġparticip ation
Ġcoast al
ic ious
ĠO cean
Ġ199 5
et t
N ot
Ġun iversity
ĠInd ians
Ġpass age
oura ge
Ġdemonstr ate
Ġa head
ic it
Ġp up
Ġimprove ment
Ġstr ing
Ġb read
ĠD ig
Ġpre v
Ġdel ivery
Ġtr ials
Ġacc ident
ult s
Ġent ry
Ġdef ine
ĠAd d
Ġhold s
is k
e enth
Ġh olid
Ġgener ations
Ġm and
ĠS ing
te en
ors es
ĠCarol ina
8 8
et her
Ġmod e
esp read
ĠSt ep
Ġre ven
Ġrel ation
ĠCol or
4 2
Ġh un
ĠP y
ĠD en
dition al
Ġhyp othes
er ior
Ġleg s
% )
Ġwas n
ĠE ss
ĠN ative
Ġ196 0
Ġexam ine
Ġrecogn ition
Ġb ridge
Ġest imate
Ġdiagn osed
is dom
Ġestim ates
ĠG ard
Ġlegis lation
Ġa ward
ĠH aw
ĠCl imate
Ġdel ay
Ġcommit ted
ĠA I
Ġ3 6
h op
Ġmole cular
Ġr ivers
Ġevery day
Ġfunction al
Ġdoll ars
ur rent
Ġemploy ed
Ġinstruct ions
Ġag reed
ĠD et
O L
Ġindepend ence
F irst
ever al
ĠKe ep
Ġfe ver
Ġne ur
hes is
Ġbelief s
r at
Ġast hma
Ġf old
Ġmem bran
ĠFran k
4 1
Ġch rom
ĠF orm
itud es
ĠF ree
Ġm aps
id ity
in ating
or ph
ĠI raq
ĠW ik
Ġinvol ving
ut rition
igh ter
Ġpart ner
Ġgreen house
Ġkid ney
ain e
Ġfl o
Ġobject ive
t ic
Ġal ter
Ġcompet ition
Ġon going
ent ed
Ġinteract ions
Ġfeed back
cy clop
s en
ir t
Ġconf idence
ell a
ĠSc ot
Ġp ed
R ec
on ia
if ts
Ġsc ene
Ġro w
ar n
Ġs ections
Ġr ing
Ġf ract
sc ale
Ġb low
Ġ ille
Ġmet ers
Ġvol can
ult y
Ġpain ting
I G
Ġear n
Ġend ed
Ġdom ain
Ġar rest
ĠZ eal
Ġent ered
Ġz ero
Ġ7 5
Ġdiscrim ination
ins on
it ivity
us ing
Ġne ither
ite ly
Ġdang er
Ġf u
Ġprogram ming
Ġinteg rated
ĠColumb ia
Ġcon clusion
Ġor ient
f it
Ġr ice
Ġman ip
Ġintellect ual
ear ing
ish ment
Ġoper ate
Ġparalle l
Ġc up
Ġsac r
Ġre cept
Ġfor get
Ġdest ruction
Ġlay ers
Ġpos itions
as ters
Ġmicro b
ĠF ace
ak ed
Ġrun s
us iness
os ion
Ġart ificial
Ġphys ics
Ġassoci ation
Ġmaint aining
Ġsm oking
Ġreal ize
Ġtri p
Ġaccess ible
it tle
L ear
c ons
Ġexp ansion
Ġb iod
ĠA st
Ġpregn ant
Ġso le
g ov
op les
Ġcrim inal
Ġsp aces
Ġrep air
Ġtiss ues
ĠVict or
Ġcam era
re y
Ġs ail
ĠGe org
Ġmat ch
Ġpresent ation
az ine
ĠKing dom
Ġbr ings
Ġdecl ared
Ġdeb t
Ġbur ning
u its
Ġshe et
O f
Ġins ulin
Ġsubst ances
Ġp apers
Ġsome what
Ġr u
Ġro cks
we ight
ĠEar ly
al m
Ġis lands
Ġsc an
Ġhold ing
ĠA ge
Ġlegis l
y les
Ġcirc le
ĠAtl antic
Ġmere ly
ĠE astern
Ġob esity
al a
Ġg ram
ast y
Ġexerc ises
r ite
Ġrel ief
Ġvict ims
Ġlov ed
ĠZeal and
r ary
u h
Ġpublic ation
Ġsw im
Ġm ent
ĠBra zil
Ġt ons
ad y
Ġdep art
Ġdra wn
Ġstrong ly
ir atory
Ġdep artment
ĠA ccess
ĠE c
rain ing
pl ant
Ġmiss ing
Ġconstruct ed
lies t
ĠMart in
Ġlaun ched
Ġgluc ose
g s
ĠD iff
Ġunder t
Ġco vers
Ġphot o
ig an
Ġpro hib
Ġthan ks
ĠGu ide
Ġhon or
Ġp air
ĠM er
ĠF ort
Ġte xts
ĠServ ices
Ġwid espread
Ġrout e
r ial
Ġn est
Ġbreat h
ĠE qu
Ġb oy
ĠP op
Ġ Ð
Ġcont rovers
rit is
Ġrece iving
Ġdam aged
Ġhistor ic
Ġcal ories
O nce
Ġ15 0
ĠCo ast
Ġch ick
Ġindust ries
Ġm old
ĠL anguage
re ated
Ġbe ings
Ġob lig
Ġput ting
force ment
Ġsp ending
Ġdesign s
all s
Ġbo ys
um ps
Ġcol umn
Ġfour th
ĠH ave
I R
Ġm ood
Ġvirus es
I P
ĠR om
Ġk ne
he imer
c ar
Ġrel iable
Ġdist ributed
Ġor gans
Ġmathemat ics
C D
Ġv s
Ġc oc
Ġdis aster
Ġappro ved
he nt
Ġs ought
Ġwor ry
Ġmark ets
Ġout bre
ĠAs ian
Ġclaim ed
Ġtur ning
8 5
ir us
A A
ĠS ar
Ġcomp osed
ĠAng el
r in
Ġ3 2
Ġtrou ble
f l
oc ation
Ġass ume
Ġdef ense
ĠFam ily
du le
Ġsm ooth
ĠN az
Ġstat istics
Ġwa it
Ġthe ories
Ġcent ers
Ġcontrol s
her ic
ad ing
Y our
ol n
Ġtem ple
Ġindic ated
Ġmoist ure
Ġguid ance
g ers
Â ·
Ġask ing
Ġr ig
ir al
Ġchalleng ing
E ven
Ġp ounds
oh yd
Ġconstant ly
O ver
ĠHe b
Ġplan e
Ġfem ales
ort ion
ree k
Ġbab ies
m aking
in ally
Ġconsum er
ask a
Ġhus band
ĠP ract
Ġad vert
Ġvirt ual
ĠM D
Ġme al
Ġf ro
Ġpan el
Ġesc ape
Ġsett ings
Ġcateg ories
Ġnit rogen
Ġpo ison
D on
V ID
v a
Ġint ense
Ġnerv ous
ĠA cc
Ġfor g
op ic
Ġph arm
ĠSec ret
T M
y al
Ġf urn
Ġm ales
Ġseem ed
Q u
Ġcon ven
Ġcarry ing
an o
p es
Ġmov es
Ġâ Ĩ
ĠW here
op es
S S
ĠY ear
abul ary
us al
Ġcateg ory
Ġevalu ate
Ġproport ion
Ġmaint ained
h tt
Ġt ight
Ġt ank
Ġh ole
Ġcomp ens
Ġmeasure ments
Ġbeaut y
ad ed
ĠB ig
ac her
Ġfram e
Ġarch ae
Ġt el
ĠT ake
Ġconvers ation
ĠV en
Ġbring ing
Ġst rict
Ġjud ge
Ġmin erals
Ġs ke
Ġre ly
ĠOx ford
row ing
es h
ĠB ab
ĠNet work
Ġro les
Ġdef end
Ġ6 5
it amin
ĠA gency
Ġcomp are
Ġout come
Ø §
ive red
ĠH ill
Ġtele vision
Ġsignific ance
Ġcontem porary
ĠP rop
Ġann ounced
Ġpl us
I A
ĠTh ough
Ġem pt
Ġcre w
Ġrare ly
Ġph osph
ĠC ast
inc luding
Ġst re
ID S
7 1
I M
ĠI ran
op eration
Ġinst alled
N ote
Ġhe ating
Ġinterpret ation
Ġsh ock
Ġful f
Ġweap ons
ĠJ ac
he alth
Ġc m
Ġw ound
Ġd ent
Ġab and
Ġdis char
7 2
Ġt ub
Ġwrit ers
ĠChrist mas
Ġmess ages
Ġ id
he rent
Ġsatell ite
7 3
Ġoffic ers
R A
ond s
Ġeng aged
Ġsee king
Ġv ac
oc ial
Ġev il
Ġserv ing
Ġplan ned
s is
ĠB ill
Ġtra ct
Ġmin ute
m ers
ĠM en
ĠE ffect
U N
o ir
Ġl ake
ĠT V
Ġter ror
ĠDirect or
Ġ4 00
Ġmin ing
Ġrecommend ations
Ġb anks
ad der
ollow ing
' m
ĠCh ange
Ġt ut
Ġingred ients
Ġag ents
Ġthe ore
ĠA P
Ġattempt s
Ġadequ ate
Ġcomp ris
Ġpass ing
isc o
Ġcare ful
Ġim plications
ĠRes ources
Ġsign ed
8 9
O M
Ġa ims
Ġ199 4
Ġvisit ors
Ġdepend ent
Ġshar p
Ġsubsequ ent
Ġc ash
Ġf ashion
Ġdef ect
Ġelect ed
Ġcl othing
Ġart ists
i ological
ĠP olic
ord ers
Ġsl a
Ġprepar ation
0 6
or ic
Ġsurf aces
Ġphenomen on
Ġcom plicated
ĠF und
E very
Ġin her
Ġr oughly
Ġoff ering
Ġsecond s
Ġfac ility
ol esc
ĠL ist
Ġbl ind
Ġexam ination
Ġfavor ite
an i
Ġbi ology
A m
ĠP et
ĠBe fore
erson al
ĠD ar
Ġopp osed
ĠC reat
ĠF ather
Ġinf ect
Ġthem e
l i
Ġmin eral
Ġconsider able
Ġh ur
Ġit em
Ġneighbor hood
L e
Ġche st
ĠP lease
Ġconfirm ed
Ġtrad itions
Ġin n
Ġfair ly
oun ter
Ġla unch
ĠDist rict
Ġfac ing
Ġcomb at
B ecause
Ġinc red
ident ial
ĠS up
Ġm m
Ġy e
ĠH y
Ġsla very
Ġbre eding
8 6
ĠS il
Ġdes ired
Ġeffect iveness
Ġconcer ning
Ġmechan ical
ixt ure
Ġrad ical
ĠS ometimes
C H
U T
Ġh orses
Ġredu ces
ĠW ord
Ġar ts
Ġd ates
ip edia
inc oln
Ġcapt ured
ĠMus lim
Ġj ump
omm od
Ġpro of
Ġer rors
Ġphysic ian
it ual
Ġstruct ural
Ġcollabor ation
ĠSpec ial
Ġkil omet
ud e
ĠP o
os h
Ġpo em
Ġdiv ision
Ġgal ax
Ġtarget s
Ġr an
S u
ost on
ov en
Ġpro ceed
Ġrespect ively
Ġord ered
Ġrenew able
Ġphot os
m edi
g reg
ĠC a
Ġmay be
Ġassign ed
Ġmetab ol
ĠJe ff
n et
z heimer
ĠS at
ĠS ym
rou s
ĠL ib
ĠSt ar
Ġteam s
ĠP en
oc c
Ġequ ally
Ġimplement ed
Ġgradu ally
ro oms
ere n
Ġb ath
Ġdec or
Ġencoura ged
% .
od ing
Ġdel ivered
Ġed ition
ĠC re
Ġde eper
ĠAm ong
ou red
Ġl ie
Ġinflu enced
Ġinform ed
ĠMore over
v ard
ĠT re
Ġknow ing
Ġtrans lation
ict ed
Ġsatis f
Ġprincip al
Ġunus ual
Ġwith d
Ġfin ished
ĠOrgan ization
7 4
og ether
Ġprov ed
ĠAd v
the less
Ġstate ments
th ritis
Ġthreat s
Ġexcess ive
ĠM ethod
m es
Ġess entially
Ġimag ine
Ġla id
Ġex clus
Ġdo se
Ġde aling
Ġac ute
Ġemb ry
ĠFore st
es ides
ĠâĢ ¢
Ġ199 3
ĠM oon
Ġdem ands
Ġinterp re
ĠW all
air y
Ġep is
Ġf ed
ook ing
ap se
ĠD espite
ĠChrist ians
l van
Ġcomp ound
Ġprevent ing
ĠFace book
Ġf er
Ġm eth
Ġg ained
ra ys
Ġaccur acy
Ġown er
ĠT ype
Ġover w
hy d
Ġstrong er
p rodu
Ġc av
Ġexperim ental
T oday
ro x
ru ption
Ġstim ul
Ġconsid ering
M ed
Ġflow s
ro at
e ut
t les
ish op
Ġfil ter
Ġshap es
o om
Ġmeasure ment
Ġmos quit
a ired
ĠG rand
Ġab normal
ĠYou ng
Ġfall s
Ġexam ined
Ġp ush
Ġpl enty
Ġir rit
ĠIs s
Ġrem ind
Ġro se
ual ity
Ġcrit eria
ĠOp en
ĠAdminist ration
ĠL ar
Ġconf erence
Ġwar ning
ĠChe ck
en ess
Ġl ymph
am ine
Ġtrans p
ĠWh o
Ġmic rosc
out s
r ass
ĠA ND
og rap
ĠV er
Ġsuff ered
f ts
Ġplay er
Ġunivers al
6 4
ou nce
ĠE p
Ġint ent
Ġcor ner
ric ts
Ġreg ulation
Ġremov al
Ġsc ore
ĠF our
Ġmod ified
ex ample
O r
Ġf ix
ian a
Ġmount ains
htm l
Ġs ession
Ġre ward
opy right
Ġn ose
erm an
Ġanal ys
Ġwind ows
Ġobs erve
Ġnew ly
Ġprov en
Ġvar ieties
C E
ort ed
Ġvari ables
ĠKore a
Ġath let
et ary
Ġplan ets
Ġflow er
ĠCent re
Ġsc ar
Ġsp in
Ġpres ents
Ġear liest
Ġ199 2
p d
ag ram
Ġmar ks
Ġscreen ing
Ġbran ches
Ġv an
lish ing
ĠWind ows
Ġisol ated
C omp
b ra
sy lvan
ol ving
vent ions
Ġinvestig ation
Ġor bit
Ġcon j
ĠFor ce
erc ury
Ġhaz ard
Ġsp ort
Ġro ads
Ġfarm ing
Ġgrant ed
ĠN on
ĠL ead
Ġt ube
Ġst uff
ĠInd ust
Ġgu ard
ĠFurther more
b ar
H D
Ġp estic
Ġscient ist
est ion
pt ions
ag raph
Ġmort ality
Ġadvant ages
ĠFin ally
s he
Ġhapp ening
s m
en cing
am ing
Ġcomm ission
ĠT im
Ġst ores
ĠAl zheimer
ess ions
Ġident ification
Ġabs ence
ist ical
ĠK ar
Ġaccomp an
ĠM el
) |
C omm
Ġd rain
am ins
Ġpe ak
ay a
it als
Ġdet ection
E ar
se ll
S he
ĠS und
cl ass
Ġdifficult ies
ic ate
Ġun ion
Ġr ational
ĠU r
ĠIn s
Ġvar iation
Ġsettle ment
Ġus ual
ĠSw ed
Ġconclud ed
ap h
iox id
Ġtrig ger
Ġst ead
ĠTh ree
Ġdr iven
end ment
c hen
at ial
am ber
6 9
d ef
ill a
un icip
ĠJ o
Ġcop per
Ġcl ar
Ġunc ertain
Ġbran ch
Ġhe aling
Ġquar ter
Ġ19 50
il ation
ĠM ah
act ion
aw s
Ġfl our
Ġelimin ate
an es
ĠE U
Ġint est
Ġreve al
Ġbig ger
Ġprint ed
ĠLear n
im a
Ġbre ed
Ġfac ed
Ġsw itch
Ġev olved
ĠDe v
ans as
Ġinnov ation
R C
Ġserv es
Ġconf ig
ac hers
Ġad m
Ġpe oples
P er
ĠDo es
Ġ ;
ot ton
Ġind igenous
Ġc aught
Ġsit ting
Pe ople
ul pt
on ym
Ġun w
ĠSt r
Ġinsp ired
ĠProt ection
ĠM S
Ġout er
ĠP ot
Ġex ceed
og s
Ġen orm
all ow
ult ane
ir th
Ġsubstant ial
Ġrepresent ation
am ination
Ġins ert
ĠCons ervation
ĠPr inc
Ġb omb
Ġg ro
Ġvis ited
? "
le te
ĠCh apter
Ġcharacter ized
ĠCommun ity
Ġchann el
ĠR esp
Ġag ed
Ġacc ommod
Ġcor rel
Ġmus ical
Ġinit ially
A B
ren cy
Ġam pl
Ġart ist
Ġsen ior
Ã ¢
Ġbe es
Ġg ut
ĠD utch
ĠE st
Ġper mission
pr int
Ġcook ing
Ġfind s
Ġprom inent
Ġconsum e
Ġsun light
Ġd ys
ig ue
ov ascular
Ġold est
v in
b les
Ġrhy th
j ust
Ġprocess ed
Ġspl it
Ġsu p
Ġopp osition
Ġfocus es
ĠEd ward
i ary
ast s
Ġrec over
Ġmy st
Ġexcept ion
re ction
ĠL ow
arent s
ĠMin ister
on omic
Ġre ct
Ġal ph
ang le
Ġfun g
Ġwrit es
Ġdiet ary
Ã ¤
Ġcon qu
Ġar ray
Ġany where
Ġasse ts
Ġas c
Ġfat ty
cyclop edia
M ay
Ġfish ing
C T
Ġdirect ed
ĠPl ant
Ġsil ver
Ġang le
Ġspect rum
ab eth
Ġint ensity
ot ype
Ġsuper ior
Ġvict im
Ġcommunic ations
sylvan ia
Ġf est
Ġgl ac
ĠN ov
Ġpar as
ren e
Ġch ap
Ġr itual
Ġra cial
Ġamaz ing
Ġinf ant
ris on
elf are
Ġg iant
ĠD ou
iv a
Ġsl aves
0 9
Ġ3 8
Ġp y
Ġcom plications
Ġpl ot
in er
ir ms
ri end
Ġc ab
em ia
roll ed
ĠL incoln
ie val
Ġbl ess
Ġemphas is
Ġdecre ased
Ġ ×
Ġresp iratory
ĠHeb rew
an ing
Ġst ations
ĠL ight
Ġadd s
Ġcat tle
0 8
E d
Ġd rought
ĠW orks
Ġsupp lements
Ġprint ing
C ar
Ġprovid er
ogen ic
ri z
Ġaut ism
l ist
0 3
i at
ĠI V
ĠJ ul
Ġprov ince
ĠN ever
ell s
b a
e ffect
G et
m od
Ġh oles
pl ing
Ġper ception
Ġlearn ers
acc o
othe rapy
y er
ot al
ĠH or
Ġcons erv
Ġdet ected
Ġdiam eter
Ġantibiot ics
Ġf ra
Ġra b
uck y
Ġw isdom
el i
Ġarg ue
Ġautom atically
A pp
ĠE r
n ight
Ġch lor
Ġliter acy
ĠSup reme
Ġconsider ation
ang er
cent ury
' ,
b ec
it arian
Ġwor st
Ġoccur ring
Ġdis rupt
Ġtown s
ative ly
Ġtrend s
ĠQue en
ĠL iter
com ing
r ical
use t
Ġview ed
Ġcont ribution
Ġtur b
ĠMich igan
Ġcarb ohyd
so ft
Ġatt ach
Ġmeas uring
it ure
Ġext end
re al
as ant
ol i
ĠB oston
Ġobject ives
Ġe lder
Ġj ur
ĠAd ditionally
Ġcere mon
ĠC ross
Ġal ive
og a
Ġcall ing
Ġpan els
Ġw ine
Ġinter face
ĠCon vention
ĠNe u
EN T
re qu
Ġrem ed
Ġaddress ed
Ġvide os
ĠS ign
Ġim aging
Ġwor ship
Ġtreat ing
ĠSu per
at hered
Ġcopy right
ra v
Ġac res
ĠO tt
Ġed itor
Ġstreng then
ĠAut hor
Ġover come
Ġweak ness
Ġo v
Ġun iform
Ġdem ocracy
Ġobserv ation
ĠC am
P re
Ġre aching
ak a
ĠCO VID
Ġc ort
Ġheav ily
ocol ate
ĠL o
Ġmod erate
Ġform ula
Ġdeg rad
rou d
ĠCur rent
Ġlog ic
ĠSim ilar
Ġinh abit
Ġp it
ach uset
ĠOn line
Ġcour ts
ĠArt icle
Ġphr ase
Ġsl ave
ĠCamb ridge
achuset ts
Ġg rid
Ġexperien cing
C ol
on al
ĠJohn son
Ġvoc abulary
0 4
ĠS et
em b
Ġcontribut ed
ĠD C
Ġs ales
en ger
Ġp in
ange red
6 8
Ġprogram me
Ġbi om
Ġille gal
Ġatt itude
ac ent
Ġsche dule
Ġ )
ĠA M
ĠN ote
Ġthere by
ne ys
Ġgrow s
Ġmother s
E F
Ġlight s
Ġcomfort able
ĠR ock
Ġwhe at
Ġord inary
ĠGeorg ia
Ġf lying
ĠF igure
Ġhe nce
Ġco verage
Ġform ing
ha ust
Ġcool ing
ĠT able
ad el
qu ar
Ġprof it
ĠAm az
it ory
Ġh oney
ĠT op
Ġdec ay
Ġ5 5
ĠFranc isco
h ar
ĠL y
Ġdes ert
Ġaut hent
m m
Ġins ight
Ġconcent rations
L ast
Ġt ropical
ĠG ulf
. ).
ur ning
ĠS ir
Ġper m
as ma
ĠChristian ity
eg a
ĠPenn sylvania
Ġsub t
ĠM ult
ibr aries
Ġcommit ment
Ġl aser
Ġcon ce
Ġ3 3
Ġhead s
ĠPre vention
Ġdis abilities
ĠPolic y
ru it
ĠPal est
Ġm ur
st ant
Ab out
Ġst ability
Ġtrib es
qu ir
Ġpre ced
Ġrel ie
Ġse at
ep ing
Ġtax es
i ations
Ġf ires
Ġl ens
Ġchar ged
be an
ĠPol it
ur a
ple te
Ġpol ar
Ġelse where
Ġexpand ed
Ġh idden
Ġad vent
ĠAr ctic
Ġengine ers
Ġthreat ened
Ġmig ration
Ġab ilities
ag en
P art
Ġprotect ing
P R
Ġmathemat ical
Ġclean ing
Ġgir l
Ġexpl icit
Ġregard less
Ġm ouse
Ġcoun sel
Ġcorrect ly
ust ain
ail able
Ġgra in
Ġeduc ators
Ġbo at
Ġhard ware
Ġcover ing
et te
ck ing
Ġsepar ated
Ġregard ed
am i
Ġwhe el
Ġpo ol
Ġpoint ed
ĠOh io
Ġor b
Ġeth ical
Ġaud io
un a
Ġcomp rom
Ġfac es
Ġme als
Ġstop ped
ĠEngine ering
J ohn
0 2
g on
Ġn ice
Ġmanufacture rs
9 8
ĠF ire
Ġdynam ic
Ġdesc ript
Ġloss es
Ġt ong
Ġcl ient
ĠSaf ety
ur ches
Ġm ir
Ġaffect ing
Ġliter ary
h us
are n
Ġsus cept
ĠF ar
Ġsp r
Ġsw it
Ġidentify ing
Ġen ables
Ġinc ident
Ġ4 8
iz abeth
Ġinteract ive
Ġnarr ative
Ġbelie ves
H S
Ġfall ing
Ġro yal
ert y
Ġbehavior al
Ġqu iet
Ġm ixture
Ġfunction ing
Ġarg ued
G E
P C
Ġbur ied
Ġnewsp aper
Ġspok en
ild ren
Ġec ological
d oor
ou l
om atic
Ġsc ulpt
Ġant ioxid
Ġstri ke
Ġhuman ity
Ġord ers
Ġupd ated
Ġappoint ed
Ġoverw hel
Ġfl ash
Ġprotect ive
Ġhorm one
Ġg ases
Ġsh oot
ĠSt art
Ġcharacter istic
Ġinnov ative
ĠH and
b rid
Ġprovid ers
Ġhousehold s
Ġ vel
Ġm ine
Ġpl ain
ĠUn fortunately
Ġpar ad
Ġlist ening
ĠConf erence
r un
Ġb rows
ic ing
am ples
Ġer u
Ġhunt ing
6 3
Ġ ^
Al so
Ġh osp
Ġassum ed
ĠMass achusetts
Ġ19 30
arch y
Ġiniti ative
usal em
u y
ost ic
u gg
Ġad olesc
Ġresearc her
ĠB attle
Ġra c
ĠRo ad
Ġdram atic
B T
H A
Ð ¾
Ġther mal
ra ham
fore st
Ġ199 1
Ġestablish ment
a o
i op
ĠC ard
ĠU t
Ġsur ge
ĠMed ia
Ġcy ber
Ġemb ra
L C
Ġs izes
Ġ3 7
Ġeven ing
at al
ist ant
Ġag ent
Ġreport ing
ĠScot land
ut ation
Ġent it
ĠBo oks
Ġsim ultane
Ġacqu ired
ĠL os
Ġvers ions
ĠS and
Ġst rain
Ġexp ed
em a
Ġcontain er
Ġl es
ĠO per
Ġcl ub
Ġprob ability
Ġman aging
ĠWith out
Ġtum or
ĠIm p
it i
ĠPort ug
ĠW ay
Ġpres erve
Ġground s
Ð °
et ing
ĠS anta
ĠC orn
ĠÂ £
Ġt or
Ġres id
. '
ic ular
Ġfar ms
Ġstre ets
j o
u an
ic y
ut ing
Ġarg uments
ad ow
ĠH ospital
our se
ont al
Ġvacc ines
% ,
Ġb ag
Ġveget ation
H ist
Ġtem por
Ġf ellow
Ġhard er
Ġv en
Ġdut y
hold ers
Ġb are
Ġf ur
ig ate
ĠP ur
Ġd ance
im ents
Ġsub stit
Ġsett led
Ġl ists
ran ean
Ġexc iting
C o
Ġsp ray
if ice
ĠP ak
ĠHe art
rid ay
ĠL ee
ĠO l
ĠCh o
Ġcreat ures
Ġchem istry
Ġnutri ent
Ġequ ation
Ġbiod iversity
z er
gen er
ĠCol l
Ġflex ible
ĠAlex ander
el ve
Ġpar agraph
6 7
N S
Ġin equ
ĠW al
Ġsoc ieties
Ġempt y
Ġk illing
ĠSur vey
5 9
Ġinter ior
ĠA L
Ġhabit ats
l ines
Ġown ed
Ġmarket ing
Ġdis m
ĠEgypt ian
Ġbound aries
ly mp
ri ze
ĠG ar
Ġher itage
ic ian
ĠP ass
Ġdeep ly
I F
Ġbe at
ĠD O
ĠAss ess
Ġbe ans
ĠB a
Ġdri ver
Ġres c
Ġcommit tee
Ġnot ion
Ġaim ed
ĠDiv ision
Ġd im
Ġent ertain
omet ry
C om
k et
ol t
op her
ograph ical
Ġexec utive
Ġwonder ful
o ids
ĠSp irit
Ġadv is
Ġsens itivity
ĠT om
Ġanaly ze
Ġd ense
Ġbut ton
Ġapp eal
Ġtechn ological
Ġexpl oration
ĠRead ing
ĠL ess
ap es
Ġt ables
Ġu l
Ġavail ability
Ġimprove ments
Ġmanif est
Ġt ick
ĠMod ern
Ġt ens
w as
ce ans
ut en
z ym
Ġst ake
Ġch air
ap or
Ġprof ile
Ġemer ging
ĠPar liament
ĠTur k
Ġf ought
Ġl ip
ec ess
Ġtem porary
Ġoffic er
Ġpsych ology
Ġphotograph s
Ġo m
Ġc as
Ġf ats
Ġwa iting
Ġearthqu ake
Ġenorm ous
w an
Ġlif etime
Ġf isher
Ġst ones
Ġphys ically
Ġviol ent
Ġvari ations
ĠR h
Ġass ert
] ,
ĠAs se
Ġdist ricts
man n
hest er
ay er
ĠJust ice
ĠIslam ic
Ġdefic iency
Ġparam eters
g ence
Ġp and
ip her
ĠLabor atory
ĠId ent
ĠM ath
ĠWild life
Ġw age
Ġsh ore
ĠSp ring
Ġperce ived
S im
Ġsc hed
E E
Ġkeep s
Ġachieve ment
zy me
Ġd imens
Ġcan cers
Ġperson ality
Ġdirect ions
w orld
ĠHe ad
Ġintrodu ce
ĠJer usalem
: ||
l ims
w ords
al ities
ĠC irc
Ġra ising
Ġneut ral
if ted
Ġad verse
Ġcollect ive
Ġexpect ations
Ġquant ity
Ġsav ed
ail ed
Ġcorrespond ing
Ġsent ences
Ġex haust
Ġco at
ĠCon nect
Ġvit amins
Ġs ad
ĠT ry
Ġstrateg ic
ĠSystem s
htt p
Ġemot ion
ĠF ind
ro b
Ġlow est
ĠC lick
ch o
ric ted
Ġmar g
5 8
U nder
Ġgra ins
Ġver tical
ĠM ess
ĠB usiness
ens ed
Ġfocus ing
Ġeng aging
Ġexist ed
ĠL in
ĠTest ament
! âĢĿ
Ġreason able
Ġfat igue
Ġbeg un
k ind
end ar
ĠColor ado
ĠT O
Ġse vent
epend ent
ĠAg ain
Ġsymbol s
ĠNav y
Ġm g
Ġcontribut ions
Ar t
) ||
Ġcon clus
ain ts
Ġacc ord
Ġmy self
Ġperform ing
Ġplant ing
Ġking dom
Ġexhib it
Ġconscious ness
ip e
Ġact ing
E A
Ġent ering
Ġdis ability
te xt
P r
b r
Ġext ension
20 12
Ġprop ag
Ġmembran e
al i
20 10
Ġcomput ing
Ġcolon ies
Ġgrav ity
C ons
Ġt on
th rough
Ġtrans mit
Ġmind s
Ġadapt ed
Ġlung s
Ġch ances
Ġag ing
bor ne
Ġinvestig ate
ĠG re
5 6
Ġunivers ities
ĠR ight
Ġ19 20
Ġgu ess
Ġheav en
ĠO s
ĠO bs
Ġfing er
e or
Ġab stract
Ġconsum ed
om ers
ĠHar vard
Ġ20 21
Ġrest oration
Ġprom oting
Ġcustom er
Ġtraum a
P s
ĠN O
pl ed
Ġher b
el ing
Ġha ven
ĠL ittle
og y
k l
ĠL ast
Ġceleb rated
ĠS ection
ri x
Ġtell ing
ĠEconom ic
W here
Ġinter ventions
0 7
E ng
ĠI T
Ġreturn s
Ġur ine
Ġ3 9
ĠAn alysis
20 13
Ġprior ity
Ġclass ified
Ġequ ality
ĠOr ig
Ġsum mary
Ġc ure
ĠP oint
Ġtarget ed
Ġbacter ial
d r
ag an
Ġpoet ry
ĠPh ot
A re
or ig
ond ay
ĠInd eed
Â ®
Ġas p
Ġact ively
Ġvers us
Ġvirt ually
Ġw ider
ab s
Ġmov ie
St ep
r h
ĠF act
Ġgod s
im p
Ġlab our
Ġline ar
ou ds
as hes
Ġst ood
ĠP age
y ou
' .
g reen
he a
ĠO lymp
Ġmedic ines
u um
ant ed
Ġvict ory
ĠAgricult ure
d isc
Ġ1 20
Ġ9 5
Ġc ord
Ġl osing
ĠSt an
aw a
Ġref erences
Ġprefer red
pt ic
Ġwould n
ĠKe y
Ġtrans mitted
Ġpain ful
Ġst yles
Ġholid ay
th on
Ġob st
Ġfu els
z o
ĠM oses
Ġsche me
ĠF red
Ġint ention
Ġfin ish
h ire
Ġe ase
Ġcolon y
' d
Ġsustain ability
r ity
Ġaccompan ied
on ents
pl ay
ĠDig ital
are t
5 3
Ġcardi ovascular
" )
Ġrec ording
Ġconst ra
Ġquant um
ĠSund ay
b ell
Ġp ion
Us ing
at ter
Ġev ident
Ġtra its
Ġreg ime
oper ative
adel ph
ĠH im
Ġman ager
Ġsens ors
Ġens uring
iter ranean
Ġcalcul ated
eut ic
f oot
ic o
Ġrequire ment
Ġsod ium
Ġclass ical
D S
f eed
Ġg athered
Ġsp inal
Ġshap ed
Ġw ars
ut her
Ġr anging
Ġtrans c
Ġprom ise
Ġlo ose
ibl ical
Ġcur ve
S m
f ast
Ġan ger
Ġocc as
ĠAv oid
Ġecosystem s
ĠViet nam
ĠPak istan
iv est
osp el
b el
Ġapp lying
Ġcoun cil
Ġ3 4
Ġinv asion
Ġserious ly
ĠEl izabeth
Ġconver ted
b ox
Ġc raft
Ġpartic le
Ġcontin uing
Ġh all
Ġresist ant
Ġs oph
f e
Ġdeterm ining
Ġrob ot
ĠBudd h
Ġpresc ribed
Ġear s
T P
ĠC E
the w
as y
ĠC ub
Ġsp oke
Ġox id
Ġdro pped
ĠE PA
Ġremark able
Ġc otton
id al
ric ks
Ġremov ing
M A
N e
20 11
Ġant icip
Ġfe els
ĠMin istry
ĠSen ate
L ike
R ef
Ġsc ores
Ġrepresent ative
Ġple asure
Ð µ
Ġt ip
Ġcon vey
Ġind irect
Ġwatch ing
Ġpass ion
at i
Ġse es
Ġmet als
-- --
Ġimmig rants
ment ia
Ġinteg ration
is d
ĠM ur
Ġmod ule
Ġcap abilities
Ġver b
m ade
Ġsafe ly
ĠSecret ary
Ġf o
pl o
Ġdifferent ly
Ġagg ressive
ĠD rug
6 1
J ust
Ġm unicip
aw are
Ġperson nel
Ġwebs ites
Ġt one
Ġw at
oc ated
Ġir rig
Ġdomin ant
adelph ia
er ies
Ġar med
Ġhypothes is
ĠS olar
ru e
Ġcl ock
agn etic
Ġ194 0
Ġadop t
Ġsac red
Ġt act
Ġg ift
if ier
aw n
Ġdr inks
m un
Ġg ent
ĠB ureau
Ġdiff er
Ġre verse
Ġatt ribut
Ġfriend ly
g ien
Ġp H
Ġinvolve ment
ĠJac ob
ĠIs lands
Wh o
Ġapparent ly
on omy
Ġd uration
Ġpriv ile
ĠPhil ipp
Ġres il
Ġoccup ied
Ġwe igh
ment ation
Ġch ose
Ġest ate
hem istry
Ġcolon ial
ĠBi ology
Ġexpert ise
D espite
E ach
ress ing
Ġinf ants
Ġsc ope
Ġsur g
ĠMus ic
Ġsubs id
Ġper mit
Ġproduct ivity
Ġqual ities
Ġnutrition al
Ã ±
er ts
un c
Ġbre aking
Ġpriv acy
Ġfacilit ate
ĠN ob
out heast
Ġplant ed
th is
ĠB M
Ġsu icide
Ġliter ally
Ġdefin itely
Ġopin ions
Ġte ens
Ġre aches
Ġchrom os
ĠS aint
Ġloc k
cl aim
ĠAmaz on
Ġc ul
Ġto m
Ġres erved
ĠV e
Ġeng ines
Ġbat teries
Ġbar rier
U L
us cript
Ġj oy
Ġdesc end
Ġz ones
ĠÂ ©
Ġw elfare
Ġste am
Ġrecy cling
Ġble eding
Ġf rust
ĠM ove
Ġhapp iness
Ġdiscuss ions
Ġdisplay ed
Ġneur ons
Ġnot iced
Ġun n
Ġd ies
ĠV an
Ġadd iction
Ġ198 9
Ġminor ity
Ġg ly
um er
Ġv ot
Ġeng agement
G e
am il
Ġpre y
à ¥
Ġc able
Ġc ran
av en
Ġtra ce
Ġtel esc
ment ed
Ġsu it
Ġpost s
hav ior
Ġt ack
Ġd ict
Ġbe ach
er as
Ġdev ast
ĠGree ce
ĠF il
a fter
Ġc ub
ad vant
ĠEn cyclopedia
Ġhyd ro
ĠS everal
Ġpe er
Ġspec ified
Ġelect ions
B M
Ġbe ars
ĠM ax
Ġch ocolate
Ġper f
Ġfund ed
Ġceleb rate
m ond
se ction
iz z
Ġdevelop s
ĠAs k
Ġreal ized
al so
Ġn om
ĠMed iterranean
ĠInc re
Ġorig ins
Ġcomplex ity
Ġtransfer red
ivest ock
v ation
Ġcan n
Ġlog ical
ĠL ew
Ġhand ling
Ġann ually
u ity
ĠB ack
ĠO ffic
ys ical
Ġdevelop ments
Ġdocument ed
Ġat oms
ĠD iet
Ġfac ulty
Ġc rown
Ġsh orter
Ġsp an
Ġcert ific
ĠD own
Ġher self
Ġread ily
Ġde ploy
Ġaut o
ĠPer haps
il a
ĠS S
Ġal arm
The n
ĠCh ief
Ġent hus
ĠConf ed
Be fore
Ġs essions
ĠT own
ĠMus lims
S ec
ĠM id
og ens
Ġenjoy ed
ol ine
ber ry
olog ically
lect ed
ira ble
Ġevolution ary
Ġg ast
Ġcon vert
Ġvolunt eers
Ġdri vers
ĠAngel es
Ġp ill
ater al
Ġref used
O s
Ġc ow
Ġm ature
Ġadv ances
S cient
Ġf et
ic ts
Ġre ign
Ġas h
6 2
end a
Ġsp ots
5 2
h ost
m ail
p re
iz ers
ĠCont in
d ep
Ġto b
Ġident ical
Ġrest ore
ĠHer itage
ĠTur key
r ons
ĠF air
Ġcl ients
Ġrestrict ions
Ġp el
us ive
ĠH a
Ġco operation
Ġsleep ing
Ġasse mb
ĠC apt
ĠR ail
ous es
Ġevery where
Ġreflect ed
S ource
Ġa est
Ġdra ft
ĠBl ue
ĠPe ace
spec ific
R el
ĠF ield
us hing
Ġjoint s
Ġrest aur
C A
Ġstr ange
aterial s
Ġfil ms
9 7
act ions
ĠIn vest
Ġrec re
reg on
Ġt u
Ġch urches
Ġemer ged
Ġpil ot
Ġunlike ly
m ia
Ġf t
il st
sh aped
Ġv ibr
Ġpray er
Ġth read
ad or
Ġsur prise
Ġbu ff
ĠPl ay
Ġspace craft
on om
th od
Ġwe aring
chn ology
Ġcho osing
Ġrul ed
Ġcontroll ing
ĠD ictionary
Ġab ol
Ġcont ents
Ġowners hip
E G
Ġbe e
ĠWe ek
Ġfore cast
Ġemp ire
Ġs ons
ĠE ll
Ġpurch ased
ĠMar ine
Ġacknow led
ĠA k
ĠM A
Ġrepresent ing
Ġmamm als
ĠWik ipedia
b ury
Ġsp atial
Ġcl ay
Ġsudden ly
ĠBul gar
Ġ Ø
Ġs aving
if er
5 4
Ġth roat
Ġasse mbly
T ra
Ġsus pect
Ġlimit ations
. ),
M ar
Ġt ill
as m
om al
iss ance
Ġvar ies
Ġclass ic
ĠHaw ai
Ġc ited
om eter
ĠH um
Ġcomp os
Ġassoci ate
T H
Ġb orrow
c in
en h
ĠC T
Ġcl othes
it ting
Ġsu g
Ġcur rency
ĠBe ing
Ġdiv ine
ol k
Ġben e
Ġgard ens
Ġpartners hip
Ġpaint ings
ĠF arm
ĠL uc
Ġreve als
ĠOb ama
est ions
. ||
Ġh at
Ġor ange
Ġde er
Ġdef ault
ĠPro cess
Ġtre m
Ġpen al
Ġther m
Ġtong ue
ĠA ff
ĠC reek
Ġche ap
Ġvir al
acks on
Ġsong s
G l
Ġp ace
ĠStand ard
Ġcould n
Ġwithd raw
f unction
ĠM ajor
op l
Ġvar ied
ino is
Ġd airy
te b
Ġsens or
ĠMexic an
Ġentit led
p ress
Ġg um
Ġ( "
Ġwork er
ful ness
Ġvis its
zym es
Ġp ets
Ġvill ages
Ġreplace ment
ĠHistor ical
Ġd ating
ĠB al
ĠB uilding
Ġun cle
Ġinv ention
200 9
Ġtob acco
d i
ass ium
Ġstream s
b est
Ġs hed
am ps
Ġcomp ost
ĠIm pro
Ġd il
ĠA R
ĠB ang
Ġinc ent
Ġprov ision
Ġpres erved
Ġgra des
Ġlight ing
ĠComm ons
Ġpen et
et he
ĠG all
Ġen cl
ok ed
Ġut ility
ĠPhil adelphia
Ġfif th
Ġdepos its
ĠD ie
Ġbene ath
ab b
ĠCent ury
ĠTreat ment
ĠTem ple
Ġunder ground
ne um
Ġs ister
ment al
ac les
Ġend ing
am ic
Ġbu ying
Ġpay ing
Ġattract ive
Ġen forcement
Ġbur den
Ġmil it
Ġcirc ulation
Ġallerg ic
or us
ĠAb raham
bo oks
Ġancest ors
Ġpreval ence
ra ine
C P
ĠS on
p ower
Ġexpl oring
R ep
ĠC P
Ġrequ iring
Ġenc ounter
Ġw ise
or ters
Ġele ph
Ġattempt ed
Ġsc iences
Ġestablish ing
Ġimag ination
Ġconvers ion
ĠC A
iss ipp
Ġdi pl
200 6
Ġperfect ly
V iew
ig er
ĠL og
Ġabsor b
Ġneu ro
Ġmor ph
Ġbal anced
Ġmax im
l ock
Ġt ort
Ġl un
ĠR est
Ġoutbre ak
P ost
ĠE S
Ġinv asive
ol ph
ĠA ction
T wo
Ġsm ell
Ġsav ings
Ġchann els
ane ous
Ġwood en
Ġelectr ons
w estern
ĠP u
Ġman ual
Ġmagn itude
Ġt ension
ul ed
ĠAr ts
ĠAnd rew
Ġbreak s
Ġgradu ate
II I
se x
app ed
ĠAnt ar
s ub
ur able
ig ious
Ġapp lies
Ġs ale
ĠDan iel
9 3
Ġs ending
ĠR NA
Ġdist ant
Ġinhabit ants
ĠM ach
Ġcompet itive
Ġemb ed
ĠF riday
Ġprecise ly
Ġ( âĢľ
Ġbas ically
Ġcut s
Ġpow der
Ġsurve ys
v i
Ġre ef
ian o
Ġbro ke
Ġmeaning ful
S ub
f riend
Ġl akes
ĠNe xt
Ġult imate
ĠR am
Ġcalcul ate
Ġt ag
od ed
Ġv ig
Ġaddress es
Ġveget able
p os
erv ing
Ġ4 2
in ces
ĠL ater
Ġdiscipl ine
ĠC rit
Ġleg it
. :
ĠI D
Ġover view
Ġreprodu ctive
Ġw al
Ġp airs
Ġl ingu
ĠAl aska
reg ular
c ut
s we
ent er
ob ile
Ġref lection
Ġscen ario
B I
á ¹
ĠC op
Ġins ights
Ġland ing
Ġspecial ist
ĠSm all
Ġabsolute ly
ĠF DA
Ġsol ving
Ġsw elling
Ġmer ch
at us
ĠN orm
Ġpers u
Ġdist inction
Ġdistingu ish
Ġt ap
Ġg ate
Ġspecial ized
ĠAre a
er ally
Ġrec all
Ġsepar ation
Ġregist ered
5 7
Ġb ought
200 8
Ġaccur ately
ĠL im
Ġsed iment
s k
Ġo l
oc ument
ĠU V
rit ten
Ġra ys
ick ing
oph ical
Ġprepar ing
Ġpup ils
c ule
re f
Ġd imin
Ġh oly
Ġl ibraries
ĠO regon
ĠJ r
Ġatt ributed
Ġin ev
Ġpr ime
Ġtot ally
em ies
Ġen zyme
ru b
Ġaccompl ish
m ble
t rans
Ġm ira
ĠK ids
olog ic
ov es
200 7
Ġmeet ings
Ġcell ular
Ġbar riers
ĠAsse mbly
oc ity
ide o
Ġsurround ed
ĠE mer
ĠTr ust
Ġper t
Ġgen ome
Ġproduct ive
Ġhorm ones
ugh t
ĠN utrition
av ed
ict ions
Ġhop es
Ġju ice
P lease
Î ±
ĠOf ten
Ġsurpris ing
5 1
ro se
Ġl ob
ĠC ode
ĠGu ard
Ġanaly zed
Ġpack age
rolog ical
C lick
Ġ ion
Ġpract ition
Ġprof ound
P ub
Ġw ing
ri p
Ġsurv ived
Ġreven ue
N ational
Ġh al
Ġwork place
Ġoil s
Ġt ends
gh an
Ġinst ances
Ġtransl ated
Ġbutter f
Ġf an
ĠH indu
Ġro d
Ġro oms
Ġmem or
Ġnut s
pd f
w orth
Ġpro x
Ġal ign
ĠH ence
Ġpain ted
Ġaccept able
! !
ter ior
ab out
Ġdis ag
Ġposs ibilities
ĠWh ich
st ru
ĠV itamin
ĠâĨ ĳ
O D
ĠN eed
Ġdo ors
Ġexc lud
omet ric
Ġchick en
Ġpass es
ĠBl ood
Ġreason ing
Ġkilomet ers
Ġper pet
Ġjud gment
ĠD am
Ġun em
Ġput s
ĠHel p
Q L
Ġs ulf
Ġar ise
Ġsch olar
Ġdistur b
Ġmetabol ism
o ons
ĠF ed
ang el
Ġassign ment
Ġlib eral
Ġcandid ates
ĠWhe ther
b ow
Ġcitiz en
ĠC ost
Ġsc r
Ġiniti atives
quir y
C R
Ġw ings
ĠI ce
Ġsal mon
ĠMod el
ĠP oly
M e
ĠK ent
Ġcre am
Ġlic ense
ĠL i
Ġreg ulate
Ġprop osal
Ġsimultane ously
Ġcy cles
Ġinflu ences
ĠLe vel
Ġcop ies
Ġdram atically
issipp i
U se
Ġc odes
ĠH it
oc a
Ġgl obe
Ġsurpris ed
Ġpand emic
Ġsh r
Ġinc idence
Ġsub sc
Ġcor on
Ġsp ons
Ġreg ister
Ġdesign ated
ill ance
Ġne ural
Ġillness es
p age
ist ed
ĠO nt
Ġatmosp heric
Ġo ste
ĠB ush
er b
ac le
iv ation
ĠIll inois
g ments
or i
Ġrel ate
Ġo ceans
Ġar c
Ġminim ize
Ġalgorith m
Lear n
Ġrefuge es
a is
Ġaddress ing
ol er
ĠF ish
Ġshe ep
ned y
Ġcontribut ing
Ġoccasion ally
O W
Ġin herent
igh th
ĠBudd ha
Ġbot tle
9 2
Ġ6 00
Ġtum ors
Ġathlet es
ic ations
Ġbe ll
Ġ1 000
Ġam ino
Ġsever ity
Ġbul lying
Ġsurg ical
Ġsc hem
lect ric
Ġleg end
Ġ198 8
3 00
e em
om ed
ĠUn ivers
u is
Ġmed ieval
Ġcomb ine
T rans
Ġas ide
Ġse al
Ġconf usion
eng ers
ĠB u
Ġcons ent
Ġrese mb
Ġprec ip
Ġflex ibility
a que
Ġend angered
Ġsatis fact
en er
th ur
Ġde mentia
Ġreflect s
2 000
ĠR ather
Ġdi arr
Ġbond s
ĠRem ember
Ġdimens ions
ĠC r
ĠV ar
Ġcal m
Ġgram mar
Ġelder ly
Ġmin imal
ĠPh D
Ġoper ated
ĠStand ards
Ġh ier
ĠS P
Ġpl asma
Ġcomp ass
Ġout door
Ġval ve
ĠPl ace
Ġdiet s
pro fit
R eg
ĠSc ript
Ġcollect ions
qu ality
ĠF er
Ġcreat ivity
Ġrepe at
Ġcorpor ate
O P
ov ing
Ġopt ical
Ġt ab
Ġn oun
He alth
en za
Ġtreat y
Ġworks he
Ġdiv ide
aus es
ĠKore an
Ġf raction
Ġto mat
ĠCar ib
Ġencoura ging
Ġhon est
Ġefficient ly
Ġsem i
Ġbrother s
Ġhosp itals
pect ives
Ġhy brid
Ġsum mar
Ġconsequ ence
Ġalg ae
Ġthy roid
ĠP ope
Ġle cture
Ġrob ust
Ġwid th
Ġcandid ate
Ġdis advant
Ġdem ocratic
Ġmist akes
Ġprison ers
Ġdischar ge
Ġtheore tical
9 6
M an
os aur
Ġemploy ee
Ġc ough
ra it
ard ed
Ġaltern atives
Ġm ail
Ġl ivestock
Ġsuggest ing
An y
Ġelev ated
Ġthem es
Ġbi as
Ġo w
Ġp ose
Ġ2 50
Ġrel ating
Ġneigh b
b ul
ĠC S
ist ing
Ġstat istical
Ġengine er
ĠTw itter
ast ics
Ġman agers
Ġhum idity
ĠPro ble
Ġrest ricted
200 5
ĠT H
ĠS qu
Ġsh oes
ĠJ ackson
Ġdis k
ĠSt ation
Ġflu or
Ġpay ment
Ġvary ing
Ġcl ouds
Ġcontin ent
Ġextra ord
ot ypes
Ġcan al
Ġpros per
ĠJeff erson
ĠB ern
ĠTra de
Ġadministr ative
w a
Ġsystem atic
Ġtend ency
iv ities
Ġdeb ris
M P
Ġwas h
ub ble
Ġbl ank
Ġelement ary
Ġanalys es
Ġh urt
ĠN ic
eg in
Ġburn ed
ou ri
ro le
Ġst er
res hold
ĠH ard
Ġpoll ut
Ġjur isd
h an
per t
pl ate
Ġman uscript
imens ional
Ġkne e
Ġsym pt
g a
ay lor
ĠJ ack
Ġopt imal
Ġwind s
Ġadop tion
Ġallerg ies
Ġorient ation
ĠCol on
e ven
ĠM ain
Ġimp air
Ġrain fall
Ġfasc inating
el ly
ĠTh ird
row th
Ġext ens
Ġmotiv ation
is ations
Ġre vers
Ġal ert
aut hor
ĠMiss issippi
Ġfav our
Ġincorpor ated
Ð ¸
ĠB ased
ĠD esc
Ġb ags
ĠS us
ĠCl ub
Ġfib ers
Stud ents
Ġcr imes
istic ated
ĠO S
Ġhy gien
Ġpredict ed
Ġexpand ing
R em
Ġp ale
Ġsc ales
Ġ198 6
Ġ198 7
Ġsuscept ible
Ġm issions
ĠPh ilos
ĠG DP
Ġvis iting
Ġappro val
ĠCor por
Ġexhib ition
Ġpestic ides
ĠC H
ater nal
ath an
Ġchar ges
ucle ar
Ġexc av
iv ate
Ġmag azine
K e
it le
Ġmin ister
Ġth irty
rop ol
Ġquant ities
Ġguarant ee
ig m
Ġprov isions
Ġt ough
ĠT ool
rib le
Ġret ail
Ġer osion
Ġpopular ity
Ġconflic ts
Ġ9 78
Ġrespons ibilities
Ġcra ck
T ER
cept ions
Res earchers
Ġdynam ics
ĠHis pan
AT ION
Ġswim ming
R S
e fficient
k er
Ġassoci ations
Ġadj acent
ab ling
Ġcollect ing
u ro
ĠM ap
ĠH aving
ib et
Ġabund ance
ĠAn cient
Ġrece ives
ĠMicro soft
Ġadolesc ents
it ic
ĠD ue
Ġr ough
Ġdescrib ing
8 7
et ically
Ġ6 4
ĠCons ider
Ġsect ors
zz le
Ġch amber
ĠV iew
Ġatt itudes
ĠJer sey
Ġen zymes
Ġapp l
ĠCor ps
Ġcam ps
ri um
Ġwhen ever
Ġstru ck
Ġaband oned
Ġmy ster
Ġpost ed
Ġinsp iration
exp ected
Ġconclus ions
l aw
ĠM onday
ĠUn like
ne a
Ġg est
Ġthan k
Ġdevelopment al
Ġconsist ently
ĠSupp ort
Ġ ||
el a
ik a
Ġbus y
in ite
Ġm ask
ph al
ĠInd ones
Ġeth ics
Ġpip e
es ium
ĠBet ween
b urn
j i
Ġp roud
Ġn inet
Ġamong st
Ġsuggest ions
Ġarr ival
D L
ĠBer lin
eli hood
y es
ĠC ell
ĠM aster
iet h
Ġent rance
in ch
Ġp or
st ep
Ġal umin
Ġdis h
Ġar thritis
ic ut
Ġh am
red it
du ction
ian ces
Ġrep utation
Ġgra d
Ġdi agram
Ġisol ation
Ġcontamin ated
Ġd oses
if ting
Ġspread ing
ĠChar l
ĠWil son
Ġf iction
Ġtrans plant
form ed
Ġmur der
Ġalong side
ur se
ĠA h
Ġpass word
Ġconsist ing
ĠPhys ical
v ol
Ġs elling
as hed
Ġwe aken
qu es
nt il
ĠN eg
nes ota
ĠKen nedy
Ġh ung
Ġr h
Ġ20 22
ch ain
um ns
Ġoff ices
Ġoffic ially
C al
im m
th ood
ĠH yd
Ġf ant
Ġv om
Ġtherap eutic
Ġfore ver
ĠA z
Ġrep et
Ġarg ues
Ġtow er
Ġprev ents
ct ors
un ning
i y
Ġ à¤
ĠW ed
Ġr anges
Ġpat ent
Ġve ctor
ious ly
A c
ple x
Ġaff airs
it us
ĠH ot
Ġpart ly
Ġv ice
ĠW riting
Ġcam eras
Ġinvent ed
Ġinstall ation
Ġmetab olic
Ġaward ed
Ġtw elve
Ġspeak er
Ġseason al
ĠBudd hist
ustain able
9 1
Ġpro l
Ġse gment
Ġnum er
itz er
it ate
ĠH em
the y
Ġclass ification
Ġsynt hetic
Ġ %
Ġin ch
id ers
Ġst abil
Ġphysic ians
Ġphenomen a
Ġdut ies
8 00
ĠL ook
Ġret urning
Ġcal endar
Ġfa ult
Ġbra ins
ĠAssess ment
B ack
du ate
Ġcont rad
Ġweek ly
Ġdigest ive
8 1
Ġpart ially
Ġcivil ization
Ġstri king
ĠH ig
ĠL ED
ĠAd am
on ly
Ġaccount ing
ĠCult ure
T able
ĠT urn
C he
ing er
ĠT enn
Ġst ere
Ġconf ident
Ġ8 5
de velop
z one
ĠI de
Ġorgan ism
rid ges
Ġsoil s
ĠGovern or
ĠPol and
at tered
ĠP ut
Ġsh ade
Ch rist
Gen eral
Ġb ron
ĠSt ory
ob ic
Ġpun ishment
9 4
v ae
Ġal tered
Ġgl ob
f ound
Ġb orders
ĠR en
ĠK ansas
uss ion
A ut
Ġexp ort
com p
Ġdel iber
Ġrepresent atives
epend ence
Ġeat en
Ġc ourage
Ġre nt
Ġr ib
Ġpart ial
Ġval ley
Ġabsor ption
ĠCarib bean
o a
ĠC all
ĠM ot
Ġreview ed
Ġbound ary
Ġp ediatric
Ġf les
Ġsub mit
Ġabund ant
Ġpro long
Ġint r
urs day
ĠAs h
ug s
ĠMars h
Ġclust er
ĠH op
ĠR isk
Ġph ones
Ġincorpor ate
riz ona
ĠSchool s
Ġconnect ing
ĠNet her
Ġlik elihood
Ġregul atory
ĠD yn
Ġsome where
Ġcap s
Ġsurv iv
rep rene
ou lt
ĠP ain
erg art
Ġtoler ance
Ġb its
ĠPro duct
wh o
Ġcomple ment
ĠEm peror
ĠOther s
Ġfertil izer
Ġm ile
Ġh o
Ġon set
Ġfing ers
ĠHit ler
* *
Y es
Ġtra il
ct s
st ers
ĠB on
old s
ĠWilliam s
d ess
Ġd ivers
ĠAm endment
Ġsett lers
ĠDem ocratic
Ġplatform s
F ig
o is
Ġth row
Ġfat al
Ġl oud
ĠL ocal
Ġatt ended
T A
an ium
Ġe rect
Ġass ault
ues day
re ens
ĠU k
ĠClin ical
ĠGard en
ĠOnt ario
c or
ra id
ĠO N
Ġrhyth m
Ġd ying
ĠS ud
Ġprot est
Ġbroad er
Ġsoph isticated
f ire
Ġw ax
im en
ĠL ine
ĠTh anks
Ġtrans formation
Ġsacr ifice
. -
le ar
Ġmem ories
Ġcos m
Ġ ?
Ġh ol
ĠS elf
Ġed ges
Ġlast ing
Ġirrig ation
d is
in ery
Ġdevelop ers
ĠComp uter
Ġfe ather
Ġca ve
Ġabsor bed
ot ten
ear ly
Ġso y
ĠIs a
200 4
Ġwel come
ĠM other
ĠMat hemat
Ġtra cks
Ġ4 4
Ġref rig
Ġret ain
Ġpred omin
Ġdefin itions
Ġshel ter
Ĥ ¬
ĠP rom
on ing
ic an
ons in
Ġemploy ers
Ġtherap ies
ĠDi abetes
Ġcontain ers
ĠIss ue
Ġachie ving
Ġpl acing
Ġacqu ire
ĠF le
ĠRe al
ĠW ales
ec onomic
Ġprodu cers
Ġel ig
Ġinj ured
ĠArab ic
Ġsucceed ed
Ġf irms
Ġh arsh
Ġv ag
isc onsin
ĠN G
ĠG M
ag le
Ġpres ervation
Ġvel ocity
ĠS C
ĠK n
erm at
Ġcoll apse
ĠLew is
od s
ĠMin nesota
ct u
ff e
Ġcont rary
Ġso vere
Ġauthent ic
Ġre nder
ow ered
ĠM ind
ĠO cc
str ate
Ġspeak ers
Ġmole cule
Ġoccup ation
z ant
Ġpar ks
Ġv oting
own ers
com pass
Ġpot assium
ĠInt roduction
8 3
y r
ĠT ar
im ic
Ġconf used
ar ios
Ġn ort
ul ates
Ġeduc ated
ĠPr ince
U C
Ġt ied
ol ves
Ġg erm
ĠTe xt
Ġapprec iate
u ine
ĠH an
Ġbr ush
Ġmob ility
le ton
ĠW W
ĠG r
Ġgra ms
Ġconsum ing
ĠJ im
Ġ8 00
ĠRes erve
Ġsens es
Ġconstitution al
j ud
ĠP L
ist ically
Ġear ned
Ġprevent ed
ĠApp lic
ĠBar b
Ġenh anced
ĠRom ans
Ġp ap
Ġn odes
ly n
oc ent
ĠF a
Ġdes k
af e
Ġc ig
ĠSh ould
ĠOr der
Ġhistor ians
Ġatt ain
ĠInd igenous
Ġoper ational
ĠMount ain
ĠMiss ouri
ĠScient ific
c ase
Ġp est
Ġr ats
ook ed
Ġobvious ly
Ġpurs ue
for ced
Ġmut ations
uls ion
Ġcarbohyd rates
8 4
Ġth reshold
Ġex ch
ore r
Ġdist ribut
ĠVol ume
Ġreject ed
Ġhoriz ontal
Th rough
is ition
ĠS av
Ġhealth ier
Ġpar liament
Ġcamp us
Ġevalu ated
M od
v y
Ġwh ales
Ġfact ory
Ġaccompl ished
ĠT ibet
ĠP DF
reat ment
Ġtra ding
ĠGerm ans
ĠSy ria
F inally
ut ical
Ġassess ments
F S
at oes
ell er
pl an
Ġcont amination
Ġcount ies
ran ch
Ġimplement ing
nes day
Ġm ercury
Ġd ried
Ġantib odies
Ġw ake
ĠT ro
ip ation
ĠCar l
Ġinfect ious
ĠTurk ish
ar ks
Ġm uc
ra c
ĠL at
Ġper mitted
Ġ4 3
As s
ĠWith in
ĠProt est
d d
Ġutil ized
Ġdial ogue
Ġt y
Ġart istic
ĠPr int
Ġindepend ently
Ġsequ ences
st ic
ĠF ac
Ġall ergy
ap ing
Ġgovern or
Ġinvest ments
Ġattack ed
Ġconcent rated
ĠCD C
Ġst ems
Ġimp ressive
ĠRes earchers
Ġcirc les
Ġdrop s
Ġsp ark
Ġdev oted
Ġexpress ions
quar ters
Ġpl ates
Ġcy l
Ġavoid ed
Ġstra ins
Ġstret ch
Ġattribut es
ĠA rizona
ĠThe ory
ac on
orig inal
r int
Ã ¨
is ons
Ġde leg
Ġv ine
Ġrout es
Ġmal aria
c al
Ġh ills
ĠS n
ĠJ ones
ĠY es
ĠEx ec
Ġdefect s
Ñ Ĥ
Ġb inding
ĠH ay
ĠTe aching
Ġstrugg ling
W ill
Ġin ver
ch ron
Ġan throp
ree ment
Ġeconom ics
atch ing
Ġconven ient
d a
n ia
Ġp ond
Ġinf lation
Ġimmig ration
i ography
um bers
Ġtradition ally
Ġsitu ated
ĠJ on
Ġbl adder
yp ically
Ġcar ries
Ġdr ives
Ġexc ited
ĠMary land
ĠN OT
Ġbl o
ps on
Ġavoid ing
Ġarr ive
Ġbroad cast
comm un
ĠSimilar ly
Ġdiagn ostic
Ġb uck
Ġimpro ves
Ġfin ance
Ġflav or
Ġp ests
Ġm arch
em or
ĠF uture
Ġ4 1
ĠTe achers
Ġobs er
Ġimpl ies
Ġaccord ance
gg ed
Ġir regular
ins ula
Ġimmun ity
Å į
est one
ĠSt ill
Ġparticip ating
ĠW ars
sp ring
Ġtrib e
Ġgent le
d on
f old
Ġsh ares
inc ome
ĠCon stant
ĠAf ghan
Ġcirc ular
do i
health y
ĠD uke
hed ral
Ġhistor ian
Ġsam pling
Ġshall ow
ĠMat thew
y ard
Ġg ran
ĠB est
Ġun expected
ric ane
Ġfound er
ĠPhil ip
Ġsubsequ ently
Ġdistingu ished
role um
i ac
Ġindic ating
Ġdirect ory
Ġel abor
Ġfree ly
Ġdispl ays
ĠNether lands
Ġb ark
rel s
Ġagg reg
ĠDar win
as ia
ĠM uch
ist ent
ĠH om
Ġdisc l
az z
Ġ198 5
Ġassess ed
ecess ary
Ġb ite
âĢĿ )
ade qu
Ġshe ets
4 00
W ell
ĠT el
Ġapp et
Ġdef ines
Ġworks hop
Ġdecre ases
Ġkit chen
Ġb ull
Ġn ick
ĠA ud
Ġat omic
ip h
ry pt
OR D
Ġcontrovers ial
in th
Ġ194 5
Ġadapt ation
ĠRepublic an
ĠCle an
Ġv ow
Ġ19 00
Ġpe ers
ris k
ĠPr im
Ġembed ded
t ype
Ġt anks
Ġres olve
au c
Ġfit ness
th al
iot ic
L S
Ġthe sis
Ġp ink
ĠM rs
ace utical
Ġequ ipped
ĠMe an
D ef
Ġinter medi
Ã³ n
at ories
gen eration
Ġinteg rity
ĠDav is
ios ity
r ise
ĠT ree
Ġmonth ly
Ġpresc ription
ĠO il
Ġgr ants
ĠMc C
F urther
Ġb er
ĠAll ah
Ġox ide
Ġprogress ive
Ġpros pect
Ġmir ror
Ù Ħ
ĠCent ers
ra red
Ġv on
Ġhard ly
ĠRed u
Ġ ~
on in
ĠW isconsin
ĠL uther
ub le
Ġpublic ations
Ġcond em
P DF
W he
i ating
ĠF ollowing
Ġsp ir
ult ure
Ġcol umns
Ġind oor
Ġext inction
effect ive
Ġre h
Ġse w
Ġk g
ĠPro per
ĠOr d
Ġthor oughly
greg ation
D ep
tern oon
con f
Ġlo an
ĠConnect icut
Ġrel atives
Ġsens ory
h ard
az e
Ġappoint ment
Ġhun ger
ĠEss ay
Ġdemonstr ates
B A
Ġh ide
ĠCh ap
Ġen abled
Ġres idential
Ġexec ution
Ġcry pt
ver ages
ĠF ront
Ġpr one
Go ogle
best os
Ġ `
Ġc ensus
ce eds
Ġsoc io
Ġprom ising
Ġaccomp any
W ater
Ġbe aring
Ġimportant ly
Ġgra y
Scient ists
Ġwas hing
Ġle ak
Ġcol ored
Ġname ly
Ġfert ility
Ġnurs ing
d ate
ĠJ ava
Ġdoct rine
Ġrecomm ends
Ġfem in
Ġcommand er
Ġcalcul ations
Ġantibiot ic
Ġreserv oir
j a
ĠD ub
Ġen lar
Ġdesign ing
ĠPhys ics
Î ½
Ġf ate
Ġth inks
Ġcon g
vel ength
Ġacc idents
Ġlab els
sec urity
Ġtele phone
ĠScient ists
Ġd ress
ĠC it
Ġmet res
Ġsw allow
rolog y
Ġaf raid
, âĢĻ
R NA
Ġdisp ers
Ġdead ly
Ġtim ing
Ġax is
Ġw ages
Ġsk ull
ropri ate
ĠW alk
Ġspeed s
ĠT raining
ĠM arc
ĠN Y
Ġmin i
Ġ197 9
Ġbul k
roph ic
Ġmanufacture r
ĠDiff erent
h igh
Ġke ys
ĠAl tern
Ġupd ate
gra de
Ġsurve illance
b age
ol lo
20 14
Ġpoll en
Res earch
Ġtal ks
ĠNaz i
Ġess ence
ĠN ation
Ġdisc om
Ġpersist ent
Ġwor n
Ġgen etics
ogn ition
J an
Ñ Ģ
Ġess ays
Ġtravel ing
Ġqual ified
ĠT aylor
ĠF ord
Ġsp ine
Ġunt o
ĠOb ject
Ġp ine
Ġre nd
ĠS her
ĠC ensus
Ġexpl ored
Ġrul ing
ĠSch olar
Ġstra w
Ġalgorith ms
ĠPract ice
Ġconfig uration
thod ox
Ġm art
Ġconduct ing
ĠInt eg
Ġdefe at
or b
Ġbe et
ne g
Ġpub l
Ġport ray
Ġcas ual
Ġextraord inary
ĠN a
Ġtour ism
Ġl ying
ĠEx amples
Ġterm in
Ġdest ination
ĠWork ing
Ġm ud
ĠM P
Ġunder go
Ġmed itation
Ġart if
ĠBuddh ism
Ġ rom
ĠB h
Ġflu ids
Ġrefer ring
Ġreview s
Ġassist ant
e av
Ġg aps
ow a
Ġmodel ing
Ġalph abet
ergart en
Ġr ide
ĠN ap
akes pe
Ġconf ront
Ġcap ability
Ġlaw n
iv als
ĠO pp
Ġcons ensus
Ġgener ating
ĠStud ent
sequ ently
Ġterrit ories
Ġarrange ment
E W
i atric
up iter
Ġsust ained
Ġcompl iance
Ġgather ing
Ġmyst ery
im edia
Ġpr iest
Ġwrit ings
Ġnucle us
osa urs
Ġd ow
ay ing
ĠN S
Ġen act
Ġcomp aring
Ġprog ression
inc ial
ik ing
Ġpred ators
och ond
n ames
y o
Ī Ĵ
ĠC ase
ĠD aily
ag ger
Ġdep r
Ġhome work
ĠQ ur
Ġattract ed
Ġcompens ation
Ġ es
Ġy es
20 17
Ġsearch ing
Ġbox es
Ġscen es
Ġdegrad ation
A nt
or ney
ĠB at
ĠB rain
ric s
ĠEn ter
Ġdom inated
Ġhygien e
Ġb ills
ĠP A
Ġsh ipping
Ġcl oth
Pro f
u v
Ġt rick
Ġh ang
ent ieth
Ġins pect
akespe are
Ġl unch
ĠT an
Ġpip es
s ome
or ient
Ġb or
ĠN C
Ġrest ored
Ġdoll ar
Ġadvert ising
ĠBy zant
Ġge ographic
Ġdefe ated
Ġoverwhel ming
b one
Ġl oyal
ĠH ung
ĠN ep
og ram
ĠTh ink
Ġsub mitted
Ġexped ition
Ġtrem end
Ġsp erm
Ġj aw
ĠCh ile
Ġsur re
Ġpres um
Ġvacc ination
x ic
ig ma
un s
IS T
Ġtrack ing
Ġflood ing
ĠF ram
Ġse asons
Ġlar vae
Ġdin ner
Ġafford able
on ent
ĠP aper
ob s
ole cular
Ġign ored
Ġnewsp apers
F A
ĠS ource
ĠJ ean
Ġapp e
Ġ4 6
ran k
yl on
isp here
ĠPsych ology
Ġreserv es
ĠStep hen
Ã §
Ġ icon
st orm
ĠA T
Ġnot able
Ġdis put
Ġcr ust
atur day
ĠBel g
Ġmarg inal
H is
Ġdi ver
Ġillust rated
m akers
is ible
ĠS ep
the re
ĠAn ne
ĠAr m
Ġcomple tion
Ġprotect s
ĠPol ish
Ġcontinuous ly
ĠMove ment
f ront
Ġinv ited
Ġbl acks
Ġlo op
Ġcat al
Ġwire less
Ġ ic
Ġo ught
ar ians
et erm
ĠS em
Ġco inc
Ġext rem
ĠInt erest
Ġceleb ration
Ġfol k
feed ing
Ġb ind
ol it
ĠR ay
Ġrem emb
inf lamm
Ġg ear
ĠM and
Ġhe al
Ġimp ression
Ġout line
Ġoccur rence
sh ore
ĠQu estions
Ġtransform ed
Ġbrows er
ed ge
Ġcor al
Ġmist ake
H igh
Ġde ce
ĠJ un
Ġop ens
ĠDe ath
Ġnecess ity
ox ide
Ġfrequ encies
Ġir re
Ġscen arios
Ġhighlight s
Ġre ar
ĠC hemical
Ġde hyd
em ed
Ġr ings
ĠF ull
Ġintellig ent
Ġdiarr hea
F C
v als
Ġdet erior
Ġ198 4
Ġdent ist
o il
el d
Ġal ien
Ġche ese
ĠIm port
Ġalle ged
d imensional
Ï Ħ
ĠS leep
Ġad mitted
Ġmass es
Ġp ock
Ġh ill
ĠD id
Ġthor ough
a ver
Ġbu gs
Ġassum ptions
Ġdisapp ear
Ġgun s
ĠSym ptoms
friend ly
V D
ĠH as
ust er
ĠCh all
Ġem peror
Ġ18 00
Ġorgan isation
Ġpus hed
ĠC N
Ġen emies
Ġarr anged
Ġhaz ards
Ġexclus ively
y an
ĠH unt
ĠInd ividual
Ġteac hes
Ġprec ision
Ġdistinct ive
Sp ec
P L
n on
ig ration
ĠL t
ov ed
Ġfall en
ond ition
erc ise
Ġpath ways
Ġpath ogens
Ġarrest ed
G u
ĠB ell
ĠB alt
Ġshould n
ick ed
Ġfeature d
ĠFore ign
Ġlib erty
Ġinject ion
Ġelectron ics
Ġs au
Ġcomm ands
su pp
Ġsympt om
8 2
f irst
id ae
ĠP ath
are r
Ġris es
Ġthick ness
Ġfle et
Ġdiscom fort
in ian
Ġg ifts
Ġsh ield
200 3
Ġimag ery
Ġrub ber
Ġstead y
ĠS ix
Ġem it
Ġdist ract
Ġmon ument
Ġcare g
Ġencoura ges
Ġutil ize
onym ous
D R
E l
F ind
Ð ½
Ġg ains
Ġhe ter
Ġch ron
vel t
Ġadminist ered
Ġdiscover ies
Ġod d
at re
Ġm apping
ĠH u
ĠGu id
Ġtox ins
Ġepid em
Ġepid emic
Ġepis ode
Ġmosquit o
B oth
Ġal ike
ĠG reg
ĠL ind
ĠAn imal
Ġterm inal
ĠLe ague
Ġfro zen
Ġs le
ab ama
ĠE nt
Ġsub tle
ã ģ
om on
ĠT y
Ġas ks
ĠM os
int on
Ġgra ce
i ens
p o
Ġ5 7
ivers ary
Th ough
Ġent reprene
ĠLe on
ĠNever theless
e ous
at ile
Ġint ra
ose x
Ġemp ir
Ġdism iss
au g
Ġgen uine
20 15
Ġ198 3
r ange
Ġleg acy
Ġinflu ential
Ġmut ual
n ings
ĠA N
Ġy ard
ĠH on
ount ered
Ġflow ing
Ġc ope
Ġpr ies
arm a
Ġbo ards
ĠRep resent
Ġcateg or
Ġgalax y
Ġdrain age
Ġvom iting
c led
n als
Ġp neum
Ġres on
ry ing
Ġprom otes
Ġdiscuss ing
Ġport ions
Ġemer ge
ĠStat istics
g rim
ĠS ac
au nd
Ġpolit icians
Ġdig it
go vern
do ors
Ġchap ters
Ġresc ue
Ġdeterm ination
ĠUr ban
Ġinequ ality
f are
Ġ Ù
ĠM ong
sc reen
Ġgold en
ĠLin ux
Ġt orn
ĠI ron
ĠâĢ Ŀ
Ġdist ances
ĠSam uel
ĠM oh
ĠH o
ĠG iven
Ġsusp ected
Ġincl usion
n ected
Î ¿
Ġn ic
Ġexp end
Ġorgan ize
ĠSh ort
Ġaccept ance
Ġhyper t
Ġimper ial
swe red
e z
ĠG ir
Ġloc ally
Ġenc ountered
ĠMar ia
Ġconserv ative
Ġen compass
ues e
oult ry
Ch ildren
Ġstop s
Ġlif t
Ġexec uted
Ġsynt hesis
Ġaf ternoon
ĠSwed en
Ġl apt
Ġpay ments
Ġsh adow
Ġinst ant
Ġbat tles
Ġcross ing
Ġbeh alf
Ġpoor ly
Ġcorrel ation
Ġo vers
ĠA IDS
ĠF low
ose velt
Ġover se
Ġdecl ined
Ġninet eenth
Ġfles h
Ġs el
ĠH ur
ĠComm and
Ġmult ip
Ġsevere ly
lar ation
Ġcritic ism
Ġt ang
Ġf illing
Ġl y
ĠC ore
ĠB ow
ĠU lt
te enth
Ġanal og
Ġcontribut es
Ġmom ents
Ġtim ber
Ġinher ited
an ol
ĠC old
Ġgre y
, '
U M
Ġp ec
ber ries
Ġprop he
Ġemp ower
Ġassum ption
Ġfif ty
B D
i ors
Ġb rick
ĠD un
ĠY ears
Ġpat ri
ĠAv ailable
ĠUnder standing
Ġan at
ĠN umber
Ġ4 7
Ġstorm s
Ġrepeated ly
ĠPM ID
A g
ur ated
Ġfor b
ĠG rant
dom inal
In tern
Ġsee ks
Ġfollow ers
Ġcat ast
Ġweap on
bur gh
ĠVictor ia
or se
Ġre plic
ĠH ong
Ġillust rate
ar ter
Ġun ity
Ġpick ed
Ġpro sec
ĠB ridge
ess ional
ile y
Ġser vers
h r
Ġt ired
Ġev ac
Ġcolle ges
Ġnerv es
H z
I O
ĠW in
ĠK at
Ġorgan isations
els on
Ġsaf er
Ġorigin ated
Ġdang ers
c m
il ly
Ġcat aly
ĠPy thon
Ġf rog
Ġto mb
st ud
ĠE vent
ĠY ellow
Ġtrans f
b ro
Ġin adequ
Ġm es
Ġparticip ated
Ġhazard ous
Â ©
Ġhe pat
Ġgen etically
Ġ4 9
Ġfac ial
Ġpath s
Ġmut ation
Ġtext ure
Ġtravel ed
EC T
ĠAD HD
Ġunem ployment
A ug
n atural
he astern
Ġm i
Ġclass rooms
Ġaccess ed
Ġwa velength
ĠFre edom
Ġsole ly
Ġfurn iture
. ]
H ave
h ops
il ateral
Ġexp enses
Ġz inc
Ġinvestig ated
Ġreprodu ction
ĠMount ains
ĠScott ish
ke ys
ĠW HO
Ġreal istic
Ġstim ulate
Ġdim ension
n i
Ġg au
ĠC R
Ġoper ators
Ġvol umes
Ġindic ators
Ġlic ensed
s ur
st ead
Ġen abling
Ġmet er
Ġign ore
ge red
form ance
Ġground water
Ġ196 9
ES T
Ġbr ill
Ġpoly mer
ĠG h
Ġview ing
Ġdra g
ĠAust ria
Ġincor rect
Ġvac uum
Ġfra ud
ĠP oll
ĠB or
ĠB io
ĠF A
Ġsupp lied
ĠSo ft
ĠInt ellig
ic ting
ĠP as
the ning
Ġmet ap
ann a
in ition
art s
Ġincred ible
ĠCapt ain
Ġg ums
ĠG er
ik i
sp e
ĠFranc is
h uman
j amin
Ġins u
Ġmicrob es
he res
ĠC ape
ĠR ab
! "
v asive
Ġb eds
Ġto ys
ac ular
Ġinteg ral
ĠArch ived
Ġincred ibly
Ġye ast
u ilt
re ll
Ġn as
Ġbe am
ĠT alk
Ġv otes
ĠR us
Ġk ings
f ather
Ġpr ide
Ġmark ers
Ġang ry
Ġconclud e
Ġphr ases
Ġconj unction
Ġl ith
ol as
Ġapp s
Ġmet eor
Ġmat rix
Ġmagn et
Ġcounter part
Ġrevolution ary
ĠEth iop
it ored
Ġb ip
as ures
Ġcomp at
Ġdream s
Ġacknow ledge
per ial
Ġexpl aining
ĠEv olution
p m
ed uc
th s
act ic
Ġres erve
are st
Ġqu ote
Ġphilos ophical
Ġelectro ly
E V
U D
ĠS ens
Ġan swered
ĠPr ime
Ġsil icon
ĠTor ah
l ings
ol ly
ĠS ite
Ġpo ems
ĠAl abama
eg u
Ġlo ans
Ġpollut ants
6 00
Ġp anc
Ġre n
us hed
Ġse iz
Ġsk illed
Ġ9 9
ĠThe rapy
Ġab road
ĠBe havior
b et
Ġgen us
Ġposs ession
Ġbott les
ĠDie go
Ġappet ite
ĠM ission
ĠL ower
Ġsim ulation
Ġcook ed
ograp her
Ġb ay
as a
ra ge
ĠUn it
Ġeduc ate
Ġgu ides
Ġrac ism
l ink
as se
ĠB ru
Ġwealth y
Ġan ch
Ġpass ive
Ġcr ash
ĠArch ives
Ġthr ive
Ġlun ar
B el
Ġprof its
Ġ197 5
Ġden ied
Ġrelie ve
ĠD om
Ġshould er
Ġcheck ed
s ized
20 16
Ġnob le
p ers
es see
Ġm akers
ĠK ong
! )
a ft
ĠF ive
em an
ĠSh akespeare
Ġinvest ors
ĠDou gl
Ġalumin um
C opyright
i ro
ĠS earch
reat ing
Ġpers pectives
Ġfil ters
Ġprop os
Ġcoord ination
Ġgalax ies
ar ium
Ġst rand
Ġcon vention
Ġint ensive
Ġsk et
Ġcompass ion
st ration
Ġg ang
ab etic
Ġch im
Ġdec ent
200 2
Ġstress ed
il er
Ġdam aging
Ġthr one
Ġprotocol s
u ct
Ġc od
or ie
Ġm urd
ro ck
ĠP ow
Ġmount ed
Ġtub es
ĠLar ge
ĠF OR
Ġar bit
Ġcomm od
Ġpres chool
Ġwar mer
y t
ĠTh ursday
Ġfe e
Ġ198 2
Ġinflamm atory
abil itation
G S
Ġn urse
ĠJ ane
Ġgra ve
Ġdisp ute
F T
P D
ĠN ame
Ġconsider ably
Ġrelig ions
Ġcheck ing
Ġextra ction
ĠMill er
ĠFred er
( )
s chool
t wo
w ill
Ġinc idents
Ġob sc
Ġpur ple
ĠUS B
ĠEduc ational
Ġinstitution al
Ñ ģ
ĠF all
Ġag enda
Ġint u
ph ones
Ġrad i
Ġdepart ments
ĠExec utive
ĠR ub
Ġtra ged
Ġover t
Ġbelong ing
N ext
d am
ors hip
Ġ5 6
Ġher bs
Ġapplic able
Ġhar ass
ĠDef ense
onom ous
ge bra
ĠL u
Ġlim iting
w orm
ĠT uesday
Ġy ields
end ers
ĠK im
Ġsurv iving
Ġdiagn ose
ĠÂ °
Ġfresh water
ĠDec laration
Ġvolcan ic
Ġpharm ac
p en
in ates
Ġc in
om ical
ĠT ax
em et
Ġad mit
amm ad
ĠArch itect
ĠSpec ies
ĠIndust rial
o en
id ge
Ġan ten
ĠF ig
Th ose
ug ar
Ġdeterm ines
Ġpreval ent
O ct
h our
ĠS A
el and
ĠD omin
ĠF lu
ĠJ upiter
Ġme ets
ĠCon c
osp here
Ġch a
ard ing
Ġfl ed
Ġread s
ĠRo osevelt
ĠAcc ount
T ake
g ram
Ġst uck
ĠP ear
ĠR A
ang ers
app y
Ġste ep
Ġtit les
Ġvot ers
W orld
s un
ic ul
Ġg aining
Ġwh ilst
Ġcollabor ative
Ġpul led
Ġprolong ed
ord an
Ġdec omp
Ġca ffe
Ġdesign ers
Ġprom oted
Ġmembers hip
s l
Ġt ape
il ty
ak h
Ġ5 1
Ġext ends
ik es
Ġfar mer
Ġw ra
Ġv iable
M D
ĠR and
Ġsec ular
200 1
ĠÂ ·
Ġconvers ations
Ġsubstit ute
F l
T O
is hers
ĠR og
Ġle ct
Ġfe as
ps y
port s
Ġign or
ĠIndones ia
Ġf oster
Ġend eav
let ter
Ġpack aging
Ġinterpre ted
p y
th a
ĠL iving
Ġph ases
vious ly
Ġbreak fast
â Ħ
ĠS el
ir s
Ġeconom ies
Ġ197 3
Ġver se
wh ite
ĠApp le
ĠST EM
Ġrecept ors
E urope
M on
w hen
et on
ut y
ak i
Ġ5 2
ier ra
Ġaqu atic
Ġstake holders
Ġb ats
igh ters
Ġch ip
Ġad ul
Ġoper ator
Ġrot ation
h is
h ot
ES S
P V
Ġspec imens
Ġmon itored
Ġmain stream
ĠEn c
Ġheart s
Ġdiv or
Ġcorpor ations
ĠDen mark
Ġto ile
ĠT ok
im als
act ivity
Ġpass engers
Ġastron aut
ĠHistor ic
b acks
ĠC ass
art icles
Ġsp elling
Ġj ew
ĠCl ark
Ġharm ony
Ġrespond ed
Ġpra ise
ĠCorpor ation
ĠB apt
Ġch ains
ĠN at
ĠN ort
ail ing
Ġem ission
Ġcomb ust
ĠMar g
Ġhistor ically
Ġcryst al
Ġshop ping
C urrent
M ake
P res
ĠS a
ĠP H
Ġapp le
Ġmean ings
Ġexplicit ly
P at
il ib
ĠM es
ine a
Ġdescript ions
Ġab d
Ġrec overed
Ġsing ing
Ġstat ue
Ġprec ious
s or
Ġb om
Ġpot atoes
ote chnology
Ġdocument ation
Ġep it
ĠGra de
k o
on ics
ĠB an
less ly
Ġhead ed
Ġattempt ing
ĠTrans port
Ġmeth ane
c at
p ost
oth y
Ġvo ices
Ġgraph ic
Ġpu pp
ĠBro ok
Ġg el
ĠP R
Ġreg ulated
Ġent ity
Ġinit iated
Ġs ore
Ġb ars
ĠM aking
Ġexam ining
Ġelect rom
ĠQ uality
Ġ197 2
Ġfail s
Ġsubstant ially
Ġcardi ac
Ġunn ecessary
ĠTenn essee
r ative
ĠP ay
ĠB ol
Ġrep ublic
Ġbo ats
iot ics
Ġmanufact ured
Ġceremon y
Ġr ic
ruct ive
Ġsl ope
Ġprom ised
Ġnorm s
ĠAp ollo
ethe less
ot yp
ĠS ex
Ġper sec
Ġinflu enza
ic ides
og ene
Ġprogram mes
ĠZ e
Ġcost ly
ĠBas ic
ĠPers ian
Ġrefrig er
l ob
ĠC ut
ĠM i
ĠN i
eng u
Ġneighb ors
emet ery
er ness
Ġs orts
he ld
Ġb ands
ass es
Ġout doors
Ġrel ates
Ġbas ics
Ġhead aches
Ġindic ator
Ġin k
oc hemical
Ġdis asters
Ġequ ity
Ġgu ided
az a
ĠPortug uese
Ġsug ars
m outh
im ony
ĠSt one
augh ters
Ġquant itative
Ġkid neys
war f
Ġtransp arent
g iving
Ġl ig
ĠP rize
op t
os ity
Ġint ens
Ġingred ient
Ġdevast ating
p ur
Ch ar
Ġmotiv ated
Ġdescend ants
w he
or ious
Ġhe ated
Ġover weight
Ġ5 3
Ġtem pt
Ġpath way
ĠTreat y
Ġglob ally
O b
in stein
Ġc el
Ġb es
Ġth ou
av irus
Ġinter vals
Ġimm ense
Ġbas in
rict ion
Ġarchitect ural
ĠCre ate
am ily
ĠR ose
Ġed ited
ĠWh it
Ġdam ages
Ġcampaign s
Ġcrow d
H ar
al in
Ġas bestos
ause a
Ġpublic ly
Ġconstit ute
Ġwet lands
G od
in ator
ĠR od
we et
Ġwell s
ef its
Ġproject ed
Ġens ures
Ġtelesc ope
es ar
Ġd ual
Ġh orn
Ġbet a
Ġann ounce
Ġspeak s
ĠMil itary
Ġnurs es
Sec ond
ĠWed nesday
Ġ @
in ced
an as
ur red
Ġra ces
ather ine
Ġgovern ance
Ġmach inery
Ġdraw ings
Ġteach ings
ĠCult ural
Ġb old
ĠM aterials
Ġprov inces
Ġfound ing
Ġcompar able
Ġ ions
Ġis ot
ĠT en
ĠR aj
Ġfound ations
Ġsoc ially
Ġcirc uits
Ġ197 6
Ġcross ed
gra duate
Ġuncertain ty
inflamm atory
J une
re strial
ĠL ady
app ropriate
Eng lish
Ġcertific ate
Ä «
in us
Ġc er
Ġpro claim
ĠIn iti
ĠDep ression
Ġneigh bour
ĠAff airs
B ased
ras ound
Ġarchae ological
ra de
pl us
ĠInd ex
Ġmov ies
D is
ang ular
Ġrespect ive
ĠIndian a
Ġt ear
Ġbe ef
ur b
ist ence
M C
Ġb ases
Ġperson ally
Ġsmall est
Ġ7 2
Ġshort ly
Ġaccum ulation
Ġom ega
F L
Ġst iff
op ath
Ġch amp
un cture
Ġper ipher
Ġar sen
ĠAr thur
ĠCar bon
Ġdark ness
Ġpresident ial
Ġantioxid ants
Ġaest hetic
Ġp itch
Ġcor ruption
Ġ196 8
osy nt
Ġfulf ill
ur rection
ĠM ental
Ġat om
Ġsp here
Ġbut t
Ġexp ense
Ġequ ations
Ġ197 8
Ġinterview s
Hist ory
ic iency
rou ps
Ġseem ingly
Ġcy cl
Ġsymb olic
Ġnegot iations
ĠAst ron
Ġsched uled
h ave
z an
ĠI C
ĠP resent
ĠE le
Ġimp osed
Ġrock et
ĠU C
Ġres ident
Ġpract iced
Ġvirt ue
ĠProt ocol
Ġelig ible
h u
w all
is er
ou b
Ġso ap
ĠSt aff
erv es
In ter
ĠAl bert
Ġabs ent
Ġbelong s
Ġclust ers
O rig
se ud
Ġoff spring
Ġ196 7
y ers
Ġc her
ad ic
ĠD u
ĠL ic
ĠL ove
Ġcomp act
Ġ5 4
ven ue
c ription
g ood
it ance
ĠH ell
Ġv apor
ont o
ĠPer iod
c r
ĠT ri
ĠS O
Ġj et
Ġsy ll
Ġret ire
Ġupd ates
Ġreform s
Ġsacr ific
f our
ĠC ru
Ġde als
Ġcomb inations
Ġfest ival
Ġc erv
Ġf art
im b
Ġst ack
op ing
Ġde ple
Ġqu ad
Ġcount s
Ġdef ining
Ġent ities
Ġmen u
Ġmiss ed
Ġconstra ints
v ance
Ġf ool
ĠP ap
ĠO pt
Ġdis hes
Ġco ating
Ġlater al
AR T
Ġconsist ed
ĠDem ocr
ĠBen jamin
Ġtremend ous
f at
f ive
Ġin quiry
ĠInd ependence
Ġpress ures
n ut
ĠT B
Ġfre ed
Ġpeace ful
Ġpal m
ĠMathemat ics
e u
iff erent
Ġaff il
ĠMon itor
ĠKnow ledge
Ġfor ty
Ġwh ale
Ġrepl acing
Ġtalk ed
Ġdecre asing
Ġsatell ites
ĠFrank lin
Ġattach ment
D ec
F eb
Ġb ore
ch ild
ĠM it
Ġdo zen
ĠIsrael i
Ġcontract s
TM L
ropol itan
A v
Ġmethod ology
ĠGen esis
Ġmagn esium
im eter
ur ally
ĠA ges
In c
Ġindu ced
Ġcust oms
Ġpow ered
Ġrob ots
ĠW atch
ĠD ick
ĠCount ry
T HE
Ġd irt
ur as
ĠPat ients
Ġeffic acy
Ġmel an
Ġwaters hed
M E
Ġt ale
Ġint act
ĠLaw rence
Ġb inary
Ġst atic
ĠC opyright
um ing
Ġsc al
Ġann iversary
plic it
Ġhost s
Ġelimin ated
Ġclos est
ĠAuthor ity
ĠAfghan istan
âĦ ¢
t est
u ly
ro ach
Ġl ighter
ĠC ra
Ġar teries
for ward
r ish
Ġpro state
Ġres idence
Ġimport ed
ĠMon th
D id
m us
ot ional
Ġconv inced
ĠC ook
ĠB ah
ew ater
Ġsome how
Ġcar rier
Ġsw ord
k al
Ù Ĩ
Ġg land
qu in
ĠO R
Ġcomp ress
Ġfl ies
Ġ198 1
Ġ197 4
Ġ197 7
Ġstay ing
Ġdisp osal
Ġfather s
ĠCommun ication
uls es
Ġpat ch
Ġwound ed
W ork
Ġp oultry
ĠI b
ĠB ody
ĠR u
Ġmult ipl
ĠCont act
Ġsc attered
Ġind ication
Ġinter rupt
ĠPark inson
Ġperm its
Ġasp ir
T E
Ġw ed
al o
ĠJ oh
ru p
Ġun com
Ġworld s
Ġdep icted
isc al
Ġautom ated
Ġcaffe ine
ĠS D
Ġman kind
Ġun ions
lic t
Ġread ings
Ġspecial ists
Ġcontrovers y
ĠEffect s
Ġnum b
Ġaut umn
Ġcur ious
Ġsym met
Ġrad ar
Ġautom atic
Ġbe er
Ġr ou
ros ion
Ġsl ide
ĠObs erv
B L
E m
ol is
Ġ1 30
oc ene
pt on
ĠO m
we alth
Ġacc used
oles cent
Ġk in
ĠV ers
Ġca ution
Ġver bal
Ġt ies
ac re
ĠF isher
ĠN ich
Ġche aper
Ġbas ket
last name
ĠCreat ive
M ic
R L
Ġb in
Ġy oga
ĠTh or
Ġcons p
Ġphys iological
Ġcomprehens ion
Ġs emic
Ġh ind
ol ia
ation ally
ĠP arents
ĠG ro
Ġpart ition
In stit
Th us
Ġdist ress
Ġdiscuss es
Ġmill enn
Ġcalc ulation
Ġflo ating
ĠS aturday
Ġde emed
ĠE dition
Ġ196 4
ĠHawai i
Ġpractition ers
Ġloc ate
ex ts
arc hed
Ġhead ache
ER S
Ġsold ier
ipl inary
Ġrecy cled
indu ced
G A
Ġd rew
ĠC ertain
ast ing
Ġfe at
Ġfe es
io let
Ġagree ments
ĠGold en
P P
T C
v ar
Ġ q
ri ends
Ġab dominal
Ġprom otion
Ġbul bs
Ġmag ic
ĠMark et
ĠMal ays
C ent
Ġb iblical
ot hel
ĠB ob
Ġwor ried
ĠK u
Ġadv ised
Ġbreat he
re ts
os ures
Ġdes irable
Ġtw entieth
Ġrequ ests
ann el
Ġvolunt eer
Ġimpl ant
Ġbrill iant
z ens
Ġt ender
ar ms
Ġd ated
Ġex em
Ġcomm emor
ĠAr gent
Ġmob il
Ġdat as
Ġexplan ations
k m
o ard
Ġd ign
ig ion
Ġan ts
ĠD at
ĠF acts
ĠG ames
iz ational
Ġob ese
Ġcomb ining
ĠMar x
Ġforg otten
M L
ĠM IT
ĠP ediatric
ĠB oy
Ġsp ite
ĠK it
Ġpo le
Ġnetwork ing
Ġo ak
Ġexpl os
Ġenvironment ally
Ġter rible
Ġconsider ations
Ġpig s
ĠNob el
Ġsatisfact ion
V I
ĠB ad
ĠH un
Ġat e
Ġmod est
Ġslow er
Ġapprec iation
Ġenthus i
N et
ag ine
aw ay
Ġart ic
ĠCons erv
Ġdecl ar
Ġpen cil
ĠElect ric
ĠMem orial
ĠLouis iana
Ġrow s
Ġartif acts
ĠNap ole
F ood
h as
id el
Ġra ises
Ġge ometry
Ġsn ake
ĠPolit ical
forest ation
Ġresil ience
f lu
p he
Ġe ternal
Ġn ode
ĠT al
ĠA le
ul ative
op athy
ĠF at
Ġwere n
Ġ19 18
Ġbill ions
Su pp
ĠAdv anced
g rad
ĠT ai
ol utions
ĠD or
ĠV ill
Ġobserv ing
Ġ194 1
Ġunc ons
Ġassign ments
ĠSer ies
Ġbrief ly
Ġlabel ed
Ear ly
w ind
Ġcon form
ke ley
ĠV I
Ġland f
Ġfoot print
ĠPop ulation
Ġwh ites
Ġpoint ing
Ġchalleng ed
Ġrail road
D ata
ĠB ot
ĠB all
Ġpl aque
Ġcl osing
Ġ7 00
Ġintrodu cing
Ġcompet e
ĠRel ations
Ġwin ning
Ġrail way
Ġsurviv ors
v o
Ġth rown
th ird
ĠW y
hem atic
Ġ197 1
Ġ196 5
Ġcast le
ĠCast le
itzer land
Ġhepat itis
Ġbuild s
Ġm elt
ĠS outheast
Ġha ck
Ġge ography
ze ch
Ġenter prise
organ isms
Ġgast ro
ow ed
ir ie
ib ration
ap ore
Ġ19 14
Ġemer gence
ĠPart icip
Ġpoison ing
ĠH ans
ĠW rite
ced ented
Ġtrans actions
Ġpar ish
Ġstruct ured
Ġsimilar ities
Ġut er
Ġstrength s
ĠTer rit
Ġdigest ion
it ives
ĠI owa
ĠV erm
Ġtr ies
Ġact ors
Ġactiv ists
Ġmar gin
Ġstri p
Ġstay ed
Ġtit led
________ ________
Am ong
C or
Ġgl ory
ĠIm perial
Ġjud ges
Ġtrig gers
ĠCap ital
ĠUt ah
ĠPhilipp ines
ĠB road
Ġsub strate
Ġinter val
Ġfoot ball
Ġstri kes
Ġdyn asty
Ġmosquit oes
Ġp ix
Ġh ip
Ġr um
Ġr ating
Ġrel iability
Ġec ology
ĠStan ford
on duct
Ġg er
ĠCol lection
ĠAll en
Ġpurch asing
Ġdial ect
Sc ience
ĠOtt oman
Ġprecip itation
Ġrememb ered
M us
p erson
t ically
â Ĥ¬
Ġg ross
ĠM uh
ĠP ast
Ġwe eds
ag us
Ġtravel s
Ġmit ochond
kl ah
Ġm ines
Ġexpl osion
Ġless er
Ġbel t
ash ing
ĠGree ks
ĠCommun ist
Ġlegit imate
M at
P ublic
g roup
ĠL G
Ġte ch
Ġoff set
Ġent ers
Ġneu rological
S ign
is l
ar se
Ġg lands
Ġ1 10
Ġatt ending
Ġcert ification
ĠKen ya
Ġp od
Ġb apt
ad i
Ġnot ably
ĠSh ow
Ġrul er
Ġinsp ection
Ġpet roleum
D isc
re ach
ed ed
ing ham
Ġl iability
ĠRe qu
Ġmen stru
Ġsens ation
Ġrev ised
Ġvolunt ary
Ġintermedi ate
m ill
ĠG ospel
Ġcontin ually
ffic iency
Ġwar rant
Ġexclus ive
m other
Ġre vel
ĠH art
Ġr anks
Ġdis in
Ġinf inite
Ġdes per
Ġmod ify
Ġmod ules
sc ill
ĠUS DA
Ġtherap ist
ĠVir t
Ġperce ive
Ġdiscipl ines
Ġpus hing
Ġjurisd iction
O U
Ġd ictionary
il ton
ĠO d
ber cul
Ġup set
Ġvari ability
Ġang les
Ġfear s
Ġunp re
as is
Ġch ips
Ġse as
Ġsh ifts
Ġint rig
ok es
ĠV ien
ien cies
Ġcoll aps
Ġadvoc ates
k ay
m atic
it ches
ul se
ater n
Ġatt raction
ĠTe acher
Ġcru el
ĠVis ual
Ġobst acles
Ġto dd
Ġle ts
all ing
ens ing
Ġflu ctu
Ġillust rations
Ġradio active
Ġnav al
ena issance
Ġdys function
Ġtra ins
Ġlong est
Ġtri ps
osc ow
F P
en ergy
ĠC ert
ĠG ame
Ġpl ug
Ġchem otherapy
Ġanaly zing
Ġinput s
Ġinterf erence
ĠVen us
ou ch
st an
Ġg ay
ĠB esides
ĠR out
ĠAr ist
Ġconcent rate
Ġalt ogether
Ġlegisl ative
Ġinform al
Ġgu ilty
ĠHealth y
Ġge ographical
Ġwalk ed
Ġd ia
Ġal b
Ġmod es
Ġdatab ases
S ometimes
v ised
he nd
ad ows
ĠH ind
ĠO w
ĠK ings
sw er
Ġsepar ately
Ġfrag ments
ĠPub lishing
A ct
D C
Ġm ant
ĠT itan
Ġcont exts
Ġev olve
Ġoper ates
ĠPl ants
Ġsure ly
Ġundert aken
ilib rium
u ate
am ents
Ġcol ours
Ġco ins
Ġcar cin
Ġsaf egu
Ġfoss ils
Ġastron omers
Ġtut orial
p res
Ġh ate
ĠSc i
Ġrele ases
ĠÂ »
Ġadvoc ate
Ġtun nel
ĠP ra
ers hip
ĠSt ock
Ġqu een
Ġstr ings
Ġpredict ions
Ġnav igation
Ġbow l
t r
im ity
ra ined
ĠM aine
un ct
pl ane
Ġass ass
ĠAl f
Ġret ained
Ġworks hops
Ġuncle ar
ĠHispan ic
B et
u ana
ĠS ri
ĠP ersonal
Ġdis par
sel s
Ġext inct
ĠAl cohol
Ġcrit ics
Ġ194 2
Ġmicro bi
Ġdemon stration
Ġbit ter
Ġveter in
ect or
Ġrec ru
Ġcomple ting
Ġident ifies
Ġleg ally
Ġill um
amm a
Ġalt itude
Ġwat ched
v ity
Ġc ups
ĠM un
ĠP ict
Ġext ending
sec ond
Ġacqu isition
Ġcoord inate
Ġpron ounced
Ð¾ Ð
ĠN ig
vers ion
Ġfunction ality
Ġsimilar ly
Ġaff irm
Ġden y
Ġpharm aceutical
Ġcompris ed
klah oma
c ount
t an
om ething
ĠS yn
ĠB ishop
Ġse ats
AN D
ĠMc G
Ġelev ation
Bl ack
= =
m ates
ĠC omb
ĠG il
ĠL ie
iet al
light en
Im age
ĠLiter ature
S ocial
ĠT u
res istant
ĠH ad
Ġle an
ĠSat urn
eren n
P ar
ĠE s
ĠR a
Ġsec ured
ĠSp e
Ġrein force
Ġrecept or
Ġextens ively
M arch
ul ent
ĠF ile
ĠAr k
Ġreal m
Ġ194 8
Ġinterf ere
S C
Ġto ll
ĠP a
Ġse af
ĠJ ordan
Ġpe as
let al
Ġfund ament
Ġblock ed
ĠSw itzerland
Ġcann ab
S ym
Ġw ires
ion ed
Ġv oy
Ġad min
Ġregist ration
Ġarrange ments
Ġunpre cedented
ĠM u
Ġhypert ension
f ol
Ġin ability
Ġpro be
um a
Ġneed le
Ġref ined
ĠPro ceed
Ġ6 6
Ġpresent ing
Ġlo ads
ut ers
ĠB BC
ry ption
Ġimpact ed
ero ids
ĠNor way
Ġearthqu akes
Ġaccommod ate
D T
Ġs ake
ur u
ul iar
th an
ĠE val
Ġlit ter
Ġcare ers
Ġrest ing
Ġbow el
Ġinadequ ate
Ġuncons cious
b ird
v as
iz oph
ĠY outh
mar ks
d irect
on ge
ig s
ĠC e
ad ays
ĠR oss
uc ks
Ġret reat
Ġgas oline
Ġstret ching
ĠProp het
Ġappl iances
am ous
Ġpl ural
Ġar tery
ĠUs ually
Ġconstit u
Ġsu ited
ĠK y
Ġtrans cript
Ġhighlight ed
ĠProtest ant
ĠLt d
m ind
Ġl uck
ĠT s
op or
ĠD ak
Ġr ival
Ġrec ur
Ġrel ies
Ġ5 8
Ġnegative ly
Ġdepend ence
Ġsan ct
Ġdeploy ed
ĠKent ucky
S everal
ĠS ustainable
Ġwas t
ĠU pper
Ġtra pped
Ġmon aster
up uncture
Ġpract icing
ĠTe le
ĠArch ae
Se pt
Ġfung i
Ġoccas ions
orient ed
ĠIniti ative
Y et
ĠS ant
ĠV eter
ert o
tt es
Ġinvestig ations
Ġtrib al
izoph ren
ĠE M
Ġim bal
Ġed iting
ĠAl ways
Ġdel ight
Ġconcept ual
Ġgrass es
Ø ±
Ġc ous
Ġas set
th y
oc occ
Ġdis se
Ġut ter
Ġdisapp eared
Ġpure ly
Ġpries ts
ĠIntellig ence
H er
L O
m l
ĠA ward
ĠG i
ru bs
Ġmin istry
Ġgr at
Ch apter
Ġjo ining
Ġlingu istic
D i
k h
Ġinf l
Ġinv isible
Ġphot ography
Ġmyth s
Ġol ive
ĠPhilos ophy
F ollowing
is a
ĠM agn
est inal
ri ans
ne e
Ġload ed
Ġsettle ments
Ġshell s
w id
Ġd well
ad ian
ĠP it
ĠCol lect
Ġbus h
Ġsynt hes
ĠRef erence
unc iation
ol ith
ĠS ong
un es
Ġsh o
Ġinf rared
int erest
Ġform ally
mon ary
ĠBi ological
b led
in ence
Ġ19 17
ĠBe ach
Ġtru ck
Ġscar ce
Ġentertain ment
Ġs ink
Ġf usion
Ġv ocal
Ġr het
Ġplace ment
Ġbas eline
ĠPh arm
ĠIm age
Ġachieve ments
d ec
Ġa ids
Ġl enses
Ġal leg
ac cess
Ġcount ing
imm une
ar b
ar an
Ġl ux
ĠW as
Ġse gments
Ġun healthy
g ic
od ge
ult ural
ound ing
Ġassess ing
P M
Ġb icy
Ġm ast
ĠR ain
Ġqu ot
Ġqu oted
Ġmon etary
Ġlack ing
Ġbank ing
rosc ience
Ġdiss olved
Ġpul se
Ġbiom ass
oca ust
Ġdow nt
e ur
ĠR os
Ġbl ame
Ġind ivid
ier ce
Ġbeh ave
Ġ193 9
Ġdelay ed
Ġinsu fficient
ĠE N
ĠV iol
Ġind o
Ġins ulation
ĠDe b
arc hes
Ġcrit ically
Ġsat urated
Ġpan ic
Ġtoxic ity
K ey
Ġtra p
Ġcurrent s
ĠTr ump
AT E
Ġdraw s
Ġcra fts
Ġp iano
Ġb ridges
th reat
ĠR enaissance
iff s
ĠAb original
Ġ194 4
ĠPlan ning
Ġreb ell
Ġmel ting
ĠAccess ed
o z
t ics
ĠP erson
form ing
Ġmark er
Ġwar ned
Ġcreat ure
Ġdest ructive
pro of
Ġ196 3
Ġtransport ed
Ġunc omm
Ġhop ed
Ġconsult ation
Ġinstruction al
Ġneighborhood s
S E
ĠN eb
Ġpl astics
ĠSc he
ĠIm m
Ġthreat ening
Ġanx ious
Ġlandsc apes
Ġhoriz on
ĠConfed erate
D es
ĠP il
ĠE C
ĠE aster
ĠTe am
Ġcitizens hip
Ġban ned
ocy tes
K now
S ch
r ator
er k
Ġf ired
ic ism
ot ive
ĠM oscow
ĠR ap
Ġel ite
sy stem
ĠAll iance
Ġconcept ion
Ġmix ing
rox imately
) )
Ġd ot
ant e
Ġtr illion
Ġexam s
Ġret ention
Ad d
Ġprem ature
ĠAgricult ural
U p
b ound
et ry
ĠW inter
Ġinter con
Wh ich
ĠReg ional
Ġstim ulation
ĠQue bec
Ġstrict ly
ol en
ĠC ro
ĠB ed
ĠF ox
Ġen erg
Ġped est
M M
b uilding
Ġd ump
Ġn ausea
ch i
est eem
ĠN an
ous ing
ĠUn iverse
Ġplan es
Ġpet ition
ĠKh an
P E
× Ļ
ĠC redit
Ġex ert
lud e
Ġ18 80
Ġstr at
F e
V A
h ol
or ical
ĠL ORD
ĠV ery
Ġconf ined
Ġpress ing
ĠSim on
Ġtraged y
A ust
h ome
p ath
Ġo ct
we ed
we ek
Ġnew born
Ġtrans it
Ġ6 3
ĠCom mer
ĠSum mer
Ġepis odes
ĠStr ateg
A f
Ġout standing
Ġval ued
ĠDe ep
âĢ¦ .
cont rol
Ġemphas ize
Ġflood s
Ġexplo itation
Ġtempor al
Ġd aughters
Ġsu cc
Ġen roll
Ġlast ed
Ġmaint ains
Ġsn akes
Ġextract ed
Ġpref erence
l ades
Ġs or
ĠW right
ĠN uclear
red ict
ĠO klahoma
Ġdisc iples
Ġcent res
ĠRes ource
ĠCo al
Ġinteg rate
Ġtable ts
Ġcert ified
H T
f und
ĠT rib
ast ed
ven ile
pro cess
Ġf its
ĠT ogether
ĠV o
Ġdec k
ĠHar ry
Ġrab b
Ġshoot ing
Ġtack le
Ġpec uliar
T ube
re a
ĠB urn
Ġinter ven
com a
Ġevalu ating
Ġkn ock
ĠMag azine
Ġantioxid ant
Ġt ears
ĠP ent
ĠL akes
Ġfirst name
ĠDis order
TS D
ĠImp act
ph a
te in
eth yl
Ġatt ribute
ik h
Ġbreak down
Ġtrig gered
Ġsufficient ly
Ġlik es
ĠPalest ine
T ime
ĠB ron
Ġcons olid
Ġsystem ic
Ġselect ing
Ġcomprom ise
Ġs ends
Ġb on
ar on
ĠG P
Ġunder m
Ġ5 9
Ġpat ches
Ġpass ages
ĠMay be
Ġchart s
Ġfeather s
ĠT our
am bers
ĠD al
Ġr ust
Ġdo zens
hes s
ĠAr men
ccess ful
ĠDise ases
Lear ning
ĠProceed ings
d ated
Ġb od
av y
ĠK al
Ġpre jud
ĠY e
Ġkey board
ĠSy ndrome
Ġcryst als
D own
R ed
Ġth umb
ĠA y
ĠC hemistry
ĠF em
Ġj un
Ġsc rew
Ġcar p
Ġdiv isions
Ġplanet ary
Ġworth y
Ġles ions
Ġspir its
A pril
Ġp orts
Ġret rie
Ġwar fare
ĠLe v
Ġrecogn ised
Ġbr ut
nov ation
Ġdram a
Ġinev itable
ĠMean while
Ġw ounds
Ġl ining
Ġinv al
ĠRad io
opor osis
G reen
Ġc ows
Ġ19 10
ĠK l
ĠHow ard
Ġland ed
Ġinsp ire
Un fortunately
ĠBas in
Comm on
j an
Ġd edu
Ġl iber
ĠC zech
ĠG as
ĠL oc
Ġcar ing
lu x
ĠSe lect
Ph oto
Ġpref erences
Ġm ad
Ġben ch
Ġgard ening
Ġsusp ended
ĠSing apore
Ġsatisf ied
Ġmunicip al
G ood
s ens
Ġt ire
ĠH al
ĠD ra
Ġcar go
pro t
ias is
Ġmuseum s
Ġt ie
ut o
ĠA ra
Ġst ir
Ġexpl ores
Ġeconom ically
m ans
t w
st able
ig o
ĠC C
ĠB egin
Ġimp aired
ĠCon n
fort able
Ġfung us
ĠS now
Ġwas hed
Ġinc ons
oth s
Ġactiv ated
Ġgod dess
Ġoutl ined
Ù İ
ar ity
ĠS E
ĠTh ings
ĠAn aly
Ġlight ning
St art
ĠAnt i
roph y
f u
p it
Ġst ain
ĠL anc
Ġ6 2
ĠBer keley
Ġul cers
H el
an ic
ĠN ut
cer pt
ĠNew ton
Ġholid ays
Ġprosper ity
ill es
te ch
Ġfl ame
ĠPro b
ĠBl ock
elt a
Ġroll ing
ĠColumb us
ĠAnn ual
J uly
Ġe cl
im ination
Ġsc reens
Ġco in
acter ia
Ġneg lect
ĠDep ending
Ġstop ping
ĠPer u
Ġacknowled ged
S P
art z
Ġdes cent
Ġprov incial
Ġsupp ress
Ġexam ines
Ġpub lishing
cer y
Ġstandard ized
Ġnav igate
M in
p in
St ate
H C
od d
Ġv ascular
ud son
Ġjour nals
Ġconsid ers
ĠS ierra
Ġdis abled
Ġmed ian
Ġbirth day
Ġsil ent
199 8
ij uana
Ġgall ons
n est
Ġh ub
op ter
Ġsp ont
Ġfl ags
Ġgener ates
ret ion
Ġpack ed
Ġdemand ed
Ġformer ly
Ġparam eter
b en
p us
ĠTh om
ep s
Ġhand ful
ene z
Ġtri angle
Ġinnov ations
Ġgraph ics
ĠVien na
ĠE at
ell ar
any on
Ġ9 7
Ġcos mic
bercul osis
Ġm ul
Ġat he
Ġr ash
og ical
ĠMe chan
Ġinvestig ating
Ġelimin ating
ra ce
Ġhom eless
Ġtour ist
Ġabd omen
Ġindivid ually
Ġt ric
re hend
it ar
Ġb ike
op en
Ġgener ator
ody nam
ogen esis
ĠPlan et
Ġoutbre aks
D oes
S ur
Ġd warf
Ġst ro
Ġor th
ry st
Ġ19 12
Ġac re
Ġafter wards
Ġsubject ed
ĠNe v
Ġjud icial
Ġmis con
Ġund ers
Ġpil grim
izophren ia
l ad
Ġst ew
Ġ20 30
ĠFin ancial
spec ies
Ġritual s
Ġw ishes
Ġre pt
am bo
Ġcon sec
ĠL uke
Ġemploy er
ĠAm b
Ġm aternal
op oly
Ġra m
Ġ6 7
ĠZ h
Ġsex ually
Ġvari ants
Ġrecon struct
Ġexclud ed
Ġt et
Ġint im
Ġanim ation
Ġcy t
plic ity
Ġfram es
Ġmicrob ial
Ġcav ity
Ġincent ives
Ġempir ical
Aug ust
Ġelectrom agnetic
ĠMuh ammad
Ã ¦
at is
or rh
ĠS i
ĠB ird
Ġtour ists
ĠPrim ary
Ġb ureau
ĠC ON
Ġdr illing
Ġbur ial
Ġembra ce
Ġcombust ion
z i
er ce
Ġc oding
ĠW at
ĠD ate
ĠCh air
ov a
gg er
ĠSh ah
Ġflu x
Ġhung ry
P oint
ress ions
Ġsupp orters
ĠCol omb
ĠOr thodox
Ġpositive ly
Ġconnect s
Ġneu rot
Ġharvest ing
Ġphosph orus
Ġschem es
ĠByzant ine
Ġpropos als
on ut
ĠT a
ĠT erm
ur ban
Ġy og
Ġcon ve
Ġwe ed
Ġdisc ount
Ġast er
ĠPat rick
ĠSwed ish
Ġcort ex
Ġrestaur ants
% ),
h ouses
Î ¹
ĠH ou
ĠN ile
Ġwhere ver
Ġevery body
Ġillust rates
ĠOlymp ic
ĠMarsh all
I H
t em
ĠB uild
ac erb
oc ide
Ġad hes
mon th
Che ck
ĠSoft ware
+ +
i pt
Ġt ags
Ġm a
Ġgra b
Ġrequ ested
Ġinstruct or
Ġpip eline
Ġuncomm on
ĠC ab
Ġhe d
ĠR ac
ĠG ive
au nt
Ġfail ing
Ġsuper vision
Ġsix th
Ġcru c
Ġcryst all
. (
M ean
S O
k rit
w riting
re ck
ĠG E
Ġcl ot
Ġup ward
Ġwork force
ys ics
Ġfol ks
Ġadjust ed
Ġinsert ed
Ġfluor ide
l ie
v ia
Ġg ently
ĠH TML
ĠL es
Ġcomp iled
Ġpe at
ĠCh ron
Ġlear ner
Ġstreng thening
199 6
ĠTra vel
Ġtrou bles
Ġtraum atic
ĠCa esar
V is
ĠE mb
Ġres olved
ĠV ideo
Ġdep ressed
Ġret ired
Ġpot ent
Ġter rain
Ġsurround ings
Un iversity
Ġnan op
ĠMach ine
M r
c ap
ĠD og
Ġab ortion
ard o
Ġtra ces
int estinal
Ġam ph
Ġdr um
ĠPub l
Ġsculpt ure
Ġparad igm
ĠH ug
ĠD er
ĠE ve
Ġcont ra
Ġinf o
Ġprodu cer
Th ree
Ġve ins
ĠGen erally
Ġrecip es
m ir
it ated
ĠS ans
ĠC yp
ad ers
ĠH old
ĠRes ults
Ġprevent ive
ĠPre vent
Ġcultiv ation
Ġadvent ure
lighten ment
R et
s ite
Ġt ent
Ġb esides
ĠH az
Ġhas n
Ġ19 16
Ġtr unk
ĠAnt on
Ġdemand ing
Ġwitness ed
Ġmicrosc ope
ĠCit iz
Ġc ater
Ġd ye
st yle
ch a
ĠC anyon
Ġwor ms
Ġj ack
Ġ6 8
Ġproblem atic
Ġce iling
Ġsurge on
Ġa rom
Ġc ram
get s
ĠAl ong
Ġgr asp
Ġcondition ing
ĠChar acter
Ġbul b
Ġremed ies
aren cy
Ġfart her
est ab
ell o
ef t
Ġ18 90
10 16
Ġcou ples
Ġcou pled
Ġperman ently
Ġod ds
ĠCub a
N on
d ig
Ġg host
ĠF ried
Ġsc ans
ĠFor um
ex pl
ĠSm art
Cl ass
N ET
em at
Ġprot otype
reg n
Ġ196 6
Ġcivil ian
Ġembry os
Ġpy ram
B en
Ġbe aches
Ġst amp
ject ive
arm ing
ĠAn th
acter ial
Ġmat ching
Ġfirm ly
ĠPen insula
M c
Ġs ins
Ġe ager
ĠG PS
ail and
uss ian
Ġder iv
Whe ther
Ġo zone
Ġex acerb
we g
Ġcount less
Ġche cks
Ġappro aching
Ġnation wide
199 9
ĠCom par
Ġspot ted
ĠSk ills
Ġeleph ant
ĠAntar ctic
h ad
l av
le ans
Ġrad ius
bre v
rep resent
Ġcere b
Ġdin osaurs
ĠBang lades
Ġimpair ment
ĠFreder ick
Ġadul thood
ĠNapole on
E v
Ġs its
am ation
Ġcomp ression
Ġoff ensive
Ġrecon struction
Ġrecip e
Sim ilar
ĠBulgar ian
teb rates
ĠHop kins
names e
le ys
Ġpro c
ĠF ollow
ĠL oss
ĠO ak
Ġpre lim
Ġaut onomous
Ġ6 1
ax is
Ġprom ises
Ġdel icate
ĠAg reement
Ġvulner ability
f il
p ack
w ich
Ġ Ï
Ġd olph
Ġor ph
ĠP rior
Ġsp ill
Ġac ne
Ġ10 1
Ġ196 2
Ġincl usive
Ġnest ing
Ġrig id
Ġintest inal
Ġdisag ree
Ġuncom fortable
Ġprelim inary
us ions
Ġ18 0
lement ary
ĠNorth west
Ġweek end
Ġexc ite
ĠPart ners
Ġprior ities
ĠMo ore
ĠSqu are
7 00
p ret
u ated
ĠP RO
Ġv ic
ĠG round
Ġj ar
Ġorgan izing
aut ions
Ġcool er
ĠFl ore
Ġprohib ited
Ġintest ine
Ġelabor ate
s im
Ġd ive
ĠP V
op sy
ĠU ntil
Ġam mon
In f
Ġsub mar
Ġfact ories
Ġactiv ation
eral d
co in
ĠWal ter
c op
d ata
o vers
Ġt ales
an alysis
od us
Ġmet a
Ġdefin itive
ĠEv idence
Ġalt ar
Ġfro st
ĠCurrent ly
Art icle
B o
D ay
Ġc ock
Ġinf erior
Ġbare ly
Ġmyster ious
Ġmetap hor
en c
it ime
Ġbe verages
th irds
ill ery
ĠAl b
Ġprim itive
Ġphilos opher
Ġmand atory
Ġworkshe ets
ĠGuid elines
Ġc ro
ĠE instein
ĠR oc
Ġwhe els
Ġlay out
Ġsal vation
Ġassemb led
d em
ut ter
ĠC os
Ġbu g
ĠPol ice
Ġdepos it
T I
p ub
Ġ 00
im ental
ĠA B
ig nt
ĠB rad
ĠE u
ĠN elson
ob ia
Ġ18 50
Ġhuman itarian
Ġfil ed
cell ular
Ġobt aining
ĠSar ah
Ġbuff er
Ġpenal ty
ĠS ound
ĠC ust
Ġv oted
og rams
com put
enn is
ĠAlex and
dr iven
Ġchromos ome
oler ance
w alk
ot le
ill er
ĠL ank
au x
Ġhigh way
Ġsol ved
ĠCl inton
We b
ĠIm ages
Ġap ost
Ġdispl ace
ĠTor onto
Ġwast ewater
n ational
Ġf ut
Ġh anging
ĠP ack
us er
us ually
Ġmod ification
20 20
20 18
Ġ14 0
Ġfle e
Ġindo ors
E duc
Ġp our
ur ities
Ġsupp l
Ġunt reated
Ġur inary
Ġgar lic
Ġcultiv ated
ĠLG BT
D av
Û Į
ĠR E
Ġcomp elling
Ġcor rupt
ĠAd ams
Ġcr ude
Ġreact or
ĠVictor ian
Ġabol ition
J apan
b irds
ly wood
if iers
Ġbl oom
Ġsim ulations
Ġtest imony
str ong
Ġterm ed
Ġ196 1
Ġtou ching
Ġvent ilation
Ġoccas ional
dep th
H aving
Ġst ocks
ĠP un
Ġam bit
Ġsupport ive
Ġkind ergarten
Ġur gent
Ġclaim ing
EC D
Ġtransl ate
ĠBel ow
uten ant
p a
Ġd amp
ir k
Ġy ards
ul atory
ace ous
Ġform ats
Ġindu ce
ĠEurope ans
Ġcomb ines
anc ies
Ġce ment
199 7
ĠMor ris
" ;
Ġst ating
Ġr ip
Ġ7 4
Ġaccording ly
Ġmechan ics
Ġaltern ate
ĠBC E
ĠCle ar
L ist
Ġm as
Ġl act
Ġn urt
ĠS ic
Ġtrans action
Ġult rasound
ĠQue ens
ĠEmer gency
Ġr iding
Ġbl ade
Ġpub lish
Ġdef ence
Ġillust ration
ĠProgram me
Rem ember
Ġlapt op
n utrition
is an
Ġl augh
ĠS in
pp ers
per ature
Ġdesign er
ĠTr uth
De velop
ignt y
w ick
Å «
re as
ig e
am el
ĠF est
ĠG ord
Ġun ited
ĠSt ress
yp ical
Ġlet ting
Ġblock chain
Ġmoment um
Ġneighbor ing
% ).
t i
â ĪĴ
Ġo scill
ĠS M
ĠD ocument
ĠR io
og lob
Ġresp ected
ĠFram ework
f ood
The ir
Ġqu e
ob b
Ġsm ile
Ġport able
Ġdeliver ing
s ource
Ġ âĢĻ
ar bon
ĠT R
ĠC hen
ad er
Ġan a
ĠH udson
Ġpot ato
ĠOr leans
ij ing
Ġreprodu ce
Ġstraight forward
ĠPortug al
P T
Ġs ul
ĠM as
Ġinc om
Ġpass enger
Ġcompan ion
Ġcompet ing
H uman
L I
e ering
l aim
p op
Ġd ens
ĠT itle
ore st
ard less
Ġ19 19
ond er
Ġtarget ing
bre aking
pris es
ĠExt ension
ĠS ab
Ġan est
iv ia
hes ia
Ġanaly tical
Ġclin ic
lim ited
Ġwithdraw al
ĠBapt ist
Ġf ans
im ore
Ġr ated
Ġlay ing
ES CO
ĠProv ince
Ġperf ection
ĠEthiop ia
it ol
Ġf r
ond itions
Ġunder water
Ġany way
Ġ7 7
Ġsing ular
Ġfail ures
new s
li hood
Ġswit ching
c ost
it ational
Ġhe s
ke eping
Ġequ ilibrium
Ġmet all
ĠEx ercise
min ute
Ġtru cks
Ġpred iction
pro f
Ġrul ers
Ġmicro organisms
Ġantib ody
Ġstrugg les
b ian
Ġp erenn
Ġf right
ĠH ope
pl er
Ġrec ruit
Ġdet er
ĠTe ch
Ġburn s
Ġbelong ed
W omen
p owered
t ec
ĠT ob
Ġal igned
ĠM olecular
ĠB os
Ġrel uct
Ġco h
ins ic
Ġ8 8
Ġlower ing
On ly
ĠTok yo
E X
Ġs ie
em en
ĠW ords
ight ing
ros is
ĠYou Tube
Ġhop ing
Rel ated
Ġoverse as
es y
ce phal
op hers
Ġapp les
Ġtime ly
Ġco operative
Ġpract ically
Ġacid ic
Ġrefuge e
O ut
l og
m ay
p her
á ŀ
Ġreg en
Ġprof iles
Ġappropri ately
Ġcontroll er
Ġsequ encing
Ġsod a
oven ant
Ġsatisf y
Ġcounterpart s
Ġw ool
ĠN urs
Ġen force
Ġtrans ist
ĠIm mun
Ġfriends hip
Ġlegisl ature
Post ed
S um
Ġm ol
ĠI l
ĠB ox
ab ited
ĠU l
end ix
Ġinf est
Ġpe an
Ġsm ok
Ġsum mit
Ġrev ision
Ġdehyd ration
A IDS
ct ica
oc ate
Ġsh ops
ĠJ oint
Ġcl osure
Ġpr inter
Ġprocess or
Ġhand ed
Ġhand led
Ġmor ality
ĠSy d
ĠInstit utes
ĠCour se
ĠHam ilton
Ġparas ites
Ġtomat oes
Ġg ig
Ġas ym
Ġall ies
ĠSp ect
ĠAnd erson
Ġperiod ic
ĠNig eria
h n
Th anks
ĠCon sequently
Ġhead ing
Ġexerc ising
Ġtur tles
Ġexcept ional
Ġbul let
il ia
ĠE sp
Ġbre eds
Ġwood s
Ġclick ing
Ġmist aken
ĠDougl as
Ġexem pl
1 50
he art
il ies
ĠW rit
ĠR on
Ġne arest
Ġcomm erce
other mal
Ġep ic
ĠTechn ical
z es
Ġc ues
ac ity
Ġnot ing
ĠL ive
Ġconf using
Ġpot s
Ġfree zing
Ġ194 7
ĠMin or
Ġexpress ing
ĠProble ms
oub ted
Ġsemic onduct
b oth
m ath
p ose
Ï ģ
ro d
Ġfor cing
ag a
ĠIn v
Ġshould ers
Ġpres erving
Ġcar ved
Ġmem orial
Ġorgan izational
Ġweight s
Ġemphas ized
ĠJud a
Ġtempor arily
Ġnas al
L ife
Ġp umps
om ics
Ġu pt
od ia
ĠP S
ĠB irth
Ġdiff ers
Ġ7 6
Ġoblig ations
ĠBelg ium
spe aking
Europe an
F R
O K
in ar
ĠY ale
Ġmod ifications
Ġdra gon
ĠAct s
AR S
RE E
ĠEconom ics
Ġearn ings
Ġcompris es
Ġfisher ies
Ġbutterf lies
Ġprox imity
Ġharass ment
m n
p ublic
Ġ Å
ĠM C
Ġch at
Ġj ury
now ned
Ġqu otes
Ġgra zing
ĠRe form
Ġtem plate
ĠSe attle
ĠAll ied
urg ical
Ġsimpl er
Ġmanip ulation
Ġglac iers
ĠCho ose
F ree
Ġo un
Ġth ir
ul as
el le
sp eed
head ed
Ġqual itative
Ġlik ed
Ġguarant eed
Ġlect ures
N C
t ar
ot er
ĠH ond
ff icking
Ġdes ires
Ġjust ify
Ġ18 70
Ġver ify
Ġambit ious
M et
Ġt ide
Ġthe ft
Ġin exp
st ock
ĠT aking
ab ase
os itory
Ġmat ches
Ġexcept ions
ĠAng lo
Ġpurs uit
ĠSaf e
Ġroutine ly
c ience
i per
if iable
Ġcont est
Ġreg ards
Ġsil ence
h al
w elling
Ġe ld
ol ics
im ated
ul ic
Ġimp ed
Ġexp orts
Ġpost ure
Ġgradu al
Ġexhib its
ĠHol ocaust
B as
d ependent
p iece
Ġp ound
Ġf riction
Ġm asks
Ġd os
ow ing
ĠW olf
Ġse am
Ġsh ame
ĠTh ailand
Ġatt orney
Ġfl ights
ĠAl ber
ĠChrist opher
het ics
RO M
iat ry
ĠMalays ia
Ġre ass
id ation
Ġact ed
Ġtem ples
Ġlast s
Ġdisapp oint
Ġdepth s
Ġclim b
Ġveter ans
Ġrestaur ant
Ġex otic
ag rams
Ġpo ols
Ġlaw yer
Ġhead quarters
Ġcra w
ĠGre ater
Ġreh abilitation
olit ical
G iven
m id
est ial
Ġcount ed
eg ree
ĠSy rian
Ġdecl are
ĠMc K
Ġagg ression
ĠViet namese
Per haps
ĠHig her
S y
f in
ĠT ips
ag u
Ġed it
Ġlim bs
Ġrecommend ation
Ġminor ities
Ġinvent ory
Ġshar ks
Ġwel ding
ĠBet ter
Ġdecor ated
Ġunw anted
ĠDak ota
Ġa rose
Ġh ay
ch ildren
ĠA er
ĠB rig
ĠH yp
ĠIn it
Ġgo ver
Ġprop ri
Ġnut rit
Ġbreak through
Ġharvest ed
Ġtom orrow
wid th
m ont
n ote
Ï Ĥ
Ġa ug
Ġp ile
il i
Ġl in
ĠB ase
Ġlike wise
Ġviol ation
Ġsn ack
m i
m ap
Ġan k
Ġex it
ĠD raw
Ġk et
ĠEx cel
Ġflow ering
Ġrele vance
Ġsqu ir
Ġreflect ing
Ġutil izing
Ġscholars hip
Ġmaxim ize
Ġperipher al
o in
Ġan emia
Ġinc ub
Ġspec ify
Ġ18 60
Ġcapital ism
Ġspect acular
Ġtrust ed
ĠSer ver
Ġul cer
Ġn ests
ĠB rand
ĠE b
ĠSt ra
te g
Ġcur t
Ġinvest ed
arr ass
Ġvalid ity
Ġtut or
Ġabnormal ities
Ġerect ed
g rass
Ġn a
Ġst ool
ĠB eng
Ġnorth west
Ex pl
mark et
Ġastron omy
Ġhier archy
ĠDub lin
ĠBanglades h
T op
d y
v ic
ro ts
ig uous
iv ic
ĠW ould
ast ically
Ġres ort
Ġwater ing
Ġdifferent ial
Ġdet rim
ĠSp orts
Ġpresent ations
ards hip
Ġparticip ant
Ġ194 6
ĠSw iss
Ġcerv ical
Ġd orm
id ency
ĠM RI
Ġar ises
ĠAn na
Ġappro ached
ĠAd ditional
Ġwild erness
Ġpack et
Ġclar ity
ĠUnivers al
Ġnumer ical
âĢ ²
iv ated
Ġsp ell
Ġparent al
ĠReg ion
Ġtact ics
Ġrend ered
Ġ ib
ĠT ell
ĠS QL
Ġ7 8
Ġlink ing
Ġvari ant
ĠPar ks
Ġbase ball
Ġdestro ying
ĠCommon wealth
ĠEc ology
Ġcub ic
ĠScript ure
Ġcompat ible
S chool
× ķ
ĠB it
Ġen velop
Ġen rich
Ġ19 15
Ġdr ill
Ġauthor ized
Ġtri um
Ġdivor ce
Ġveterin arian
ĠSyd ney
B R
e at
g ly
al ry
Ġsign aling
Ġintrodu ces
son ian
ĠEd itor
Ġhot el
Ġadministr ators
Ġadvert ise
Ġfant astic
ĠUk raine
Ġsurre nder
Ġcl ues
ĠK ash
Ġspec ially
Ġed itors
pro v
Ġpick ing
Ġpal ace
ĠFed eration
Instit utions
threat ening
S uch
t is
Ġl ips
ĠF un
ast es
Ġsc rap
ars on
gen cies
Ġlim b
itud inal
Ġhost ed
ĠIndust ry
Î µ
Ġd irty
ch y
Ġke en
Ġaut onomy
Ġprot ests
Ġserv ant
Ġrun off
Ġpost er
Ġaccount ed
Ġbur st
Ġmusic ians
Ġeru pt
Ġreef s
Ġcong ress
Ġpneum onia
ĠNich olas
c ard
Ġl ion
ĠF unction
Ġme g
Ġcommunic ating
osynt hesis
Ġa u
ĠC and
Ġor nam
Ġv end
ĠG ram
Ġle ather
ĠL ink
Ġwhere by
ring e
Ġnever theless
ĠQu estion
Ġcounsel ing
osex ual
ĠTai wan
Sept ember
T R
Ġo ven
Ġp onds
Ġhe ct
ĠW ang
Ġsign ature
Ġchar ity
Ġeas iest
ĠAct ive
rag on
Ġrespond ing
Ġalle v
ester day
Ġeleph ants
u pp
Ġs q
Ġs ap
ur ate
ĠG H
Ġtreat s
ĠAd m
Ġlive lihood
D NA
ĠM ercury
ĠB ud
Ġtra ced
Ġcontin ental
ĠCl oud
Ġconstit utes
ĠCom ment
ĠCur riculum
Ġlov es
Ġsyn chron
Ġrelax ation
ĠPu erto
Ke ep
W H
se ts
ĠS alt
um ble
Ġv iv
erv ice
ĠZ oo
Ġpolit ically
Ġinvest ing
Ġz o
rate gy
Ġsil k
Ġpu zzle
Ġdies el
ĠEvent ually
Ġbip olar
oubted ly
Ġc ables
ĠD ental
ric ular
Ġmon arch
mit t
Ġstrong est
Ġstress es
ĠHar bor
Ġconsist ency
Ġdry ing
Ġoccup ational
Ġemp athy
ĠDi agn
Ġmac ro
ĠT her
Ġim plicit
Ġbo om
oll en
Ġprior it
ĠBro ther
P I
f ram
Ġm arsh
Ġor ch
op amine
ĠB art
Ġide ology
ĠAt hens
Ġappear ing
Ġcontact s
Ġmiss ile
Ġglass es
Ġkill er
Ġterror ism
Jan uary
Ġgau ge
ĠS kin
Ġu mb
Ġst oring
ab y
Ġcar riers
Ġ9 8
enn y
Ġfaith ful
ixt y
Ġod or
Ġteen agers
Ġrecre ational
Ġsulf ur
ĠMarg aret
L ess
W S
g ia
Ù ĩ
Ġp rize
ĠA venue
Ġwh it
Ġviol ations
Ġfavor able
Ġtow ers
Ġfo am
Will iam
Ġ á
ing ing
ist a
ke ep
ne ath
Ġ7 1
Ġmat urity
Ġpos es
Ġshort age
Ġport rait
hold er
Ġrespond ents
Ġball s
Ġarm ies
Ġmembran es
L a
N O
V ol
Ġto es
am ics
Ġar row
Ġapp ar
20 19
Ġimm ers
Ġver bs
Ġfif teen
ĠClin ic
Ġoblig ation
Ġber ries
ĠC M
ĠP TSD
ĠJ oe
Ġ20 23
Ġright eous
ÃŃ s
Cont in
Ġimper ative
ĠNev ada
B ook
as i
ĠC rown
Ġhe ll
Ġtrans g
Ġcur iosity
Ġrandom ly
Ġtoile t
S w
at ics
ĠC as
ĠM anc
Ġpl ots
ific ant
Ġob struct
ĠBe ijing
Ġge ological
Ġremain der
Ġbreast feeding
ĠVol unt
Ġcompl aints
point s
Ġprivile ge
n orm
ĠP os
em ics
ĠD anish
ĠN ight
Ġcommerc ially
Ġinstrument al
Ġinject ed
Ġfract ure
Ġbron ze
S M
ã Ĥ
it ably
le ading
ĠRec ent
Ġadapt ive
Ġesc aped
Ġdiam ond
ĠOffic er
Ġcyl inder
Ġastronaut s
H ome
L Y
h um
Ġg amb
im eters
ĠG ate
cc oli
ip se
Ġref use
Ġ7 3
Ġharm on
Ġbackground s
ĠRail road
Ġdisput es
L ong
Ù ħ
ing e
ĠT rue
ĠG ab
ĠK ind
ĠV acc
Ġspec imen
Ġtrans m
Ġbo ot
There fore
Ġconc ert
Ġbroad ly
ĠRec on
Ġcred ited
Ġtou ched
ĠDel hi
Ġirrit ation
ĠAntar ctica
ĠHou ston
D esc
Ġthe or
Ġl ucky
Ġn our
ĠWe ight
ĠDe ad
Ġemb arrass
Ġconclud es
Ġhem isphere
Ġarsen ic
? )
in ters
Ġd a
ro st
il age
Ġg ospel
Ġen rolled
Ġ19 11
ject s
ĠPh ase
Ġcop ing
ĠCommun ications
Ġassist ed
ache lor
enez uel
h alf
l en
n osis
he rence
Ġp ist
Ġg low
ay ers
Ġse ism
ĠG ender
are ttes
Ch o
Ġcolor ful
ĠSol omon
at to
ri ages
ĠL ate
Ġany more
Ġam endment
Ġdem ographic
ĠMic hel
Ġaband on
Ġbutterf ly
Ġdign ity
Ġhist ories
Ġredu ctions
Ġopp onents
Ġ194 3
Ġprec autions
Ġ193 7
Ġradical s
re tt
is ive
Ġm ating
Ġl ag
Ġpat ron
Ġfert ile
Ġprompt ed
Ġpredomin antly
Ġentreprene urs
ĠObserv atory
Ø ¯
ĠI g
ĠE ric
un ks
ĠInstit ution
Ġhost ile
ĠRec ords
ĠMem bers
Ġcarbohyd rate
p ot
Ġthe ology
Ġp ad
ĠB P
ĠD ark
Ġsh ifted
Ġun con
Ġve t
Ġ16 0
Ġnav ig
Ġshel f
Ġcontamin ants
= "
S N
y st
Ġb ol
Ġh ollow
ĠC art
ĠP s
Ġun su
Ġph on
Ġadv ise
Ġquestion na
Ġcook ies
Ġnovel s
Ġsurpris ingly
Ġhun ters
Ġcannab is
Ġthe e
Ġin appropriate
ot te
ĠI L
og g
Ġsp ider
Ġinst inct
ĠAl most
char ge
Ġterrit orial
Ġincorpor ating
Ġpestic ide
Ġremed y
Ġdeclar ation
d ose
p ine
ĠS ugar
ĠC hem
Ġall iance
Ġgl oss
Ġchar ging
eg rad
ĠÃ Ĺ
O h
Ġt une
he it
ro v
ay an
ĠAmeric as
ĠFor ces
Ġembry o
ĠArgent ina
G erman
f ly
am an
op ard
Ġcomp ly
Ġper me
Ġpre st
Ġaccess ibility
ĠUS S
Ġap nea
Ġdocument ary
Ġfast est
Ġcourt esy
Ear th
Oct ober
Ġadmin ister
I d
u i
Ġb ent
Ġe cc
ĠR un
ĠO ri
Ġk ick
ĠV II
Ġunder graduate
Ġbl end
Ġdist ribute
the ir
Ġgl ut
Ġcor rosion
Ġsuccess ion
Ġmic row
ores cent
ĠRel igion
ĠMethod s
Ġeru ption
Ġwal ks
Ġnort heast
Ġs our
ion e
iz able
âĢĿ ).
Ġup coming
Ġpol es
Ġcor rection
Ġlaw yers
Ġdeterm in
ĠEvery one
Ġfle w
ĠAp ost
Ġpull ing
ĠHy per
Ġalign ment
ĠFa ith
Ġre wards
ide gger
Ġ6 9
Ġrecogn izing
Ġ194 9
Ġ193 6
Ġdefic it
x iety
is ite
Ġd ermat
as ury
00 1
ĠK a
Ġsupp ose
Ġserv ants
Ġens l
Ġur ge
ĠAct ivities
ĠIss ues
G s
ĠS eed
Ġas leep
ĠP le
Ġcom et
ĠR at
Ġgl ad
Ġ9 3
raph ic
pe ople
Ġnob ody
Ġenact ed
p ill
Ġwith stand
ĠP ed
Ġde alt
Ġad mission
Ġfl ora
Ġent ries
ĠCont ent
Ġfit ted
ii i
Ġancest or
ill ary
um m
Ġcomp uls
Ġev olving
lud es
Ġ3 50
ne ver
Ġdisc ont
Ġcent ered
Ġdecl ining
ĠMont ana
Ġmit igate
Ġath lete
Ġscan ning
Ġgro cery
ĠG a
ĠG and
Ġfe eds
Ġdi abetic
Ġopp osing
Ġsou ls
Ġcommand ed
Ġkn ife
Ġdepos ited
Ġtal ent
ĠGal ile
ĠEth ics
Ġclub s
Ð »
Ġs lic
Ġal kal
ĠD ur
ĠTh ank
Ġsome body
Ġtr ash
ĠZ ion
Ġpress ed
ĠTest ing
ĠAcad emic
ĠImpro ve
ĠIsa ac
Ġ å
em bers
ĠF oot
Ġper ceptions
Ġoff shore
eng ine
Ġmar ry
Ġenh ancing
Ġsovere ignty
Ġcatal og
D ate
Ù Ī
se arch
ĠP apers
Ġsh rubs
Ġ19 13
Ġass im
Ġdown ward
ox ic
Ġcollect ively
ĠComp an
Ġple asant
Ġdemonstr ating
199 0
Ġmis under
Ġhon our
Un ited
Ġg rief
du e
Ġover night
ĠAd vis
Ġvers es
ĠProg ress
ĠProf essional
Ġclim ates
ĠFour th
Ġcommission ed
S QL
b ridge
en in
ĠT ower
ĠT ypically
Ġv ivid
Ġbl ast
Ġnew er
Ġwell being
Ġfun gal
Ġ8 2
Ġmat hematic
ER E
ĠÂ ±
199 5
Ġsubsid ies
Ġaccompany ing
B ar
s ign
ri ors
Ġk ills
ĠK er
Ġgen re
Ġmod er
Ġdeb ates
Ġcomment ary
Ġadequ ately
Ġtransp arency
Ġt we
Ġf ox
Ġin ert
et ed
Ġcan on
ĠF if
ĠG ran
ĠL iver
Ġab oard
Ġcomp osite
rans mit
ĠMem ory
Ġspons ored
Ġlith ium
B rit
G M
i age
he um
ed y
Ġb aking
Ġsh ots
Ġfree ze
ĠPr ice
Ġemb od
ĠAtl anta
n an
Ġh iding
ĠN ear
Ġ19 29
ens is
Ġcolor ing
Ġexpect ancy
ĠProg rams
Ġpray ers
Ġaster oid
Ġt ended
ir ts
am er
Ġal gebra
ĠM O
ĠB ull
cl er
Ġmar ble
Ġvolcan o
cons cious
ĠCP U
A tt
b ecause
m ount
at ivity
Ġh ired
Ġn ights
ĠB att
ĠD elta
Ġrem inder
Ġend less
ev a
ias m
ĠRef uge
Ġanticip ated
V E
re port
Ġm aj
ĠE ye
ĠPl ate
Ġinexp ensive
Ġgover ning
Ġb ubble
Ġh its
ch t
ĠA qu
Ġde forestation
ĠF riends
ound ed
Ġcle ared
Ġur ged
Ġround ed
Ġsimpl est
ĠOcc up
Ġretire ment
l ab
in cess
Ġve in
Ġdel icious
yl um
ĠCons ult
ĠReg ister
Ġacceler ate
Ġspr ink
Sym ptoms
s ocial
Ġst ays
Ġse aled
ĠL iber
Ġdec iding
Ġsubject ive
ĠAct ivity
Ġut ilities
Ġlif esp
ĠRec ord
Ġexcite ment
s ky
w ere
Ã º
it o
Ġf iscal
Ġg ym
ĠE t
Ġsh ifting
Ġtw in
Ġmon ks
Ġdef ensive
Ġele g
Ġlist ing
Ġ193 3
Ġload ing
f a
Ġp osed
ed a
ĠT ow
ĠH imal
un ing
Ġsp aw
Ġpop ulated
ron es
icult ural
ĠFin land
iling ual
Ġcorrespond s
Ġadvoc acy
Ġstead ily
) ?
1 20
b irth
m ination
r ings
Ġ 000
Ġt sun
Ġde ployment
Ġcomp ressed
Ġcl ergy
Ġtre asure
ĠSe ven
Ġcr imin
NA SA
Ġaud iences
Un like
ĠNor weg
Ġmilit ia
Ġseiz ures
Ġex clusion
ĠCh annel
ĠAl ban
ats on
Ph ot
Ġcomprom ised
ĠHand book
ĠDO I
pos itive
ĠNorm an
Ġ ]
Ġf ost
ĠC ool
ĠM oney
Ġpop ul
gen ic
Ġfin ite
ĠPal ace
ĠFre qu
Ġdin osaur
ĠJuda ism
Ġnutrit ious
Ġtrium ph
b ling
f ields
ĠA round
ĠF eed
ĠO K
Ġ8 1
Ġstress ful
Ġmedic inal
Ġmer cy
Ġfol iage
ĠPan el
disc iplinary
aret te
ĠRus sell
C L
Ġw are
ĠM ort
ĠL ang
Ġab st
Ġk ern
Ġsoc ietal
Ġelect oral
Ġ8 4
Ġdefin ite
Ġproport ions
Ġsan itation
aud i
Ġ iv
an ical
Ġg olf
Ġfor um
ĠR ow
Ġgl ue
Ġpass words
ĠCl aud
ĠPl us
atur ated
Ġgrav itational
ĠBr un
Ġstimul us
Ġd ots
Ġu pl
iv ism
ĠGu inea
Ġlif ting
Ġlabor atories
ĠTra il
Ġadjust ments
ĠPolit ics
ĠOpp ortun
P op
Ġm ate
us c
Ġun h
te es
Ġhum id
Ġconst ell
Ġel imination
Ġhous ed
Ġfract ures
ĠBab ylon
ul ator
od a
ĠP ale
ĠCh anges
ĠV ice
Ġ7 9
ĠSh ar
Ġmot if
ĠJohn s
Ġobser vers
Ġcareg ivers
g ard
le vant
Ġcon gest
Ġgu itar
Ġsuccess or
Ġdom ains
ĠAust in
verse ly
Ġexec ute
ĠProt ect
ĠCath olics
ĠRober ts
Ġsecret ary
la very
Ġpurs uing
Ġpropag anda
Ġoste oporosis
ĠDemocr ats
is ure
Ġb ites
ĠD h
Ġqu iz
Ġgu ests
ĠPh ill
Ġmar ijuana
Ġinvestig ators
Ġ195 9
Ġunf ortunately
Ġmenstru al
Down load
ambo o
f ting
s er
ĠS ad
ver b
am ar
ĠP oor
ac ies
Ġdis ruption
ĠSt rategy
Ġdisc ourse
Ġref lex
Ġmon itors
Ġdon ated
over ty
ĠUp on
Ġdisturb ance
Ġelectroly te
M ark
es ome
el come
organ ic
olith ic
D s
F i
G reat
e lect
ĠT otal
ĠS ky
rom b
Ġint ric
ip ed
ĠSt alin
Ġcol i
be y
Ġmagn ific
ĠRel igious
Ġinn ocent
Ġscr atch
ĠBalt imore
ĠArchitect ure
s ize
u z
en z
Ġsh ark
Ġunder neath
ah ren
Ġter restrial
Ġnon profit
ĠMan ual
ara oh
Ġconv ince
Ġinterpret ations
ĠSmith sonian
Ġoutl ines
Comm un
Ġtransc ription
Ġvoy age
Ġincom plete
M al
ro it
ĠS ay
Ġr ush
ĠAl an
ĠAr n
vironment al
ĠLet ters
Ġkilomet res
ĠCE O
Ġauto immune
ĠSud an
D ig
Ġre nowned
st ra
ra ulic
ĠG ib
ĠJ os
Ġad olescent
ere rs
Ġtr im
Ġreg ulating
Ġter r
Ġcompar ative
ĠDisc overy
ĠCat hedral
amil iar
ĠGord on
Â »
Ġ Ø§
ĠL yn
Ġk er
ĠCh i
Ġher bal
Ġrece iver
Ġwond ering
ĠUN ESCO
ĠRob inson
ĠPalest inian
Ġton nes
lear ning
ĠVirt ual
ro ads
Ġe u
Ġe cho
ĠG rowth
00 00
Ġqu ery
int o
Ġrese mble
Ġcur ves
Ġselect ive
Ġsouth west
Ġblock ing
Ġtransl ations
Ġquar ters
ĠSans krit
k g
Ġa ver
le m
im ation
el ong
ĠR ule
ĠF ocus
Ġac ou
ĠWe ather
Ġvis ually
Ġser um
less ness
Ġsl opes
az ines
Ġreve aling
Ġweaken ed
th ree
Ġch ord
Ġcor related
Ġer ad
Ġbat t
Ġturb ine
Ġsevent h
ĠNep al
D I
o T
Ġd row
ĠF light
Ġman eu
ile m
Ġprob able
Ġver te
Ġcred its
Ġswe at
Ar ch
ĠArab ia
Ġgar bage
Ġimmig rant
Ã¼ r
Ġreven ues
Ġhur ricane
u ce
w ritten
Ġb ub
iz ard
Ġtechn ically
Ġfin ancing
Ġsuggest ion
ĠJes uits
ĠPre p
Ġexhib ited
ĠDel aware
Ġpu zz
ĠFle et
Ġcasual ties
Ġarbit rary
Feb ruary
E lect
G R
Ġse als
ĠV enezuel
Ġher d
Ġjust ified
Ġend emic
Ġrecogn izes
Ġaccept ing
Ġfort une
Ġdipl omatic
Ġh ipp
over ing
Ġpast e
Ġer r
Ġfront ier
Ġfast ing
Ġconsequ ently
Ġpartners hips
gener ative
Ġindirect ly
ĠManc hester
h on
Ġw and
Ġp seud
Ġd ip
ud a
Ġse ized
ĠG IS
Ġenc ryption
Ġ193 5
ĠSim ple
Ġjournal ists
Ġkne es
Aut hor
Ġmultip ly
F orm
c hest
Ġp m
se a
ĠSt age
Ġam end
ĠInd o
Ġopp onent
Ġel astic
ĠMan ager
Ġsqu ee
ĠTechn ologies
Ġcoron ary
Ġcel estial
Ġnanop articles
aw ed
Ġend urance
Ġarch ive
OR E
Ġcivil ians
Ġsoon er
Ġsch izophrenia
pat ient
ĠThrough out
ĠAgain st
. âĢĶ
ra is
ĠC L
Ġdes erve
ne x
ĠAn imals
Ġbirth s
Ġstri ps
Ġenter prises
Ġ195 8
Be ing
ĠEconom y
Ġfrag ile
De cember
Ġreject ion
Ġrig orous
ĠResp onse
Intern ational
ĠThom pson
N ovember
r aska
ra ment
ĠV ision
cept s
vent ional
ĠPh oen
Ġprop het
Ġrecogn ise
Wh ite
ĠProble m
ĠJoh ann
J es
L ondon
W A
c irc
ĠSt ew
sc ape
Ġple ased
Ġdro ve
Ġrestrict ion
Ġped ag
Ġfeat uring
ĠArist otle
T reatment
pl ants
rit ical
ov al
Ġ8 3
Ġmark ing
Ġhar ness
Ġphilos ophers
ĠWork ers
Ġaqu arium
Ġfeas ible
/ .
P age
p ox
Ġc ite
Ġin land
ĠE ating
Ġgra vel
ash i
Ġsl ides
ĠGe ographic
Ġsuper vis
Ġgraph s
flow er
Ġintent ions
ĠChall enge
Ġstro kes
Ġto y
Ġl as
Ġl ady
st ory
ĠT ask
Ġrel ied
Ġmus cular
Ġcomput ational
ĠBe yond
Ġrele asing
ann ah
ĠAb d
ĠAust rian
ĠArt icles
ira cy
Ġfit ting
bl ack
Ġspr ings
ĠLank a
ĠL aur
ind ex
iqu ity
Ġunderstand s
Ġbenef ic
ĠTo o
Ġcoll agen
Ġsurvey ed
ĠRel ated
Ġpun ish
Ġcoord inated
Ġment ions
ĠPrinc iples
ĠMult iple
) (
r Ã©
ĠB ry
Ġhe x
ĠN ag
ri pp
Ġsh ower
ign ant
Ġgu ilt
Ġcal orie
Ġlab s
Ġsens ing
Ġast on
Ġec o
ĠRepublic ans
Ġcoal ition
ĠDet erm
Ġrom antic
Ġt ires
Ġthe atre
Ġp ir
ar o
Ġde eds
ĠB lu
Ġex terior
ĠD ry
ere r
row se
Ġadv ancing
sc he
Ġ195 5
Ġhem orrh
ĠDat abase
c i
p ent
Ġ esp
ĠS L
Ġun ch
Ġtra ils
Ġwant ing
work ing
Ġlov ing
ĠÎ ²
ĠCamp bell
Ġtight ly
Ġtomat o
Ġbod ily
' '
J ew
Ġre use
ul us
th ink
ant ry
ĠW i
ĠL A
ag g
Ġman ure
au coma
Ġsub ord
ateg ory
Ġcra cks
Ġrenew ed
Ġgastro intestinal
c ode
Ġt ense
Ġa pt
Ġc itation
an th
Ġd urable
Ġan not
Ġor n
Ġbl ades
ĠHe aven
ĠAl low
Ġmet ric
ĠAd vent
Ġintern ationally
Ġprop ose
Ġrepresent ations
Ġrat ios
Ġfertil izers
ĠExpl ain
ĠCat al
Ġpock et
A ccess
in itely
Ġc ant
ed ience
Ġd ancing
Ġn aked
Ġgovern ed
Ġ9 6
Ġlim estone
Ġur anium
ĠRet urn
ĠNot es
ĠDis orders
ĠFood s
Ġgall ery
Ġgly c
Ġenthus iasm
ĠFest ival
M R
Ġ ..
Th ank
Ġcap ita
Ġlearn s
Ġfib re
Ġpul monary
ĠProv ide
Ġsup reme
er red
Ġn od
ain ted
ĠY ah
Ġmain land
Ġheav ier
Ġaud itory
Ġbad ly
Ġmig rants
Ġmyth ology
ĠMess iah
Â ²
Ã £
Ġp add
ĠB aker
Ġun int
ĠCan al
Ġlength s
ĠDes ert
ĠMad ison
ograp hers
Pub lished
Ġrebell ion
Aust ral
i w
Ġex agger
ĠR idge
Ġpl ag
ren al
tern s
Ġac upuncture
ĠHe idegger
ex per
Ġris en
Ġstat ues
Ġarr iving
ĠApp lied
Ġtable t
ĠSte ve
Ġrein for
Ġexplo it
Ġconqu ered
Ġbless ed
Ġworkshe et
F F
Ġto e
ĠM ason
Ġv est
ĠJ osh
els h
Ġblood stream
ĠEx ample
Ġpack ages
IT Y
ĠCom plete
ĠGreen land
Ġthr ust
Cont act
Ġjew el
Ġsuppl iers
S outh
m aker
Ġc ad
Ġb ishop
Ġd awn
ĠI BM
Ġexp ose
Ġcar n
rad es
Ġ195 7
Ġsynt ax
pat hetic
Ġrank ed
Ġoverl ooked
rav iolet
ĠCrit ical
fol io
Ġneurot ransmit
e lectric
Ġth rowing
ill o
Ġhe lic
Ġex ting
ĠH ills
ĠN AT
Ġcomp rehend
Ġrec alled
con duct
Ġche w
Ġdam s
Ġsun screen
Ġlog ging
ĠSen ior
Ġinh abited
Ġvent ure
oster one
ĠSil ver
N orth
Ġt in
id ney
ĠM ig
ĠM end
