{"<|endoftext|>":0,"<|pad|>":1,"!":2,"\"":3,"#":4,"$":5,"%":6,"&":7,"'":8,"(":9,")":10,"*":11,"+":12,",":13,"-":14,".":15,"/":16,"0":17,"1":18,"2":19,"3":20,"4":21,"5":22,"6":23,"7":24,"8":25,"9":26,":":27,";":28,"<":29,"=":30,">":31,"?":32,"@":33,"A":34,"B":35,"C":36,"D":37,"E":38,"F":39,"G":40,"H":41,"I":42,"J":43,"K":44,"L":45,"M":46,"N":47,"O":48,"P":49,"Q":50,"R":51,"S":52,"T":53,"U":54,"V":55,"W":56,"X":57,"Y":58,"Z":59,"[":60,"\\":61,"]":62,"^":63,"_":64,"`":65,"a":66,"b":67,"c":68,"d":69,"e":70,"f":71,"g":72,"h":73,"i":74,"j":75,"k":76,"l":77,"m":78,"n":79,"o":80,"p":81,"q":82,"r":83,"s":84,"t":85,"u":86,"v":87,"w":88,"x":89,"y":90,"z":91,"{":92,"|":93,"}":94,"~":95,"¡":96,"¢":97,"£":98,"¤":99,"¥":100,"¦":101,"§":102,"¨":103,"©":104,"ª":105,"«":106,"¬":107,"®":108,"¯":109,"°":110,"±":111,"²":112,"³":113,"´":114,"µ":115,"¶":116,"·":117,"¸":118,"¹":119,"º":120,"»":121,"¼":122,"½":123,"¾":124,"¿":125,"À":126,"Á":127,"Â":128,"Ã":129,"Ä":130,"Å":131,"Æ":132,"Ç":133,"È":134,"É":135,"Ê":136,"Ë":137,"Ì":138,"Í":139,"Î":140,"Ï":141,"Ð":142,"Ñ":143,"Ò":144,"Ó":145,"Ô":146,"Õ":147,"Ö":148,"×":149,"Ø":150,"Ù":151,"Ú":152,"Û":153,"Ü":154,"Ý":155,"Þ":156,"ß":157,"à":158,"á":159,"â":160,"ã":161,"ä":162,"å":163,"æ":164,"ç":165,"è":166,"é":167,"ê":168,"ë":169,"ì":170,"í":171,"î":172,"ï":173,"ð":174,"ñ":175,"ò":176,"ó":177,"ô":178,"õ":179,"ö":180,"÷":181,"ø":182,"ù":183,"ú":184,"û":185,"ü":186,"ý":187,"þ":188,"ÿ":189,"Ā":190,"ā":191,"Ă":192,"ă":193,"Ą":194,"ą":195,"Ć":196,"ć":197,"Ĉ":198,"ĉ":199,"Ċ":200,"ċ":201,"Č":202,"č":203,"Ď":204,"ď":205,"Đ":206,"đ":207,"Ē":208,"ē":209,"Ĕ":210,"ĕ":211,"Ė":212,"ė":213,"Ę":214,"ę":215,"Ě":216,"ě":217,"Ĝ":218,"ĝ":219,"Ğ":220,"ğ":221,"Ġ":222,"ġ":223,"Ģ":224,"ģ":225,"Ĥ":226,"ĥ":227,"Ħ":228,"ħ":229,"Ĩ":230,"ĩ":231,"Ī":232,"ī":233,"Ĭ":234,"ĭ":235,"Į":236,"į":237,"İ":238,"ı":239,"Ĳ":240,"ĳ":241,"Ĵ":242,"ĵ":243,"Ķ":244,"ķ":245,"ĸ":246,"Ĺ":247,"ĺ":248,"Ļ":249,"ļ":250,"Ľ":251,"ľ":252,"Ŀ":253,"ŀ":254,"Ł":255,"ł":256,"Ń":257,"Ġt":258,"Ġa":259,"he":260,"in":261,"re":262,"Ġthe":263,"on":264,"er":265,"Ġo":266,"at":267,"Ġs":268,"en":269,"Ġc":270,"Ġw":271,"es":272,"is":273,"nd":274,"it":275,"or":276,"Ġp":277,"al":278,"ed":279,"Ġb":280,"Ġof":281,"an":282,"Ġf":283,"ing":284,"Ġin":285,"ar":286,"ou":287,"Ġm":288,"Ġand":289,"Ġto":290,"ic":291,"ion":292,"Ġd":293,"le":294,"ro":295,"as":296,"Ġh":297,"Ġth":298,"ent":299,"ct":300,"Ġe":301,"il":302,"Ġre":303,"om":304,"ve":305,"Ġl":306,"st":307,"Ġn":308,"ly":309,"Ġbe":310,"âĢ":311,"Ġis":312,"ĠT":313,"se":314,"ol":315,"Ġg":316,"ation":317,"im":318,"id":319,"et":320,"ut":321,"ce":322,"ot":323,"ur":324,"ra":325,"ch":326,"ow":327,"ĠA":328,"Ġfor":329,"ig":330,"ĠS":331,"Ġthat":332,"Ġu":333,"Ġon":334,"Ġst":335,"ver":336,"ĠC":337,"ĠI":338,"ir":339,"Ġy":340,"ul":341,"ay":342,"am":343,"Ġas":344,"ith":345,"el":346,"ad":347,"her":348,"Ġpro":349,"Ġare":350,"Ġcon":351,"Ġan":352,"Ġwith":353,"Ġwh":354,"if":355,"Ġor":356,"Ġit":357,"Ġal":358,"Ġyou":359,"ter":360,"od":361,"ĠM":362,"Ġ(":363,"ĠThe":364,"ment":365,"ge":366,"Ġ1":367,"ĠP":368,"th":369,"op":370,"ist":371,"ate":372,"ers":373,"Ġde":374,"ill":375,"ies":376,"ĠB":377,"Ġhe":378,"ab":379,"ess":380,"Ġex":381,"us":382,"Ġwe":383,"ore":384,"ect":385,"Ġsu":386,"Ġcom":387,"ity":388,"âĢĻ":389,"est":390,"res":391,"ive":392,"Ġha":393,"ac":394,"ĠH":395,"ld":396,"rom":397,"um":398,"os":399,"Ġv":400,"ke":401,"Ġby":402,"em":403,"ant":404,"iv":405,"qu":406,"ĠW":407,"ain":408,"Ġat":409,"nt":410,"pp":411,"igh":412,"Ġwas":413,"ĠD":414,"ud":415,"ĠE":416,"Ġfrom":417,"and":418,"Ġcan":419,"oc":420,"Ġch":421,"ĠR":422,"Ġr":423,"ort":424,"Ġne":425,"ĠF":426,"Ġse":427,"ial":428,"Ġ2":429,"ure":430,"Ġnot":431,"ĠâĢ":432,"un":433,"art":434,"ĠN":435,"ical":436,"ĠG":437,"Ġle":438,"Ġhave":439,"ri":440,"ĠL":441,"og":442,"Ġsh":443,"Ġen":444,"Ġthis":445,"Ġsp":446,"ight":447,"pt":448,"00":449,"Ġab":450,"rou":451,"ich":452,"red":453,"all":454,"Ġwor":455,"ould":456,"ther":457,"gh":458,"ions":459,"The":460,"ost":461,"our":462,"ome":463,"ated":464,"Ġim":465,"du":466,"ine":467,"Ġus":468,"ard":469,"per":470,"out":471,"Ġpl":472,"ag":473,"Ġtheir":474,"ell":475,"ide":476,"ff":477,"act":478,"ĠO":479,"ans":480,"Ġint":481,"ast":482,"pl":483,"ear":484,"age":485,"ĠJ":486,"ust":487,"Ġwhich":488,"ak":489,"Ġk":490,"Ġwhe":491,"ous":492,"ec":493,"Ġthey":494,"ĠU":495,"iz":496,"Ġyour":497,"Ġall":498,"ib":499,"ood":500,"ĠIn":501,"Ġcont":502,"ult":503,"Ġad":504,"Ġwill":505,"Ġinc":506,"cc":507,"end":508,"ia":509,"ru":510,"Ġdis":511,"âĢĿ":512,"ap":513,"ong":514,"Ġmore":515,"ip":516,"Ġcomp":517,"ations":518,"ew":519,"Ġres":520,"vel":521,"Ġhas":522,"ere":523,"Ġdo":524,"so":525,"ary":526,"orm":527,"ater":528,"ĠTh":529,"ence":530,"Ġother":531,"ild":532,"Ġman":533,"able":534,"ual":535,"are":536,"Ġcl":537,"Ġwere":538,"Ġbut":539,"ks":540,"ry":541,"ind":542,"ĠâĢľ":543,"'s":544,"Ġper":545,"Ġone":546,"ep":547,"Ġme":548,"ach":549,"ance":550,"Ġalso":551,"Ġte":552,"Ġimp":553,"ents":554,"ose":555,"reat":556,"Ġ19":557,"ass":558,"ress":559,"ign":560,"ake":561,"ase":562,"au":563,"av":564,"ition":565,"Ġso":566,"Ġj":567,"ction":568,"ice":569,"Ġout":570,"ber":571,"Ġun":572,"very":573,"Ġar":574,"Ġpart":575,"ime":576,"Ġapp":577,"one":578,"ord":579,"Ġabout":580,"ish":581,"Ġev":582,"ens":583,"ame":584,"ace":585,").":586,"Ġwho":587,"ory":588,"ĠSt":589,"ount":590,"ire":591,"ok":592,"Ġstud":593,"Ġhis":594,"ack":595,"Ġinf":596,"Ġpe":597,"ub":598,"ĠK":599,"Ġsy":600,"Ġ\"":601,"Ġcomm":602,"ors":603,"Ġthem":604,"Ġsc":605,"ite":606,"ue":607,"ces":608,"ang":609,"ound":610,"ike":611,"ree":612,"now":613,"olog":614,"low":615,"ĠIt":616,"Ġup":617,"Ġbec":618,"Ġpre":619,"Ġthan":620,"ĠCh":621,"ie":622,"Ġmay":623,"ile":624,"ric":625,"Ġqu":626,"Ġsome":627,"iff":628,"ian":629,"Ġyear":630,"ople":631,"Ġrec":632,"ays":633,"Ġbeen":634,"Ġthere":635,"ates":636,"nder":637,"ail":638,"ings":639,"Ġwhen":640,"mer":641,"ough":642,"Ġag":643,"Ġits":644,"ph":645,"Ġgo":646,"Ġinto":647,"ren":648,"Ġ20":649,"Ġtime":650,"vers":651,"rit":652,"ĠV":653,"Ġtra":654,"Ġthese":655,"Ġwork":656,"erv":657,"te":658,"ons":659,"Ġover":660,"ĠThis":661,"rough":662,"ally":663,"Ġpeople":664,"Ġhad":665,"lud":666,"Ġhow":667,"Ġdiff":668,"ond":669,"Ġtr":670,"ms":671,"ause":672,"ove":673,"tern":674,"Ġcons":675,"Ġcol":676,"Ġro":677,"Ġour":678,"ll":679,"Ġra":680,"Ġ3":681,"Ġact":682,"Ġuse":683,"ific":684,"int":685,"Ġbet":686,"we":687,"Ġmost":688,"lic":689,"Ġunder":690,"Ġwould":691,"lect":692,"irst":693,"Ġknow":694,"ments":695,"Ġsa":696,"ys":697,"Ġlike":698,"Ġbl":699,"Ġdes":700,"ities":701,"ject":702,"ning":703,"ious":704,"Ġacc":705,"ĠY":706,"les":707,"ook":708,"alth":709,"velop":710,"row":711,"Ġtw":712,"Ġnew":713,"stem":714,"Ġrel":715,"Ġsuch":716,"Ġrep":717,"Ġif":718,"Ġneed":719,"ational":720,"ffect":721,"ient":722,"ob":723,"Ġany":724,"Ġinclud":725,"Ġchild":726,"Ġgen":727,"hed":728,"ative":729,"ple":730,"Ġhel":731,"ular":732,"Ġwhat":733,"cess":734,"Ġonly":735,"Ġno":736,"),":737,"Ġpr":738,"Ġused":739,"Ġprov":740,"ced":741,"ating":742,"yp":743,"Ġhelp":744,"Ġph":745,"ov":746,"Ġpo":747,"ĠUn":748,"Ġprodu":749,"Ġind":750,"Ġmany":751,"Ġthrough":752,"Ġam":753,"Ġfirst":754,"Ġoff":755,"Ġdevelop":756,"fter":757,"oss":758,"iet":759,"ath":760,"Ġfe":761,"ics":762,"Ġspec":763,"uc":764,"ool":765,"ise":766,"Ġac":767,"Ġem":768,"round":769,"erm":770,"ark":771,"Ġexp":772,"Ġreg":773,"ne":774,"ts":775,"rib":776,"uring":777,"Ġtwo":778,"ink":779,"ful":780,"hen":781,"Ġsystem":782,"iss":783,"ied":784,"eth":785,"oth":786,"old":787,"Ġdiffere":788,"Ġob":789,"ible":790,"ility":791,"Ġdec":792,"Ġass":793,"Ġatt":794,"als":795,"Ġsur":796,"ife":797,"ased":798,"Ġadd":799,"ten":800,"rop":801,"ĠHe":802,"Ġ-":803,"aw":804,"ert":805,"ange":806,"Ġ200":807,"ng":808,"Ġfl":809,"ĠâĢĵ":810,"Ġ201":811,"In":812,"fore":813,"Ġshould":814,"ram":815,"ures":816,"ower":817,"Ġsupp":818,"arch":819,"Ġwell":820,"ween":821,"Ġwater":822,"Ġrem":823,"Ġyears":824,"ble":825,"sel":826,"Ġinv":827,"Ġco":828,"ract":829,"ution":830,"Ġsub":831,"own":832,"gan":833,"ade":834,"Ġcould":835,"Ġsm":836,"Ġ4":837,"its":838,"Ġbetween":839,"hes":840,"Ġpres":841,"Ġwhere":842,"cy":843,"Ġhigh":844,"ick":845,"Ġtrans":846,"Ġhealth":847,"wn":848,"uch":849,"ily":850,"Ġ5":851,"ever":852,"Ġher":853,"ĠAs":854,"Ġmake":855,"ants":856,"Ġear":857,"Ġpers":858,"xt":859,"ident":860,"Ġget":861,"ited":862,"form":863,"Ġbu":864,"Ġinter":865,"ology":866,"meric":867,"Ġrese":868,"Ġimport":869,"Ġpol":870,"ural":871,"ivers":872,"land":873,"ience":874,"chn":875,"Ġmod":876,"Ġnum":877,"ting":878,"Ġform":879,"chool":880,"Ġinst":881,"Ġdisc":882,"ines":883,"ont":884,"Ġexam":885,"Ġfound":886,"ists":887,"ict":888,"Ġmed":889,"ef":890,"ism":891,"ually":892,"urn":893,"ins":894,"Ġlar":895,"Ġbecause":896,"Ġthen":897,"Ġafter":898,"gy":899,"Ġlear":900,"Ġsim":901,"Ġlong":902,"Ġcent":903,"Ġvery":904,"Ġinform":905,"Ġeven":906,"oy":907,"hat":908,"Ġworld":909,"ata":910,"Ġjust":911,"Ġdifferent":912,"ft":913,"ness":914,"Ġeffect":915,"Ġhum":916,"Ġexper":917,"other":918,"Ġcar":919,"Ġincre":920,"Ġdet":921,"ĠAmeric":922,"ature":923,"Ġcount":924,"Ġway":925,"cept":926,"Ġ18":927,"Ġed":928,"Ġsee":929,"get":930,"vent":931,"Ġtyp":932,"ically":933,"Ġref":934,"aking":935,"Ġthose":936,"ollow":937,"ives":938,"Ġke":939,"Ġresp":940,"Ġcall":941,"Ġprog":942,"Ġpub":943,"Ġsign":944,"Ġgener":945,"Ġvar":946,"cer":947,"iew":948,"Ġevery":949,"ck":950,"Ġsaid":951,"ros":952,"ork":953,"Ġsoc":954,"Ġchildren":955,"Ġext":956,"omm":957,"ues":958,"Ġloc":959,"ds":960,"arm":961,"Ġsec":962,"tle":963,"ps":964,"Ġbeing":965,"Ġeach":966,".âĢĿ":967,"Ġresult":968,"Ġprocess":969,"Ġfact":970,"ases":971,"Ġpat":972,"led":973,"Ġlife":974,"Ġpartic":975,"Ġset":976,"Ġca":977,"iron":978,"ĠAl":979,"ruct":980,"Th":981,"vern":982,"Ġmy":983,"ather":984,"Ġimportant":985,"Ġgra":986,"Ġinformation":987,"ved":988,"ages":989,"Ġmuch":990,"Ġdist":991,"ody":992,"Ġmon":993,"Ġshe":994,"ĠWe":995,"Ġrequ":996,"Ġcommun":997,"Ġdef":998,"cent":999,"Ġfam":1000,"Ġtechn":1001,"Ġcre":1002,"ĠPro":1003,"Ġdep":1004,"Ġduring":1005,"Ġent":1006,"ized":1007,"Ġown":1008,"Ġfollow":1009,"ward":1010,"Ġright":1011,"imes":1012,"..":1013,"Ġread":1014,"Ġart":1015,"gg":1016,"io":1017,"Ġsame":1018,"Ġlead":1019,"ĠThey":1020,"Ġlevel":1021,"ection":1022,"Ġfood":1023,"hip":1024,"ices":1025,"ĠRe":1026,"Ġaut":1027,"Ġdoes":1028,"Ġmade":1029,"any":1030,"Ġstudents":1031,"Ġstudy":1032,"Ġperson":1033,"ize":1034,"Ġend":1035,"Ġins":1036,"Ġsk":1037,"the":1038,"Ġstr":1039,"Ġ6":1040,"Ġcur":1041,".,":1042,"Ġfind":1043,"ted":1044,"Ġmin":1045,"ĠIf":1046,"Ġdata":1047,"und":1048,"Ġproble":1049,"Ġpop":1050,"ĠFor":1051,"Ġgrow":1052,"Ġboth":1053,"Ġav":1054,"ĠAn":1055,"Ġback":1056,"con":1057,"19":1058,"Ġgood":1059,"ale":1060,"Ġgrou":1061,"ars":1062,"||":1063,"Ġche":1064,"Ġbefore":1065,"Ġsmall":1066,"viron":1067,"iversity":1068,"ĠAr":1069,"Ġexpl":1070,"Ġshow":1071,"Ġagain":1072,"Ġhist":1073,"ince":1074,"Ġcomple":1075,"Ġusing":1076,"Ġgl":1077,"20":1078,"inal":1079,"Ġschool":1080,"stand":1081,"Ġprot":1082,"ially":1083,"ron":1084,"Ġcor":1085,"ined":1086,"iel":1087,"ivid":1088,"Ġdi":1089,"omen":1090,"ality":1091,"Ġbo":1092,"read":1093,"000":1094,"nce":1095,"Ġmain":1096,"ty":1097,"rol":1098,"der":1099,"ĠHow":1100,"Ġoften":1101,"Ġtest":1102,"Ġposs":1103,"Ġtreat":1104,"ished":1105,"Ġstate":1106,"ax":1107,"Ġlit":1108,"ĠNew":1109,"Ġval":1110,"Ġhim":1111,"ute":1112,"oh":1113,"ĠInd":1114,"Ġsol":1115,"Ġwhile":1116,"imate":1117,"Ġless":1118,"ergy":1119,"Ġnow":1120,"irect":1121,"ock":1122,"ix":1123,"Ġday":1124,"ran":1125,"ĠSp":1126,"Ġdise":1127,"Ġocc":1128,"ex":1129,"Ġnumber":1130,"ury":1131,"ien":1132,"Ġserv":1133,"Ġcell":1134,"Ġtake":1135,"ulation":1136,"ral":1137,"akes":1138,"Ġmem":1139,"Ġris":1140,"Ġhuman":1141,"Ġorgan":1142,"Ġprovid":1143,"ier":1144,"Ġpower":1145,"vironment":1146,"ĠSc":1147,"dition":1148,"Ġvis":1149,"ered":1150,"Ġresearch":1151,"Ġfun":1152,"iety":1153,"air":1154,"Ġchar":1155,"iving":1156,"up":1157,"Ġmust":1158,"Ġactiv":1159,"Ġ10":1160,"ters":1161,"Ġdesign":1162,"Ġsupport":1163,"Ġbody":1164,"Ġest":1165,"iqu":1166,"Ġdown":1167,"Ġbel":1168,"Ġthree":1169,"uss":1170,"hers":1171,"ves":1172,"Ġaround":1173,"Ġhand":1174,"ital":1175,"ven":1176,"ah":1177,"Ġgovern":1178,"Ġlook":1179,"Ġconf":1180,"Ġplan":1181,"Ġelect":1182,"Ġclass":1183,"Ġdid":1184,"Ġcommon":1185,"day":1186,"Ġgreat":1187,"cl":1188,"Ġpoint":1189,"ĠBut":1190,"ger":1191,"rent":1192,"Ġstart":1193,"Ġ7":1194,"aj":1195,"ave":1196,"Ġredu":1197,"âĢĶ":1198,"ium":1199,"self":1200,"Ġland":1201,"ains":1202,"Ġser":1203,"Ġlarge":1204,"Ġcontin":1205,"gen":1206,"ouse":1207,"This":1208,"Ġcle":1209,"ross":1210,"ving":1211,"Ġexample":1212,"Ġret":1213,"Ġreport":1214,"ring":1215,"Ġthough":1216,"itions":1217,"ared":1218,"acter":1219,"ĠIs":1220,"Ġ8":1221,"ional":1222,"ash":1223,"Ġincluding":1224,"Ġop":1225,"Ġcour":1226,"ee":1227,"com":1228,"orn":1229,"Ġconst":1230,"rain":1231,"outh":1232,"Ġcare":1233,",âĢĿ":1234,"Ġallow":1235,"Ġcalled":1236,"eg":1237,"Ġsom":1238,"ull":1239,"Ġunderstand":1240,"iver":1241,"Ġpublic":1242,"ĠThere":1243,".\"":1244,"way":1245,"Ġwrit":1246,"âĢĵ":1247,"Ġequ":1248,"Ġstill":1249,"Ġbuild":1250,"ner":1251,"ĠAnd":1252,"10":1253,"iven":1254,"Ġmet":1255,"Ġeduc":1256,"Ġadv":1257,"els":1258,"Ġbeh":1259,"esp":1260,"aterial":1261,"Ġknown":1262,"Ġthink":1263,"ividual":1264,"inc":1265,"Ġpract":1266,"ĠYou":1267,"ired":1268,"osed":1269,"Ġide":1270,"Ġquest":1271,"oci":1272,"reen":1273,"Ġdr":1274,"oms":1275,"erest":1276,"Ġgu":1277,"ected":1278,"Ġappro":1279,"Ġfew":1280,"lish":1281,"iod":1282,"Ġplace":1283,"Ġmat":1284,"Ġ199":1285,"ination":1286,"Ġ9":1287,"Ġeas":1288,"âĢľ":1289,"bers":1290,"Ġstand":1291,"ĠâĢĺ":1292,"itive":1293,"conom":1294,"ential":1295,"ense":1296,"de":1297,"Ġmight":1298,"ived":1299,"ries":1300,"raph":1301,"ids":1302,"ization":1303,"me":1304,"eral":1305,"ĠWh":1306,"Ġwithout":1307,"ources":1308,"oun":1309,"ĠEng":1310,"Ġchang":1311,"Ġtem":1312,"ior":1313,"ason":1314,"ĠThese":1315,"Ġdem":1316,"tt":1317,"Ġenvironment":1318,"ĠUniversity":1319,"ration":1320,"Ġcaus":1321,"Ġwithin":1322,"ording":1323,"Ġiss":1324,"ethod":1325,"Ġsym":1326,"Ġindividual":1327,"ering":1328,"ertain":1329,"Ġpresent":1330,"Ġplay":1331,"Ġwant":1332,"ians":1333,"illion":1334,"Ġenergy":1335,"Ġproduct":1336,"ĠAmerican":1337,"eng":1338,"Ġdirect":1339,"Ġpur":1340,"ption":1341,"man":1342,"ĠDe":1343,"line":1344,"Ġchange":1345,"Ġphys":1346,"Ġcap":1347,"Ġmaterial":1348,"Ġdevelopment":1349,"Ġident":1350,"Ġlaw":1351,"less":1352,"ĠCon":1353,"Ġimm":1354,"Ġsocial":1355,"ffic":1356,"Ġlearn":1357,"Ġpot":1358,"Ġanother":1359,"alk":1360,"angu":1361,"Ġdisease":1362,"Ġdon":1363,"ton":1364,"orth":1365,"Ġpass":1366,"Ġ&":1367,"Ġbre":1368,"Ġair":1369,"Ġprof":1370,"iness":1371,"Ġarea":1372,"Ġsl":1373,"Ġsit":1374,"arent":1375,"ug":1376,"Ġpos":1377,"Ġproject":1378,"Ġben":1379,"Ġwomen":1380,"Ġimpro":1381,"ets":1382,"ological":1383,"ability":1384,"Ġlight":1385,"agn":1386,"Ġve":1387,"ajor":1388,"rist":1389,"Ġmus":1390,"'t":1391,"Ġhome":1392,"Ġrest":1393,"Ġdesc":1394,"ified":1395,"Ġbelie":1396,"ccess":1397,"Ġbas":1398,"ained":1399,"ris":1400,"Ġinterest":1401,"Ġant":1402,"Ġcontrol":1403,"Ġinclude":1404,"ats":1405,"Ġcult":1406,"bs":1407,"rodu":1408,"It":1409,"erc":1410,"Ġet":1411,"Ġeng":1412,"Ġrisk":1413,"ield":1414,"Ġblood":1415,"ĠPh":1416,"ental":1417,"Ġgovernment":1418,"atic":1419,"Ġmeas":1420,"Ġbest":1421,"ify":1422,"Ġopp":1423,"Ġagainst":1424,"Ġprogram":1425,"Ġold":1426,"ently":1427,"ik":1428,"az":1429,"Ġbecome":1430,"lished":1431,"Ġmil":1432,"Ġmark":1433,"atural":1434,"Ġleg":1435,"ways":1436,"Ġsever":1437,"Ġmethod":1438,"cing":1439,"Ġmove":1440,"gin":1441,"Ġpar":1442,"ĠAd":1443,"Ġwar":1444,"Ġlow":1445,"Ġearly":1446,"Ġpain":1447,"Ġanal":1448,"Ġeconom":1449,"to":1450,"ision":1451,"ern":1452,"ĠSh":1453,"Ġanim":1454,"Ġhere":1455,"here":1456,"ĠHowever":1457,"arc":1458,"Ġele":1459,"Ġorder":1460,"hor":1461,"Ġproper":1462,"Ġbetter":1463,"ource":1464,"Ġfore":1465,"Ġlast":1466,"ission":1467,"ead":1468,"Ġreal":1469,"Ġsecond":1470,"ards":1471,"use":1472,"ining":1473,"Ġmeans":1474,"Ġkeep":1475,"Ġoper":1476,"Ġtoo":1477,"Ġprovide":1478,"Ġgroup":1479,"amp":1480,"Ġfamily":1481,"__":1482,"Ġter":1483,"Ġhistory":1484,"ention":1485,"Ġsay":1486,"ories":1487,"Ġmajor":1488,"ĠUnited":1489,"ider":1490,"Ġpossible":1491,"Ġcause":1492,"Ġunt":1493,"Ġoccur":1494,"Ġparticular":1495,"ank":1496,"ples":1497,"ĠRes":1498,"Ġtre":1499,"icle":1500,"Ġdev":1501,"rap":1502,"Ġcurrent":1503,"ills":1504,"Ġavail":1505,"Ġfin":1506,"eed":1507,"ote":1508,"Ġpercent":1509,"ware":1510,"irc":1511,"Ġnear":1512,"Ġorig":1513,"ĠEx":1514,"ĠCol":1515,"ĠCl":1516,"Ġtop":1517,"Ġseveral":1518,"ret":1519,"ograph":1520,"ĠâĢĶ":1521,"pect":1522,"Ġsaf":1523,"Ġaddition":1524,"ĠWhen":1525,"Ġindu":1526,"Ġinvol":1527,"Ġperiod":1528,"Ġmean":1529,"idence":1530,"lu":1531,"Ġ15":1532,"par":1533,"view":1534,"Ġsince":1535,"ina":1536,"Ġable":1537,"oid":1538,"ients":1539,"ogn":1540,"Ġhapp":1541,"Ġhig":1542,"Ġel":1543,"Ġmen":1544,"Ġmar":1545,"ĠZ":1546,"Ġlearning":1547,"Ġlangu":1548,"Ġopen":1549,"Ġspecies":1550,"Ġthings":1551,"Ġperform":1552,"Ġscient":1553,",\"":1554,"Ġbus":1555,"ĠGod":1556,"ĠCan":1557,"Ġprom":1558,"Ġbenef":1559,"though":1560,"Ġcal":1561,"sy":1562,"ator":1563,"ames":1564,"Ġareas":1565,"ĠPl":1566,"Ġnon":1567,"Ġname":1568,"Ġothers":1569,"Ġsays":1570,"Ġamong":1571,"Ġfre":1572,"ĠSe":1573,"ĠComm":1574,"ĠStates":1575,"ilar":1576,"Ġlim":1577,"Ġfeel":1578,"urop":1579,"ĠAt":1580,"Ġ[":1581,"Ġcountry":1582,"Ġbased":1583,"Ġaffect":1584,"port":1585,"ole":1586,"Ġ.":1587,"Ġobject":1588,"Ġtreatment":1589,"ww":1590,"What":1591,"ĠTo":1592,"Ġfollowing":1593,"ĠQ":1594,"osp":1595,"ploy":1596,"of":1597,"Ġcertain":1598,"Ġfour":1599,"ling":1600,"Ġtimes":1601,"Ġavailable":1602,"Ġsignific":1603,"Ġcost":1604,"ends":1605,"omp":1606,"Ġcond":1607,"Ġplant":1608,"ended":1609,"Ġprevent":1610,"sc":1611,"ably":1612,"Ġfac":1613,"Ġaccess":1614,"rid":1615,"une":1616,"Ġcase":1617,"elf":1618,"urther":1619,"Ġhead":1620,"Ġconn":1621,"be":1622,"stit":1623,"Ġdel":1624,"Ġview":1625,"Ġage":1626,"ĠChrist":1627,"Ġ17":1628,"Ġwee":1629,"Ġlocal":1630,"Ġrun":1631,"Ġstruct":1632,"ots":1633,"Ġcells":1634,"ised":1635,"Ġcome":1636,"ocus":1637,"Ġrece":1638,"Ġbro":1639,"olution":1640,"Ġlittle":1641,"Ġlab":1642,"Ġsuccess":1643,"Ġfree":1644,"Ġlo":1645,"Ġbir":1646,"Ġpost":1647,"resent":1648,"Ġpress":1649,"ĠEn":1650,"ething":1651,"ĠCent":1652,"ope":1653,"Ġmonth":1654,"ggest":1655,"We":1656,"Ġbi":1657,"Ġlater":1658,"urope":1659,"work":1660,"ĠNational":1661,"Ġproblem":1662,"oint":1663,"Ġlist":1664,"ression":1665,"hy":1666,"Ġtype":1667,"Ġvol":1668,"Ġlevels":1669,"Ġintern":1670,"Ġput":1671,"Ġfar":1672,"Ġyoung":1673,"Ġlet":1674,"Ġuntil":1675,"Ġcreat":1676,"Ġflow":1677,"Ġproblems":1678,"Ġnatural":1679,"Ġassoci":1680,"ged":1681,"str":1682,"icult":1683,"12":1684,"Ġhard":1685,"Ġ12":1686,"Ġseem":1687,"ither":1688,"por":1689,"not":1690,"ones":1691,"ances":1692,"Ġsuggest":1693,"Ġturn":1694,"Ġamount":1695,"hem":1696,"If":1697,"Ġgiven":1698,"18":1699,"aper":1700,"Ġcomput":1701,"ĠAf":1702,"Ġpolit":1703,"ately":1704,"Ġbook":1705,"ĠOr":1706,"oks":1707,"Ġsw":1708,"Ġmult":1709,"ured":1710,"As":1711,"ortun":1712,"ĠTe":1713,"Ġmaking":1714,"Ġcirc":1715,"Ġheart":1716,"Ġshort":1717,"Ġsomething":1718,"ĠBe":1719,"ication":1720,"ledge":1721,"uture":1722,"Ġdeterm":1723,"Ġbehav":1724,"aken":1725,"over":1726,"Ġimpact":1727,"aps":1728,"atory":1729,"Ġcho":1730,"Ġess":1731,"ĠEurope":1732,"ides":1733,"ĠUS":1734,"Ġfunction":1735,"Ġvir":1736,"Ġfocus":1737,"Ġalong":1738,"Ġ$":1739,"agement":1740,"Ġlikely":1741,"Ġcourse":1742,"Ġdeath":1743,"Ġfil":1744,"ohn":1745,"Ġdue":1746,"Ġsignificant":1747,"ĠOn":1748,"face":1749,"Ġ0":1750,"ĠAll":1751,"Ġrad":1752,"Ġinvest":1753,"Ġappear":1754,"Ġdra":1755,"orld":1756,"ĠMed":1757,"Ġcomb":1758,"pr":1759,"Ġwords":1760,"Ġalways":1761,"vious":1762,"Ġeducation":1763,"Ġclear":1764,"Ġmillion":1765,"ned":1766,"Ġsing":1767,"Ġ16":1768,"Ġdays":1769,"ried":1770,"ours":1771,"Ġusually":1772,"cle":1773,"anc":1774,"Ġpopulation":1775,"Ġhy":1776,"Ġsystems":1777,"sp":1778,"Ġcentury":1779,"Ġincrease":1780,"Ġteac":1781,"Ġgr":1782,"ecially":1783,"etic":1784,"Ġlanguage":1785,"Ġcommunity":1786,"Ġrele":1787,"aster":1788,"ending":1789,"ĠWhat":1790,"ember":1791,"Ġobs":1792,"app":1793,"Ġbrain":1794,"Ġgive":1795,"mit":1796,"Ġresults":1797,"Ġtoday":1798,"Ġexist":1799,"Ġpast":1800,"Ġdescrib":1801,"min":1802,"Ġconditions":1803,"Ġer":1804,"Ġsimilar":1805,"Ġmov":1806,"most":1807,"Ġdifficult":1808,"ape":1809,"Ġauthor":1810,"ored":1811,"Ġabove":1812,"ively":1813,"asing":1814,"Ġspecific":1815,"Ġline":1816,"Ġtemper":1817,"iation":1818,"Ġcreate":1819,"Ġcancer":1820,"Ġrecord":1821,"ler":1822,"Ġestab":1823,"Ġspace":1824,"obal":1825,"Ġwhy":1826,"Ġey":1827,"ĠBrit":1828,"Ġparent":1829,"ptoms":1830,"There":1831,"Ġcharacter":1832,"ators":1833,"Ġnext":1834,"Ġenc":1835,"isc":1836,"Ġneeds":1837,"ruction":1838,"ribut":1839,"idd":1840,"ĠSo":1841,"Ġexperience":1842,"especially":1843,"Ġprop":1844,"11":1845,"Ġdiscuss":1846,"Ġbegin":1847,"Ġgre":1848,"aining":1849,"Ġ'":1850,"Ġill":1851,"Ġconsum":1852,"Ġtechnology":1853,"Ġdam":1854,"Ġchanges":1855,"Ġspecial":1856,"ĠEar":1857,"selves":1858,"Ġnecess":1859,"Ġask":1860,"Ġcrit":1861,"Ġapplic":1862,"Ġfuture":1863,"50":1864,"Ġnever":1865,"St":1866,"Ġkind":1867,"Ġleast":1868,"Ġstrong":1869,"Ġmot":1870,"nal":1871,"Ġacross":1872,"ym":1873,"How":1874,"Ġvarious":1875,"Ġhigher":1876,"af":1877,"ĠBl":1878,"ĠAfric":1879,"Ġhowever":1880,"Ġleft":1881,"Ġrespons":1882,"ique":1883,"for":1884,"Ġside":1885,"orts":1886,"Ġtry":1887,"Ġbusiness":1888,"Ġtoget":1889,"ĠGerm":1890,"Ġtogether":1891,"by":1892,"Ġtru":1893,"rug":1894,"Ġcountries":1895,"Ġnet":1896,"Ġresearc":1897,"Ġcolle":1898,"Ġcomplete":1899,"ray":1900,"ateg":1901,"aim":1902,"atch":1903,"ane":1904,"omes":1905,"Ġprofess":1906,"Ġaway":1907,"ilities":1908,"oney":1909,"ode":1910,"alf":1911,"Ġenough":1912,"Ġterm":1913,"let":1914,"duct":1915,"oman":1916,"Ġworking":1917,"ox":1918,"Ġtool":1919,"thing":1920,"aces":1921,"Ġespecially":1922,"Ġchem":1923,"aves":1924,"Ġworks":1925,"Ġhaving":1926,"oot":1927,"ued":1928,"ument":1929,"Ġrequire":1930,"Ġkey":1931,"ĠJohn":1932,"Ġcy":1933,"Ġimprove":1934,"Ġteam":1935,"Ġplants":1936,"Ġcases":1937,"Ġ198":1938,"ilt":1939,"acy":1940,"aching":1941,"ĠWar":1942,"Ġbecame":1943,"Ġcr":1944,"ires":1945,"Ġfull":1946,"Ġgeneral":1947,"NA":1948,"Ġstudies":1949,"ges":1950,"Ġz":1951,"istic":1952,"Ġways":1953,"Ġrelations":1954,"Ġrepresent":1955,"ysis":1956,"Ġeffects":1957,"Ġprim":1958,"lement":1959,"Ġaccount":1960,"sw":1961,"ales":1962,"amm":1963,"ĠEnglish":1964,"Ġsens":1965,"itor":1966,"Ġsubject":1967,"iting":1968,"Ġnorm":1969,"Ġtypes":1970,"15":1971,"Ġconsider":1972,"Ġreason":1973,"aring":1974,"Ġfund":1975,"200":1976,"ipp":1977,"ott":1978,"Ġgoing":1979,"hing":1980,"Ġmic":1981,"apt":1982,"Ġwhether":1983,"Ġstep":1984,"Ġconcer":1985,"Ġground":1986,"ency":1987,"30":1988,"side":1989,"erence":1990,"Ġhouse":1991,"aut":1992,"Ġpolic":1993,"Ġprotect":1994,"//":1995,"ae":1996,"Ġsymptoms":1997,"An":1998,"ready":1999,"Ġknowledge":2000,"ĠSome":2001,"mber":2002,"iol":2003,"ley":2004,"Ġfurther":2005,"Ġphysical":2006,"Ġmind":2007,"ĠWorld":2008,"Ġmakes":2009,"Ġself":2010,"Ġlower":2011,"chie":2012,"Ġcity":2013,"ification":2014,"For":2015,"Ġinflu":2016,"Ġrole":2017,"ĠGo":2018,"lo":2019,"Ġsum":2020,"ĠOne":2021,"Ġ30":2022,"edi":2023,"ĠLe":2024,"Ġquestion":2025,"ery":2026,"ann":2027,"ung":2028,"Ġgroups":2029,"ird":2030,"Ġpatients":2031,"Ġscience":2032,"Ġeff":2033,"Ġemploy":2034,"Ġstat":2035,"urch":2036,"16":2037,"Ġopt":2038,"unt":2039,"augh":2040,"Ġstory":2041,"...":2042,"ĠIntern":2043,"Ġchall":2044,"ĠWith":2045,"ibility":2046,"://":2047,"Ġsure":2048,"acc":2049,"Ġbig":2050,"ĠGen":2051,"atures":2052,"sych":2053,"Ġseen":2054,"Ġclose":2055,"Ġens":2056,"ĠThat":2057,"Ġvalue":2058,"Ġnut":2059,"Ġrather":2060,"Ġparticip":2061,"rel":2062,"urity":2063,"cul":2064,"Ġflu":2065,"Ġpred":2066,"Ġword":2067,"Ġdig":2068,"Ġloss":2069,"Ġ14":2070,"Ġtext":2071,"etimes":2072,"ands":2073,"Ġoffic":2074,"rams":2075,"Ġalready":2076,"Ġneg":2077,"Ġindic":2078,"Ġtoward":2079,"Ġactivity":2080,"Ġlive":2081,"right":2082,"Ġsite":2083,"Ġprob":2084,"Ġmodel":2085,"ĠCar":2086,"ream":2087,"ĠMar":2088,"Ġbelow":2089,"Ġpotential":2090,"ĠAm":2091,"ites":2092,"ĠCal":2093,"put":2094,"ables":2095,"Ġreturn":2096,"17":2097,"Ġactivities":2098,"Ġdone":2099,"amin":2100,"Ġrange":2101,"Ġwind":2102,"Ġwr":2103,"Ġevidence":2104,"Ġproducts":2105,"bon":2106,"Ġur":2107,"Ġeither":2108,"Ġresources":2109,"Ġsun":2110,"Ġtradition":2111,"esc":2112,"ĠHealth":2113,"Ġreally":2114,"ĠGe":2115,"overed":2116,"verage":2117,"Ġnational":2118,"Ġoil":2119,"oura":2120,"Ġdiet":2121,"Ġrecogn":2122,"Ġdeveloped":2123,"Ġcollect":2124,"Ġsingle":2125,"Ġphot":2126,"Ġdeg":2127,"uation":2128,"Ġgrowth":2129,"Ġfive":2130,"Ġproduction":2131,"yn":2132,"earch":2133,"Ġaccording":2134,"ĠBy":2135,"Ġlot":2136,"ĠDr":2137,"ER":2138,"ivil":2139,"ublic":2140,"Ġonce":2141,"eb":2142,"Ġquality":2143,"Ġarticle":2144,"Ġmedical":2145,"Ġfall":2146,"Ġupon":2147,"iple":2148,"13":2149,"Ġmembers":2150,"Ġevent":2151,"Ġdoct":2152,"iam":2153,"Ġrate":2154,"ches":2155,"osis":2156,"Ġmass":2157,"ival":2158,"fact":2159,"Ġrelig":2160,"Ġachie":2161,"Ġbuilding":2162,"14":2163,"idered":2164,"ule":2165,"Ġwhole":2166,"Ġbat":2167,"Ġissues":2168,"Ġindust":2169,"ĠIm":2170,"Ġtaken":2171,"Ġresearchers":2172,"ips":2173,"Ġsurface":2174,"Ġinit":2175,"Ġmeet":2176,"ĠNorth":2177,"Ġsent":2178,"When":2179,"ison":2180,"Ġcame":2181,"Ġsource":2182,"val":2183,"Ġann":2184,"Ġaddress":2185,"Ġdetail":2186,"ask":2187,"eter":2188,"ĠShe":2189,"Ġthemselves":2190,"ibr":2191,"ĠTr":2192,"Ġdest":2193,"ĠSoc":2194,"ĠAmerica":2195,"ournal":2196,"Ġred":2197,"Ġfield":2198,"Ġliving":2199,"Ġclimate":2200,"Ġnature":2201,"Ġfrequ":2202,"Ġpolitical":2203,"fer":2204,"roll":2205,"ĠAb":2206,"Ġdom":2207,"Ġreduce":2208,"Ġcannot":2209,"Ġhold":2210,"Ġconcept":2211,"Ġabs":2212,"Ġdrug":2213,"Ġcut":2214,"ĠMay":2215,"Ġwhite":2216,"ety":2217,"rect":2218,"Ġquestions":2219,"Ġconsidered":2220,"Ġtot":2221,"rict":2222,"Ġcreated":2223,"Ġ197":2224,"ĠSouth":2225,"Ġpaper":2226,"Ġthought":2227,"Ġwide":2228,"ĠAust":2229,"ĠYork":2230,"Ġobserv":2231,"reme":2232,"org":2233,"Ġfri":2234,"Ġtell":2235,"leep":2236,"fficient":2237,"plic":2238,"illed":2239,"like":2240,"enn":2241,"Ġintrodu":2242,"):":2243,"reg":2244,"apan":2245,"ront":2246,"Ġver":2247,"Ġfail":2248,"ĠRep":2249,"Ġlay":2250,"Ġitself":2251,"Ġincreased":2252,"Ġassociated":2253,"Ġstates":2254,"ĠAss":2255,"Ġactually":2256,"Ġsize":2257,"Ġ13":2258,"sh":2259,"Ġanimals":2260,"Ġrights":2261,"Ġhistor":2262,"ĠStud":2263,"Ġpressure":2264,"Ġrecomm":2265,"Ġadult":2266,"Ġskills":2267,"Ġsound":2268,"âĢ¦":2269,"epend":2270,"ober":2271,"Ġdoc":2272,"oon":2273,"Ġblack":2274,"utions":2275,"Ġweek":2276,"Ġalmost":2277,"Ġweight":2278,"Ġunderstanding":2279,"Ġpay":2280,"Ġsimple":2281,"Ġfamil":2282,"\".":2283,"ma":2284,"Ġmor":2285,"Ġpublished":2286,"Ġsoil":2287,"Ġrequired":2288,"Ġglobal":2289,"Ġentire":2290,"ĠMan":2291,"Ġ=":2292,"ĠAct":2293,"ĠSy":2294,"SA":2295,"Ġpractice":2296,"ĠPr":2297,"Ġskin":2298,"artment":2299,"Ġrelationship":2300,"Ġopportun":2301,"Ġcomplex":2302,"sequ":2303,"Ġrelated":2304,"Ġarg":2305,"ĠEarth":2306,"Ġeconomic":2307,"ened":2308,"Ġsal":2309,"Ch":2310,"ivity":2311,"aced":2312,"Ġidea":2313,"Ġmaint":2314,"Ġfat":2315,"Ġstress":2316,"Ġstudent":2317,"olic":2318,"oph":2319,"Ġmarket":2320,"Ġneeded":2321,"itud":2322,"Ġeffective":2323,"Ġquick":2324,"Ġprovides":2325,"Ġcondition":2326,"ney":2327,"ging":2328,"Ġability":2329,"ush":2330,"Ġtook":2331,"aged":2332,"lying":2333,"ĠDep":2334,"light":2335,".)":2336,"go":2337,"Ġmaterials":2338,"Ġfish":2339,"Ġmodern":2340,"hib":2341,"Ġspe":2342,"Ġhalf":2343,"itary":2344,"Ġhtt":2345,"Ġclaim":2346,"To":2347,"Ġengine":2348,"Al":2349,"pro":2350,"erve":2351,"Ġmanagement":2352,"oll":2353,"Ġpriv":2354,"Ġpurp":2355,"oses":2356,"Ġcomes":2357,"rown":2358,"Ġparts":2359,"Ġport":2360,"acks":2361,"Ġmoney":2362,"ĠHist":2363,"ĠGu":2364,"ening":2365,"Ġsuper":2366,"gest":2367,"eds":2368,"ai":2369,"Ġexerc":2370,"Ġarch":2371,"rad":2372,"ores":2373,"ump":2374,"Ġprote":2375,"cient":2376,"Ġsuff":2377,"Ġavoid":2378,"Ġvers":2379,"Ġexperien":2380,"Ġhealthy":2381,"ĠState":2382,"utes":2383,"ply":2384,"Ġnecessary":2385,"Ġcat":2386,"Ġbegan":2387,"aging":2388,"urs":2389,"Ġfire":2390,"vere":2391,"Ġservices":2392,"Ġreact":2393,"chan":2394,"ĠHis":2395,"Ġever":2396,"Ġansw":2397,"Ġconduct":2398,"ese":2399,"my":2400,"Ġpath":2401,"ĠX":2402,"ĠJapan":2403,"mb":2404,"Ġarr":2405,"Ġyet":2406,"Ġcoll":2407,"inter":2408,"Ġparents":2409,"Ġmonths":2410,"Ġlink":2411,"Ġgreen":2412,"Ġmedic":2413,"Ġ|":2414,"ript":2415,"usion":2416,"Ġregion":2417,"Ġapproach":2418,"irm":2419,"Ġ196":2420,"Ġsense":2421,"Ġcop":2422,"Ġhours":2423,"Ġge":2424,"Ġcomputer":2425,"Ġassess":2426,"abit":2427,"Ġgas":2428,"Wh":2429,"Ġbar":2430,"Ġ100":2431,"Ġsepar":2432,"son":2433,"uel":2434,"Ġstop":2435,"nces":2436,"ume":2437,"ĠBritish":2438,"Ġrul":2439,"izing":2440,"empt":2441,"ences":2442,"Ġdog":2443,"ensive":2444,"Ġchemical":2445,"Ġliter":2446,"Ġproduce":2447,"het":2448,"Ġemer":2449,"Ġpopular":2450,"bo":2451,"abor":2452,"Ġfactors":2453,"ze":2454,"iddle":2455,"rated":2456,"Ġthroughout":2457,"Ġheat":2458,"Ġ50":2459,"ederal":2460,"ĠCo":2461,"Ġprinc":2462,"ections":2463,"estern":2464,"Ġmeasure":2465,"ĠCont":2466,"based":2467,"ĠCanad":2468,"Ġtar":2469,"Ġpattern":2470,"Ġanalysis":2471,"You":2472,"iction":2473,"Ġsam":2474,"Ġrecent":2475,"Ġpersonal":2476,"Ġregard":2477,"erous":2478,"ĠDo":2479,"Ġsoft":2480,"Ġaction":2481,"Ġincreasing":2482,"igure":2483,"ĠComp":2484,"gar":2485,"Ġbehavior":2486,"Ġcolor":2487,"Ġtaking":2488,"Ġjob":2489,"yl":2490,"Ġreading":2491,"hold":2492,"Ġrepl":2493,"ĠAfter":2494,"Ġonline":2495,"Ġtherap":2496,"uck":2497,"icles":2498,"ES":2499,"ĠNe":2500,"Ġprevious":2501,"ising":2502,"Ġservice":2503,"Ġlonger":2504,"Ġinteract":2505,"Ġshows":2506,"ĠJew":2507,"Ġconc":2508,"pid":2509,"ccording":2510,"Ġtalk":2511,"Ġindividuals":2512,"ulations":2513,"Ġdisord":2514,"Ġut":2515,"Ġla":2516,"Ġfarm":2517,"emic":2518,"Ġcontent":2519,"Ġstructure":2520,"--":2521,"Ġprovided":2522,"Ġsix":2523,"Ġposition":2524,"onse":2525,"Ġbur":2526,"Ġenvironmental":2527,"Ġmatter":2528,"Ġsurv":2529,"Ġtotal":2530,"ows":2531,"Ġsociety":2532,"Ġfeed":2533,"Ġtrue":2534,"rate":2535,"Ġbuilt":2536,"ĠPe":2537,"minist":2538,"Ġthing":2539,"Ġ25":2540,"abet":2541,"Ġindustry":2542,"Ġterms":2543,"ID":2544,"Ġmeaning":2545,"wh":2546,"Ġbring":2547,"ĠResearch":2548,"Ġwriting":2549,"Ġviol":2550,"Ã©":2551,"ĠInstit":2552,"ene":2553,"ched":2554,"istance":2555,"Ġsex":2556,"Ġheav":2557,"aries":2558,"Ġcaused":2559,"Ġtemperature":2560,"Ġdeb":2561,"yle":2562,"ister":2563,"Ġcheck":2564,"Ġmusic":2565,"Ġbreak":2566,"lands":2567,"vey":2568,"Ġmedia":2569,"lor":2570,"Ġinj":2571,"Ġdesigned":2572,"Ġ11":2573,"ricult":2574,"Ġtraining":2575,"Ġrev":2576,"mon":2577,"Ġaccept":2578,"lt":2579,"inary":2580,"Ġast":2581,"ĠII":2582,"Ġcompany":2583,"ns":2584,"Ġprograms":2585,"ucle":2586,"Ġshown":2587,"Ġcontact":2588,"Ġexperim":2589,"Ġsat":2590,"fully":2591,"Ġce":2592,"Ġearth":2593,"Ġlives":2594,"anced":2595,"reng":2596,"Ġetc":2597,"aily":2598,"ĠWhile":2599,"Ġincludes":2600,"rought":2601,"Ġlove":2602,"ĠSchool":2603,"aff":2604,"Ġsleep":2605,"Ġoriginal":2606,"Ġmethods":2607,"Ġdiagn":2608,"Ġculture":2609,"hood":2610,"rench":2611,"dom":2612,"Ġbenefits":2613,"Ġthreat":2614,"astic":2615,"Ġpage":2616,"Ġeasy":2617,"Ġrelative":2618,"Ġsafe":2619,"istics":2620,"atives":2621,"Ġled":2622,"ĠSec":2623,"Ġcauses":2624,"lex":2625,"Ġtravel":2626,"ronic":2627,"ropri":2628,"Ġcontain":2629,"Ġvari":2630,"ĠEm":2631,"imately":2632,"duc":2633,"Ġpositive":2634,"Ġslow":2635,"Ġsometimes":2636,"Ġsimply":2637,"Ġpoll":2638,"asc":2639,"Ġexc":2640,"osition":2641,"ĠSu":2642,"Ġschools":2643,"amed":2644,"ington":2645,"Ġclean":2646,"Ġvide":2647,"ĠNo":2648,"umb":2649,"Ġwild":2650,"Ġ194":2651,"Ġstandard":2652,"Ġbelieve":2653,"Ġlif":2654,"aving":2655,"ades":2656,"Ġmach":2657,"Ġvariety":2658,"itation":2659,"Ġmicro":2660,"Ġmovement":2661,"Ġgreater":2662,"Ġemb":2663,"Ġscientists":2664,"ĠKing":2665,"Ġspread":2666,"ius":2667,"rim":2668,"ners":2669,"ĠPres":2670,"rior":2671,"Ġtarget":2672,"Ġsubst":2673,"Ġorigin":2674,"Ġaverage":2675,"Ġeat":2676,"ĠÂ":2677,"uge":2678,"Ġissue":2679,"AT":2680,"Ġuses":2681,"Ġreported":2682,"Ġdeep":2683,"Ġwritten":2684,"AR":2685,"Ġregular":2686,"Ġinvolved":2687,"cil":2688,"Ġple":2689,"rast":2690,"new":2691,"Ġprec":2692,"But":2693,"Ġste":2694,"ervation":2695,"Ġcamp":2696,"Ġmechan":2697,"Ġpsych":2698,"ĠPar":2699,"ights":2700,"ĠAustral":2701,"Ġcarbon":2702,"aches":2703,"ĠIndia":2704,"arily":2705,"ban":2706,"eration":2707,"Ġfru":2708,"Ġevents":2709,"Ġfem":2710,"Ġpict":2711,"Ġdemon":2712,"Ġrespect":2713,"Ġ--":2714,"____":2715,"Ġforms":2716,"bor":2717,"Ġforce":2718,"Ġrefer":2719,"aling":2720,"Ġbacter":2721,"Ġdoing":2722,"Ġimage":2723,"Ġdeveloping":2724,"Ġsources":2725,"ufact":2726,"Ġparticularly":2727,"ĠPer":2728,"know":2729,"Ġbr":2730,"Ġdamage":2731,"ĠMin":2732,"ials":2733,"Ġforest":2734,"Ġnetwork":2735,"Ġnormal":2736,"rand":2737,"Ġidentify":2738,"ĠScience":2739,"rie":2740,"Ġencoura":2741,"Ġbasic":2742,"Ġfoods":2743,"ief":2744,"Ġcompan":2745,"Ġshare":2746,"Ġtax":2747,"Ġlog":2748,"22":2749,"Ġface":2750,"ĠChina":2751,"IN":2752,"Ġattempt":2753,"lies":2754,"Ġstreng":2755,"Ġlate":2756,"Ġoutside":2757,"ops":2758,"Ġlack":2759,"Ġwood":2760,"verse":2761,"Ġhelps":2762,"osure":2763,"ength":2764,"ender":2765,"Ġreview":2766,"ĠAug":2767,"ached":2768,"Ġpoor":2769,"Ġresponse":2770,"hest":2771,"Ġimplement":2772,"Ġserious":2773,"Ġec":2774,"Ġremov":2775,"Ġcompon":2776,"ĠEd":2777,"Ġproduced":2778,"Ġgenerally":2779,"Ġattention":2780,"ctions":2781,"Ġextreme":2782,"Ġcross":2783,"ĠJes":2784,"oor":2785,"oly":2786,"ĠWill":2787,"Ġensure":2788,"isions":2789,"Ġcust":2790,"Ġcompet":2791,"Ġsqu":2792,"Ġgrowing":2793,"Ġap":2794,"Ġmess":2795,"Ġvisit":2796,"ĠHar":2797,"Ġideas":2798,"ĠCenter":2799,"Ġseries":2800,"Ġinteg":2801,"ises":2802,"Ġteachers":2803,"Ġsea":2804,"Ġharm":2805,"uth":2806,"ribution":2807,"Ġsou":2808,"irit":2809,"Ġago":2810,"ana":2811,"Ġcoun":2812,"Ġnumbers":2813,"imum":2814,"ĠJu":2815,"Ġprobably":2816,"Ġsafety":2817,"Ġconsist":2818,"elling":2819,"amb":2820,"Ġinternational":2821,"Ġdraw":2822,"Ġvirus":2823,"ĠJan":2824,"Ġaff":2825,"uary":2826,"vention":2827,"Ġsust":2828,"Ġbal":2829,"ming":2830,"set":2831,"Ġmother":2832,"Ġfeet":2833,"Ġemot":2834,"Ġexpress":2835,"erg":2836,"ĠCount":2837,"ls":2838,"ided":2839,"Ġfa":2840,"Ġox":2841,"Ġselect":2842,"Ġcommit":2843,"ĠMe":2844,"Ġcit":2845,"haps":2846,"oles":2847,"Ġprep":2848,"Ġcontinue":2849,"Ġlat":2850,"Ġleaders":2851,"ON":2852,"25":2853,"ecause":2854,"erson":2855,"On":2856,"Ġdispl":2857,"Ġ24":2858,"ror":2859,"Ġvit":2860,"Ġwebs":2861,"ĠQu":2862,"ĠPart":2863,"Ġdou":2864,"Ġpolicy":2865,"Ġattack":2866,"OR":2867,"where":2868,"Ġindepend":2869,"osing":2870,"Ġchalleng":2871,"Ġnight":2872,"Ġir":2873,"ground":2874,"ems":2875,"ĠApp":2876,"Ġelectric":2877,"Ġdefin":2878,"raft":2879,"cies":2880,"iforn":2881,"ties":2882,"Ġveget":2883,"inks":2884,"Ġcorrect":2885,"oes":2886,"Ġanimal":2887,"iot":2888,"Ġthus":2889,"Ġ/":2890,"Ġessential":2891,"Ġincluded":2892,"Ġgetting":2893,"Ġhyd":2894,"fect":2895,"Ġtherefore":2896,"Ġpatient":2897,"Ġtakes":2898,"ĠInt":2899,"ĠMany":2900,"Ġconcent":2901,"Ġestablished":2902,"issions":2903,"IS":2904,"Ġcover":2905,"na":2906,"Ġestim":2907,"useum":2908,"Ġwall":2909,"Ġinstead":2910,"ying":2911,"Ġaware":2912,"overy":2913,"Ġ2010":2914,"ĠFrench":2915,"Ġlooking":2916,"ĠBo":2917,"Ġdoesn":2918,"Ġmagn":2919,"Ġsomeone":2920,"abetes":2921,"room":2922,"Ġeth":2923,"Ġkids":2924,"Ġinstit":2925,"itude":2926,"Ġcivil":2927,"ha":2928,"rew":2929,"Ġmanufact":2930,"ĠEduc":2931,"ĠPre":2932,"cell":2933,"Ġbab":2934,"Ġcolon":2935,"Ġpoints":2936,"ography":2937,"Ġmilitary":2938,"Ġtown":2939,"Ġdang":2940,"ifornia":2941,"ancial":2942,"Ġinvestig":2943,"Ġbooks":2944,"ĠCons":2945,"Ġquite":2946,"Ġthous":2947,"Ġdaily":2948,"rs":2949,"hel":2950,"Ġprint":2951,"Ġtheory":2952,"Ġheld":2953,"www":2954,"ĠInstitute":2955,"Ġsecurity":2956,"Ġeasily":2957,"Ġtree":2958,"Ġwarm":2959,"ension":2960,"Ġbirth":2961,"Ġthird":2962,"ĠMore":2963,"ĠRuss":2964,"ĠGerman":2965,"ads":2966,"ext":2967,"Ġdiv":2968,"Ġdifference":2969,"Ġ2012":2970,"ift":2971,"Ġtur":2972,"Ġadded":2973,"Ġful":2974,"ĠEl":2975,"ceed":2976,"Ġtraditional":2977,"Ġcommunities":2978,"Ġdetermine":2979,"Ġprimary":2980,"ĠAc":2981,"asons":2982,"Ġscientific":2983,"ĠAg":2984,"ino":2985,"Ġcompared":2986,"ille":2987,"ĠDepartment":2988,"Ġstarted":2989,"ĠIndian":2990,"Ġcapt":2991,"ĠEuropean":2992,"Ġreflect":2993,"Ġlarger":2994,"Ġtools":2995,"Ġ40":2996,"Ġnation":2997,"Ġappropri":2998,"Ġimmedi":2999,"Ġfav":3000,"Ġsolar":3001,"AN":3002,"Ġspeed":3003,"undred":3004,"ounds":3005,"Ġreve":3006,"Ġprogress":3007,"Ġunique":3008,"Ġseems":3009,"Ġvacc":3010,"Ġfamilies":3011,"Ġallows":3012,"Ġinside":3013,"Ġdirectly":3014,"elt":3015,"Ġdoctor":3016,"Ġfront":3017,"Ġbit":3018,"Ġdocument":3019,"Ġquickly":3020,"Ġtrees":3021,"Ġoffer":3022,"Ġnegative":3023,"Ġsil":3024,"Ġachieve":3025,"Ġhumans":3026,"Ġperformance":3027,"Ġmultiple":3028,"den":3029,"ĠFran":3030,"hern":3031,"ĠMost":3032,"ellow":3033,"Ġalthough":3034,"Ġeval":3035,"lied":3036,"Ġdiseases":3037,"Ġdemonstr":3038,"ĠGl":3039,"Ġaltern":3040,"Ġsold":3041,"Ġactive":3042,"Ġspeak":3043,"Ġwent":3044,"pril":3045,"21":3046,"Ġdecre":3047,"Ġeye":3048,"Ġadditional":3049,"ĠMarch":3050,"Ġhighly":3051,"orks":3052,"ĠCalifornia":3053,"thern":3054,"ĠYour":3055,"23":3056,"Ġinfection":3057,"Ġbehind":3058,"rig":3059,"Ġacid":3060,"Ġaspect":3061,"gency":3062,"Ġmental":3063,"iency":3064,"Ġcompanies":3065,"Ġaud":3066,"ĠJune":3067,"Ġtiss":3068,"uries":3069,"Ġhar":3070,"Ġtri":3071,"Ġrout":3072,"ridge":3073,"rance":3074,"Ġnucle":3075,"Ġ2011":3076,"ĠChristian":3077,"omet":3078,"Ġsevere":3079,"ancy":3080,"IC":3081,"Ġhabit":3082,"Ġlabor":3083,"Ġtend":3084,"Ġhttp":3085,"Ġwhose":3086,"Ġdrink":3087,"uman":3088,"anks":3089,"Ġcentral":3090,"ĠOct":3091,"yond":3092,"Ġfoot":3093,"joy":3094,"Ġextra":3095,"Ġwalk":3096,"Ġgard":3097,"Ġsoon":3098,"Ġbeginning":3099,"One":3100,"Ġbase":3101,"oming":3102,"Ġtransport":3103,"olar":3104,"Ġi":3105,"Ġhost":3106,"rition":3107,"Ġanswer":3108,"ulate":3109,"formation":3110,"Ġinterp":3111,"ĠChar":3112,"cean":3113,"leb":3114,"Ġgame":3115,"He":3116,"Ġhot":3117,"Ġbroad":3118,"mar":3119,"iter":3120,"Ġelements":3121,"Ġsus":3122,"ĠInternational":3123,"iers":3124,"Ġexercise":3125,"ĠJesus":3126,"Ġhor":3127,"Ġprotection":3128,"aly":3129,"Ġstri":3130,"ĠWest":3131,"ĠArt":3132,"orthern":3133,"iques":3134,"term":3135,"Ġcritical":3136,"rogen":3137,"ĠAfrican":3138,"inese":3139,"Ġthinking":3140,"Ġleading":3141,"Ġprior":3142,"ĠBar":3143,"ĠAugust":3144,"Ġdecl":3145,"Ġfram":3146,"ĠRec":3147,"Ġnorth":3148,"Ġdry":3149,"lier":3150,"nov":3151,"Ġlost":3152,"Ġelse":3153,"ilos":3154,"ims":3155,"coh":3156,"Ġbad":3157,"lation":3158,"Ġsupply":3159,"So":3160,"âĢ¢":3161,"Ġanaly":3162,"ĠRet":3163,"ĠCO":3164,"ashington":3165,"Ġclin":3166,"Ġexpect":3167,"Ġvideo":3168,"Ġsection":3169,"Ġproced":3170,"ĠSm":3171,"Ġprotein":3172,"ĠHistory":3173,"Ġmount":3174,"Ġpurpose":3175,"Ġvalues":3176,"ĠOther":3177,"Ġtowards":3178,"pe":3179,"Ġancient":3180,"Ġobt":3181,"Ġreceived":3182,"40":3183,"Ġuseful":3184,"Ġcard":3185,"ĠDav":3186,"isms":3187,"ĠJuly":3188,"vant":3189,"ĠGree":3190,"Ġteaching":3191,"ĠChild":3192,"Ġord":3193,"Ġlimited":3194,"see":3195,"Ġstay":3196,"iber":3197,"ields":3198,"ĠAlthough":3199,"ils":3200,"ĠHer":3201,"ĠSept":3202,"IV":3203,"Ġcapital":3204,"Ġfight":3205,"Ġsituation":3206,"ĠAfrica":3207,"Ġhundred":3208,"Ġlargest":3209,"ĠNot":3210,"Ġcontains":3211,"Ġdescribed":3212,"ching":3213,"Ġsymb":3214,"cks":3215,"Ġstrateg":3216,"Ġdark":3217,"Ġjo":3218,"Ġbrought":3219,"Ġjud":3220,"ĠPress":3221,"Ġprivate":3222,"Ġ2009":3223,"Ġdecision":3224,"ĠOf":3225,"Ġminutes":3226,"ĠCor":3227,"Ġcontribut":3228,"Ġnews":3229,"oring":3230,"Ġ,":3231,"iles":3232,"Ġcred":3233,"Ġremains":3234,"Ġmom":3235,"Ġcustom":3236,"wise":3237,"sect":3238,"rote":3239,"Ġreligious":3240,"Ġadminist":3241,"Ġfeatures":3242,"lection":3243,"Ġx":3244,"199":3245,"rael":3246,"Ġaccur":3247,"Ġones":3248,"mission":3249,"arr":3250,"Ġagree":3251,"Ġinfluence":3252,"ription":3253,"omb":3254,"hens":3255,"ĠMus":3256,"istry":3257,"Ġlocated":3258,"Ġadults":3259,"Ġsearch":3260,"ĠSch":3261,"Ġadop":3262,"Ġhands":3263,"At":3264,"used":3265,"Ġfast":3266,"Ġestablish":3267,"arian":3268,"Ġstra":3269,"Ġsouth":3270,"Ġcapac":3271,"ĠRiver":3272,"Ġunc":3273,"Ġshall":3274,"Ġimages":3275,"ĠKe":3276,"ĠAnt":3277,"Ġgot":3278,"Ġfinancial":3279,"eal":3280,"Ġquant":3281,"Ġcarry":3282,"Ġgoal":3283,"come":3284,"ibrary":3285,"Ġwrite":3286,"60":3287,"ologies":3288,"Ġmill":3289,"Ġnearly":3290,"Ġ21":3291,"Ġpack":3292,"ĠMon":3293,"Ġapplication":3294,"med":3295,"ĠCong":3296,"uk":3297,"And":3298,"Ġsoftware":3299,"Ġenjoy":3300,"Ġseason":3301,"ĠTra":3302,"Ġworkers":3303,"Ġcool":3304,"Ġrates":3305,"izations":3306,"ĠProg":3307,"ĠUs":3308,"oud":3309,"Ġlaws":3310,"estic":3311,"Ġagricult":3312,"imin":3313,"Ġdisp":3314,"Ġexact":3315,"Ġexcept":3316,"Ġbeaut":3317,"Ġblock":3318,"Ġcommand":3319,"âĢĿ.":3320,"ĠTw":3321,"life":3322,"Ġremain":3323,"PA":3324,"Ġplaces":3325,"80":3326,"Ġfather":3327,"Ġrequires":3328,"Ġbecomes":3329,"Ġdead":3330,"fort":3331,"udd":3332,"inct":3333,"Ġhimself":3334,"Ġreach":3335,"ĠApril":3336,"ĠEngland":3337,"pper":3338,"itis":3339,"att":3340,"ĠChinese":3341,"Ġfederal":3342,"Ġlength":3343,"Ġborn":3344,"Ġimag":3345,"ster":3346,"gn":3347,"Ġang":3348,"ulated":3349,"'re":3350,"Ġstru":3351,"aul":3352,"ĠFirst":3353,"equ":3354,"Ġep":3355,"Ġwa":3356,"bit":3357,"odies":3358,"ĠReg":3359,"Ġtests":3360,"rag":3361,"Ġefforts":3362,"Ġvict":3363,"Ġdemand":3364,"Ġcoast":3365,"oke":3366,"ĠAmericans":3367,"vest":3368,"ĠSw":3369,"Ġmole":3370,"Ġmiles":3371,"Ġtold":3372,"ĠAssoci":3373,"Ġbasis":3374,"Ġsaw":3375,"ĠServ":3376,"Ġsustain":3377,"Ġlines":3378,"uous":3379,"Ġrare":3380,"Ġcitiz":3381,"Ġweeks":3382,"ĠGovern":3383,"Ġforces":3384,"ĠHere":3385,"EN":3386,"Ġsites":3387,"cember":3388,"Ġdevices":3389,"ĠMy":3390,"itect":3391,"imal":3392,"water":3393,"Ġsn":3394,"AS":3395,"co":3396,"entially":3397,"Ġimportance":3398,"uments":3399,"year":3400,"Ġproperty":3401,"ama":3402,"alled":3403,"ondon":3404,"Ġcosts":3405,"Ġmention":3406,"Ġeating":3407,"ira":3408,"ipment":3409,"alt":3410,"Ġsurround":3411,"aid":3412,"Ġdigital":3413,"ĠWashington":3414,"atur":3415,"ĠMc":3416,"ovember":3417,"cohol":3418,"ĠPresident":3419,"Ġult":3420,"Ġmemory":3421,"Ġbacteria":3422,"idents":3423,"iece":3424,"Ġ2008":3425,"Ġdevice":3426,"ĠCanada":3427,"Ġnothing":3428,"Ġprojects":3429,"Ġhous":3430,"Ġleaves":3431,"Ġsummer":3432,"Ġegg":3433,"Ġsolution":3434,"Ġeyes":3435,"Ġobjects":3436,"Ġfriends":3437,"Ġrespond":3438,"24":3439,"resh":3440,"Ġtit":3441,"Ġdied":3442,"Ġtechniques":3443,"Ġrapid":3444,"Ġtypically":3445,"Ġmis":3446,"Ġcenter":3447,"Ġtable":3448,"Ġwaste":3449,"Ġveh":3450,"Ġcou":3451,"Ġappropriate":3452,"Ġfit":3453,"Ġmonitor":3454,"Ġpan":3455,"Ġanything":3456,"cial":3457,"Ġwebsite":3458,"king":3459,"ype":3460,"ĠIsrael":3461,"Ġhope":3462,"Ġ2013":3463,"Ġbul":3464,"apter":3465,"ĠEducation":3466,"Ġresponsible":3467,"Ġapplications":3468,"Ġcommunication":3469,"Ġprocesses":3470,"Ġson":3471,"iar":3472,"izes":3473,"ĠCity":3474,"Ġtesting":3475,"Ġspirit":3476,"Ġgives":3477,"Ġadj":3478,"cles":3479,"ham":3480,"Ġcultural":3481,"Ġ:":3482,"Ġder":3483,"sec":3484,"Ġfollowed":3485,"Ġcreating":3486,"aught":3487,"ĠDay":3488,"Ġeverything":3489,"Ġteacher":3490,"ĠFrom":3491,"ixed":3492,"Ġadapt":3493,"ED":3494,"Ġbeyond":3495,"Ġlegal":3496,"ford":3497,"ĠJournal":3498,"Ġking":3499,"Ġconstit":3500,"Ġpractices":3501,"Ġolder":3502,"ĠWilliam":3503,"Ġmid":3504,"Ġasked":3505,"IT":3506,"ĠPol":3507,"Ġ2007":3508,"ipl":3509,"anish":3510,"ĠJanuary":3511,"Ġconstruction":3512,"Ġfinal":3513,"lin":3514,"Ġdiabetes":3515,"Ġrecently":3516,"ĠChurch":3517,"Ġtrade":3518,"back":3519,"Ġsugar":3520,"head":3521,"Ġpen":3522,"Ġexamples":3523,"omy":3524,"Ġautom":3525,"Ġinsp":3526,"ĠFeb":3527,"Ġcommunic":3528,"Ġdepend":3529,");":3530,"ocol":3531,"ogen":3532,"Ġcontroll":3533,"Ġbott":3534,"ĠGreat":3535,"edia":3536,"Ġcam":3537,"Ġmiddle":3538,"Ġceleb":3539,"Ġdate":3540,"These":3541,"ĠPark":3542,"Ġexpected":3543,"ĠSeptember":3544,"ony":3545,"mosp":3546,"Ġguid":3547,"iples":3548,"Ġbreat":3549,"Ġcode":3550,"Ġbenefit":3551,"exic":3552,"Ġanti":3553,"Ġadvant":3554,"Ġcold":3555,"Ġconnect":3556,"Ġfear":3557,"ĠOctober":3558,"ests":3559,"Ġsmaller":3560,"Ġcrop":3561,"By":3562,"Ġstandards":3563,"uit":3564,"Ġweb":3565,"Ġgradu":3566,"Ġreasons":3567,"Ġproviding":3568,"Ġice":3569,"Ġreceive":3570,"Ġdestro":3571,"Ġeconomy":3572,"enge":3573,"Ġund":3574,"edom":3575,"Ġcontinued":3576,"ought":3577,"Ġpet":3578,"Ġten":3579,"illing":3580,"Ġfuel":3581,"Ġpoly":3582,"Ġinstru":3583,"Ġfile":3584,"Ġconsequ":3585,"emy":3586,"Ġchoose":3587,"Ġbehavi":3588,"Ġlocation":3589,"Ġtherapy":3590,"Ġ23":3591,"Ġscreen":3592,"ĠSan":3593,"ĠDevelop":3594,"Ġuser":3595,"Ġcurrently":3596,"Ġrules":3597,"ĠIS":3598,"Ġplanet":3599,"Ġformer":3600,"Ġstage":3601,"Ex":3602,"Ġbillion":3603,"Ġsett":3604,"ĠTechn":3605,"ĠEast":3606,"ev":3607,"Ġopportunity":3608,"Ġwoman":3609,"Ġcompletely":3610,"Ġcru":3611,"men":3612,"Ġeffort":3613,"can":3614,"Ġrain":3615,"aur":3616,"Ġorganization":3617,"Ġconflic":3618,"Ġapprox":3619,"hemat":3620,"Ġexposure":3621,"gypt":3622,"Ġsuccessful":3623,"With":3624,"Ġcalcul":3625,"Ġalone":3626,"Ġwrote":3627,"ĠVal":3628,"Ġcollection":3629,"Ġbeg":3630,"ĠInc":3631,"book":3632,"ĠDecember":3633,"ĠEven":3634,"Ġoccup":3635,"strial":3636,"Ġ193":3637,"ellig":3638,"Ġleave":3639,"AC":3640,"Ġdifferences":3641,"Ġneigh":3642,"Ġaffected":3643,"Ġwinter":3644,"off":3645,"rieved":3646,"vert":3647,"ĠArch":3648,"Ġbirds":3649,"Ġtrying":3650,"ios":3651,"ĠCoun":3652,"ribute":3653,"Ġgoes":3654,"While":3655,"ĠVir":3656,"ĠLear":3657,"Ġearlier":3658,"ords":3659,"Ġoccurs":3660,"Ġelectr":3661,"Ġgenetic":3662,"Ġmember":3663,"Ġequipment":3664,"Ġnamed":3665,"Ġmiss":3666,"ĠCounty":3667,"airs":3668,"ĠNovember":3669,"ĠLondon":3670,"Ġmodels":3671,"ĠOur":3672,"load":3673,"Ġroom":3674,"ĠSystem":3675,"ĠDis":3676,"ĠTrans":3677,"Ġcra":3678,"ica":3679,"mitted":3680,"Ġwon":3681,"ĠRed":3682,"Ġ60":3683,"Ġscale":3684,"Ġsequ":3685,"Ġshape":3686,"oe":3687,"Ġcourt":3688,"ĠCommun":3689,"aters":3690,"ocks":3691,"Ġhon":3692,"Ġconstant":3693,"ĠAccording":3694,"Ġdegree":3695,"ĠCom":3696,"Ġallowed":3697,"ingu":3698,"Ġden":3699,"ocr":3700,"urg":3701,"Ġeveryone":3702,"Ġinteresting":3703,"Ġvia":3704,"ula":3705,"ruary":3706,"iable":3707,"rees":3708,"Ġchurch":3709,"Ġsch":3710,"Ġswe":3711,"26":3712,"time":3713,"Ġmeasures":3714,"Ġyourself":3715,"ĠLaw":3716,"Ġrecommend":3717,"Ġprofessional":3718,"Ġusers":3719,"Ġteeth":3720,"Ġdrugs":3721,"27":3722,"Ġeight":3723,"ensity":3724,"ky":3725,"Ġdeal":3726,"Ġformed":3727,"Ġstrength":3728,"oday":3729,"more":3730,"ĠSociety":3731,"wide":3732,"Ġhyp":3733,"Ġplaced":3734,"Ġwond":3735,"tery":3736,"ibly":3737,"Ġmaintain":3738,"itable":3739,"Ġcommonly":3740,"ĠRoman":3741,"Ġpregn":3742,"Ġdiscovered":3743,"Ġpurch":3744,"Ġperfect":3745,"ĠMexic":3746,"ara":3747,"lamm":3748,"irection":3749,"Ġmax":3750,"Ġvisual":3751,"lam":3752,"Ġrule":3753,"Ġperhaps":3754,"Ġrise":3755,"Ġteach":3756,"ĠThen":3757,"Ġgir":3758,"ĠSim":3759,"29":3760,"ding":3761,"ĠBi":3762,"Ġexec":3763,"Ġreduced":3764,"Ġapplied":3765,"Ġoverall":3766,"orge":3767,"ospital":3768,"uff":3769,"II":3770,"ĠDNA":3771,"ĠHigh":3772,"AL":3773,"Ġpredict":3774,"Ġweather":3775,"oration":3776,"Ġfair":3777,"Ġpow":3778,"Ġhistorical":3779,"Ġcoming":3780,"Ġvirt":3781,"reet":3782,"Ġgave":3783,"Ġcommerc":3784,"Ġtele":3785,"Ġcateg":3786,"EC":3787,"Ġdisplay":3788,"\",":3789,"ĠRead":3790,"Ġroad":3791,"Ġrock":3792,"ĠDuring":3793,"iful":3794,"ĠBlack":3795,"Ġsteps":3796,"Ġidentified":3797,"Ġsymbol":3798,"Ġisn":3799,"Ġenter":3800,"Ġstatus":3801,"Ġriver":3802,"Ġevolution":3803,"Ġemp":3804,"rec":3805,"Pro":3806,"Ġdidn":3807,"Ġmob":3808,"Ġshowed":3809,"Ġmig":3810,"Ġpresence":3811,"phas":3812,"Ġenh":3813,"Some":3814,"Ġvill":3815,"encies":3816,"Ġpowerful":3817,"Ġmajority":3818,"Ġrelatively":3819,"ĠEgypt":3820,"Ġtou":3821,"force":3822,"ĠAlso":3823,"Ġtox":3824,"Ġcontext":3825,"itch":3826,"Ġnote":3827,"odes":3828,"Ġtrack":3829,"Ġacqu":3830,"Ġrich":3831,"ĠGermany":3832,"Ġjoint":3833,"Ġfruit":3834,"ĠInst":3835,"unch":3836,"rab":3837,"ĠBecause":3838,"Ġmoving":3839,"Ġassign":3840,"ĠHouse":3841,"Ġrob":3842,"osy":3843,"aled":3844,"Ġincreases":3845,"iate":3846,"known":3847,"ĠPat":3848,"Ġ195":3849,"Ġfully":3850,"70":3851,"Ġatmosp":3852,"ees":3853,"Ġactions":3854,"28":3855,"bre":3856,"ĠCongress":3857,"Ġantib":3858,"Ġcities":3859,"Ġgold":3860,"Ġsect":3861,"Ġappears":3862,"Ġillness":3863,"Ġunit":3864,"bl":3865,"Ġproperties":3866,"related":3867,"ĠNow":3868,"Ġversion":3869,"ĠWater":3870,"oted":3871,"ste":3872,"aint":3873,"Ġmut":3874,"Ġpeace":3875,"ero":3876,"Ġpiece":3877,"Ġremember":3878,"Ġphilos":3879,"craft":3880,"ĠRetrieved":3881,"Ġmouth":3882,"ĠProt":3883,"Ġchoice":3884,"Ġworked":3885,"Ġsitu":3886,"Ġbaby":3887,"ĠMod":3888,"Ġcry":3889,"Ġnames":3890,"Ġelement":3891,"resp":3892,"enty":3893,"Ġasse":3894,"Ġ28":3895,"que":3896,"aign":3897,"Ġstrugg":3898,"Ġtransfer":3899,"ĠAustralia":3900,"Ġcompar":3901,"ĠGeneral":3902,"ĠFin":3903,"aste":3904,"Ġillust":3905,"ament":3906,"Ġball":3907,"Ġstories":3908,"Ġrat":3909,"Ġmission":3910,"Ġ2000":3911,"Ġalcohol":3912,"ĠSince":3913,"Ġmoment":3914,"Ġnutri":3915,"iences":3916,"Ġ2006":3917,"âĢĿ,":3918,"Un":3919,"inated":3920,"Ġconstruct":3921,"ĠPhil":3922,"Ġpatterns":3923,"Ġmachine":3924,"Ġsigns":3925,"ternal":3926,"rief":3927,"asion":3928,"Ġlimit":3929,"ken":3930,"Ġexpand":3931,"Ġbelief":3932,"ĠAssociation":3933,"rupt":3934,"ĠJust":3935,"Ġcook":3936,"ĠJapanese":3937,"Ġwid":3938,"Ġworth":3939,"Ġbreast":3940,"pris":3941,"Ġattract":3942,"Ġcapacity":3943,"Ġfunctions":3944,"à¤":3945,"Ġacad":3946,"Ġforward":3947,"Ġchanged":3948,"Ġarchitect":3949,"Ġgiving":3950,"cious":3951,"ĠCour":3952,"che":3953,"ĠConf":3954,"Ġefficient":3955,"Ġvo":3956,"Ġfresh":3957,"ĠUse":3958,"Ġexisting":3959,"ĠCouncil":3960,"Ġassist":3961,"ĠMedic":3962,"Ġsurvey":3963,"Ġoffers":3964,"Ġanx":3965,"Ġinsect":3966,"Ġ26":3967,"ĠAre":3968,"Ġdat":3969,"Ġeducational":3970,"ĠPeople":3971,"Ġthousands":3972,"Ġrepe":3973,"Ġforeign":3974,"Ġcitizens":3975,"omas":3976,"Ġincor":3977,"Ġassum":3978,"uls":3979,"ĠEnvironment":3980,"ĠUnion":3981,"Ġimmune":3982,"house":3983,"Ġrunning":3984,"gery":3985,"Is":3986,"Ġinstance":3987,"Ġconvers":3988,"ession":3989,"ĠFebruary":3990,"ĠAng":3991,"rehens":3992,"Ġequal":3993,"Ġdetails":3994,"Ġdirection":3995,"Ġfigure":3996,"ĠRo":3997,"antic":3998,"ĠSocial":3999,"iny":4000,"yd":4001,"ĠJewish":4002,"ĠUN":4003,"Ġweak":4004,"Ġopportunities":4005,"ĠSur":4006,"Ġchance":4007,"atin":4008,"iring":4009,"Ġfemale":4010,"Ġpp":4011,"cont":4012,"Ġdefined":4013,"Ġtask":4014,"ographic":4015,"Ġregions":4016,"ĠProf":4017,"Ġtissue":4018,"iance":4019,"Ġbound":4020,"Ġfindings":4021,"Ġcomponents":4022,"Ġlearned":4023,"iox":4024,"Ġfriend":4025,"Ġgrass":4026,"Ġstaff":4027,"All":4028,"iant":4029,"ĠTheir":4030,"Ġdisorder":4031,"Ġresistance":4032,"Ġevalu":4033,"Ġstar":4034,"Ġhuge":4035,"Ġsuggests":4036,"Ġdetect":4037,"do":4038,"Ġpicture":4039,"Ġvitamin":4040,"Ġdistance":4041,"Ġjournal":4042,"eech":4043,"hors":4044,"Ġfactor":4045,"ĠProgram":4046,"part":4047,"Ad":4048,"abilities":4049,"Ġbelieved":4050,"ĠTur":4051,"ĠInternet":4052,"Ġseparate":4053,"ĠFrance":4054,"Ġreports":4055,"Ġing":4056,"lege":4057,"Ġpassed":4058,"Ġdestroy":4059,"Ġexplain":4060,"Ġwrong":4061,"Ġseven":4062,"Ġchallenges":4063,"Ġinnov":4064,"Ġfert":4065,"HE":4066,"RE":4067,"urance":4068,"Ġoffice":4069,"pped":4070,"Ġbalance":4071,"Ġprice":4072,"orage":4073,"Ġmuscle":4074,"Ġeventually":4075,"ĠWestern":4076,"rick":4077,"Ġqual":4078,"Ġbox":4079,"Ġgarden":4080,"icip":4081,"ĠNA":4082,"DA":4083,"Ġnative":4084,"eding":4085,"era":4086,"ĠFl":4087,"Ġ+":4088,"Ġemissions":4089,"Ġ2015":4090,"Ġcontract":4091,"ĠSee":4092,"Ġcarried":4093,"OS":4094,"Ġ22":4095,"isation":4096,"ifically":4097,"pective":4098,"Ġ2005":4099,"Ġexhib":4100,"ĠThus":4101,"Ġsac":4102,"rates":4103,"Ġtruth":4104,"Ġstim":4105,"Ġvision":4106,"Ġwatch":4107,"ĠEach":4108,"Ġabsor":4109,"Ġfamous":4110,"ĠDavid":4111,"cular":4112,"Ġstrategies":4113,"Ġ27":4114,"ĠPublic":4115,"eces":4116,"Ġmoved":4117,"Ġnuclear":4118,"Ġincome":4119,"lim":4120,"After":4121,"Ġbra":4122,"ĠUK":4123,"omic":4124,"Ġguide":4125,"Ġimmediately":4126,"Ġmap":4127,"90":4128,"Ġplans":4129,"Ġoptions":4130,"ĠGreen":4131,"Ġdistribution":4132,"nes":4133,"Ġapply":4134,"Ġblue":4135,"Ġspring":4136,"Ġgoals":4137,"ygen":4138,"uild":4139,"Ġmal":4140,"Ġeffic":4141,"ĠPal":4142,"Ġorganizations":4143,"Ġdecades":4144,"Ġplanning":4145,"oma":4146,"igen":4147,"Ġfilm":4148,"Ġpresident":4149,"Ġneu":4150,"They":4151,"Ġcollabor":4152,"Ġbank":4153,"Ġaim":4154,"Ġstructures":4155,"ĠInter":4156,"wards":4157,"Ġpopulations":4158,"Ġfavor":4159,"Ġsexual":4160,"Be":4161,"Ġstyle":4162,"ĠMich":4163,"Ġactual":4164,"Ġhighest":4165,"Ġgene":4166,"Ġapproximately":4167,"Ġtechnologies":4168,"Ġphen":4169,"Ġdivid":4170,"Ġgain":4171,"ologist":4172,"Ġdyn":4173,"uing":4174,"Ġconsumption":4175,"bed":4176,"Ġexcess":4177,"Ġfaith":4178,"Ġparty":4179,"Ġcommercial":4180,"Ġextremely":4181,"char":4182,"Ġhappen":4183,"Ġcand":4184,"change":4185,"Ġexperiences":4186,"Ġinstruct":4187,"Ġchallenge":4188,"Ġemphas":4189,"Ġboard":4190,"Ġclassroom":4191,"Ġcopy":4192,"tee":4193,"ĠDon":4194,"Ġtreated":4195,"ald":4196,"ilit":4197,"Ġheavy":4198,"ĠCur":4199,"Ġpick":4200,"Ġdisorders":4201,"ĠLord":4202,"Ġopin":4203,"Ġkid":4204,"Ġgeneration":4205,"Ġlegis":4206,"35":4207,"Ġletter":4208,"Ġconnected":4209,"key":4210,"Ġobserved":4211,"Ġnutrition":4212,"Ġmedicine":4213,"ĠVol":4214,"ĠMat":4215,"ĠMor":4216,"Ġbodies":4217,"Ġclinical":4218,"Ġestimated":4219,"rest":4220,"Ġcontrast":4221,"Ġreference":4222,"order":4223,"Ġurban":4224,"opy":4225,"Ġhair":4226,"rant":4227,"Ġslight":4228,"Ġplastic":4229,"ube":4230,"Ġmale":4231,"iment":4232,"ulf":4233,"Ġexplore":4234,"Ġmer":4235,"Ġbecoming":4236,"cast":4237,"Ġitems":4238,"ĠMary":4239,"Ġves":4240,"Ġfeature":4241,"Ar":4242,"Ġmo":4243,"Ġfig":4244,"Ġdecisions":4245,"Ġâ":4246,"Ġign":4247,"care":4248,"zz":4249,"enth":4250,"Ġspect":4251,"Ġpresented":4252,"ĠJames":4253,"Ġmag":4254,"ean":4255,"iated":4256,"Ġiron":4257,"ĠMic":4258,"Ġbone":4259,"ĠAut":4260,"Ġ2016":4261,"ĠDevelopment":4262,"Ġrot":4263,"Ġtopic":4264,"otes":4265,"Ġfreedom":4266,"ares":4267,"Ġclearly":4268,"Ġaspects":4269,"aus":4270,"Ġnovel":4271,"Ġdesp":4272,"Ġfields":4273,"Ġintroduced":4274,"Ġbuildings":4275,"Ġgames":4276,"Ġalternative":4277,"Ġmilk":4278,"ogle":4279,"Ph":4280,"Ġindustrial":4281,"tered":4282,"Ġliqu":4283,"Ġnotes":4284,"Ġrecords":4285,"ĠNet":4286,"Ġsignificantly":4287,"ingly":4288,"Ġesc":4289,"Ġtrust":4290,"Ġglass":4291,"ĠRel":4292,"Ġoperations":4293,"unction":4294,"ĠRepublic":4295,"Ġvary":4296,"Ġtransl":4297,"clus":4298,"Ġ190":4299,"Ġsetting":4300,"Ġdepression":4301,"plications":4302,"hetic":4303,"Ġconducted":4304,"Ġstream":4305,"Ġresource":4306,"Ġserve":4307,"Ġsave":4308,"Ġstarting":4309,"Ġreality":4310,"ĠRev":4311,"ĠBra":4312,"eared":4313,"Ġlived":4314,"ias":4315,"porary":4316,"Ġreleased":4317,"Ġbed":4318,"bal":4319,"ĠDec":4320,"Ġdoub":4321,"mark":4322,"ophy":4323,"Ġeasier":4324,"Ġhousehold":4325,"ĠHuman":4326,"ĠWeb":4327,"Ġviolence":4328,"Ġgod":4329,"ET":4330,"ĠGovernment":4331,"Ġbran":4332,"ĠCollege":4333,"ĠSpanish":4334,"Ġpartners":4335,"ognitive":4336,"Ġturned":4337,"ĠMuseum":4338,"ĠPlan":4339,"Ġkilled":4340,"Ġgraph":4341,"Ġhom":4342,"erate":4343,"roup":4344,"Ġrelease":4345,"Ġhomes":4346,"iding":4347,"Ġdiscussion":4348,"rome":4349,"ĠDes":4350,"Ġnoted":4351,"apers":4352,"Ġelectricity":4353,"ĠSpec":4354,"Ġwidely":4355,"erved":4356,"elines":4357,"Ġoutput":4358,"Ġ80":4359,"Ġfrequently":4360,"Ġrequirements":4361,"ĠChildren":4362,"edic":4363,"Ġcombination":4364,"Ġcompl":4365,"ĠFound":4366,"Ġorganic":4367,"ously":4368,"Ġcycle":4369,"nam":4370,"ĠFood":4371,"Ġnumerous":4372,"Ġcausing":4373,"ĠGreek":4374,"Ġ2014":4375,"Ġstore":4376,"45":4377,"Ġcampaign":4378,"Ġagg":4379,"Ġutil":4380,"Ġconv":4381,"Ġindependent":4382,"ped":4383,"ĠChe":4384,"Ġliterature":4385,"Ġexpression":4386,"Ġbattle":4387,"imens":4388,"Ġexperiment":4389,"Ġthr":4390,"erences":4391,"Ġlayer":4392,"ria":4393,"Ġparticipants":4394,"Ġtour":4395,"Ġintellig":4396,"olved":4397,"ĠAv":4398,"Ġ29":4399,"Ġtemperatures":4400,"ulum":4401,"ĠLet":4402,"Ġminor":4403,"Ġanyone":4404,"roph":4405,"ager":4406,"works":4407,"stitution":4408,"Ġocean":4409,"Ġmetal":4410,"Ġpolicies":4411,"oting":4412,"ander":4413,"ĠBudd":4414,"ĠOver":4415,"ologists":4416,"ressive":4417,"Ġcovered":4418,"ĠGeorge":4419,"Ġwhom":4420,"Ġchronic":4421,"ĠOb":4422,"ij":4423,"olid":4424,"Ġgets":4425,"Ġisol":4426,"Ġtim":4427,"Ġterrit":4428,"essor":4429,"Ġremove":4430,"ĠAir":4431,"Ġconnection":4432,"raction":4433,"Ġhear":4434,"Ġload":4435,"Ġship":4436,"78":4437,"Ġwin":4438,"US":4439,"ructure":4440,"ault":4441,"Ġsem":4442,"ĠUnder":4443,"Ġmessage":4444,"asks":4445,"atically":4446,"tical":4447,"Ġgrant":4448,"anging":4449,"Ġbottom":4450,"Ġisland":4451,"ii":4452,"ss":4453,"met":4454,"Ġsample":4455,"Ġburn":4456,"Ġassessment":4457,"Ġresulting":4458,"Ġinterpret":4459,"Ġunivers":4460,"Ġsand":4461,"Ġoxygen":4462,"AM":4463,"ĠCath":4464,"Ġcreation":4465,"Ġauthors":4466,"ieces":4467,"lick":4468,"ĠPaul":4469,"ida":4470,"Ġrisks":4471,"Ġannual":4472,"EM":4473,"Ġperformed":4474,"Ġalg":4475,"Ġtrig":4476,"rans":4477,"Ġphysic":4478,"ĠOff":4479,"Ġtrib":4480,"CC":4481,"cers":4482,"Ġinternal":4483,"Ġvessel":4484,"Ġwanted":4485,"ĠSam":4486,"Ġdrop":4487,"ago":4488,"Ġstorage":4489,"Ġreferred":4490,"Ġnor":4491,"Ġhappens":4492,"Ġrelationships":4493,"Ġprefer":4494,"Ġready":4495,"Ġdangerous":4496,"Ġbeautiful":4497,"Ġmathemat":4498,"icial":4499,"Ġchanging":4500,"Ġdrive":4501,"Ġtechnique":4502,"Sh":4503,"Ġshap":4504,"atform":4505,"Ġupper":4506,"iveness":4507,"Ġprinciples":4508,"Ġfinding":4509,"ta":4510,"Ġrecommended":4511,"Ġdram":4512,"Ġreprodu":4513,"PS":4514,"Ġmeeting":4515,"rations":4516,"Ġcharacteristics":4517,"ras":4518,"Ġgenes":4519,"Ġbelong":4520,"Ġfeeling":4521,"orial":4522,"Ġcollege":4523,"Ġcircum":4524,"ĠIsland":4525,"othes":4526,"Ġmeat":4527,"33":4528,"respond":4529,"ishing":4530,"Ġhelped":4531,"Ġflood":4532,"Ġtrou":4533,"rog":4534,"ocal":4535,"Ġprepar":4536,"Ġdistinct":4537,"rum":4538,"Ġconfirm":4539,"Ġserved":4540,"ressed":4541,"ĠBel":4542,"Sp":4543,"Ġreb":4544,"Ġ2004":4545,"ĠDem":4546,"Ġsav":4547,"raw":4548,"Ġinitial":4549,"Ġroot":4550,"osystem":4551,"Ġcore":4552,"ieties":4553,"Ġcounter":4554,"Ġupd":4555,"Ġbackground":4556,"ĠOnce":4557,"Ġdegrees":4558,"with":4559,"Ġfine":4560,"Ġnorthern":4561,"Ġbuy":4562,"Ġdetermined":4563,"Ġunf":4564,"ĠHIV":4565,"Ġreligion":4566,"Ġregarding":4567,"Ġspeech":4568,"Here":4569,"ĠProject":4570,"leg":4571,"Ġexactly":4572,"ĠSun":4573,"onic":4574,"Ġstatement":4575,"Ġradiation":4576,"Ġtum":4577,"Ġexcell":4578,"rosc":4579,"Ġcalc":4580,"Ġunits":4581,"Ġinjury":4582,"ĠOrgan":4583,"Ġremoved":4584,"Ġclick":4585,"Ġconservation":4586,"Ġcomprehens":4587,"Ġ186":4588,"mal":4589,"Ġvul":4590,"Ġsolid":4591,"Ġplease":4592,"Ġround":4593,"However":4594,"ception":4595,"Ġsolutions":4596,"Ġreducing":4597,"ategy":4598,"Ġscen":4599,"Ġoption":4600,"Ġmostly":4601,"ĠWhy":4602,"Ġinvolve":4603,"road":4604,"inate":4605,"Ġdescribe":4606,"ping":4607,"Ġheard":4608,"ortunately":4609,"Ġradio":4610,"Ġinput":4611,"Ġencourage":4612,"ĠWork":4613,"ĠTherefore":4614,"riage":4615,"lease":4616,"Ġinfections":4617,"Ġmist":4618,"Ġarm":4619,"och":4620,"Äģ":4621,"Ġpreviously":4622,"ĠEv":4623,"Con":4624,"vision":4625,"ĠMount":4626,"According":4627,"Ġconflict":4628,"well":4629,"ributed":4630,"Ġanxiety":4631,"Ġstrategy":4632,"Ġmentioned":4633,"Ġcris":4634,"Ġ#":4635,"Ġreplace":4636,"tes":4637,"Ġemail":4638,"Ġelimin":4639,"Ġsurgery":4640,"75":4641,"umn":4642,"rier":4643,"ĠFore":4644,"Ġmotion":4645,"Ġvolume":4646,"Ġclasses":4647,"ags":4648,"ĠIts":4649,"Ġ2017":4650,"Ġlinked":4651,"ĠMark":4652,"isher":4653,"Ġlic":4654,"ĠHen":4655,"Ġinterested":4656,"Ġdogs":4657,"wood":4658,"Ġpollution":4659,"Ġrelevant":4660,"oyal":4661,"ĠTex":4662,"Ġcredit":4663,"Ġcast":4664,"Ġ90":4665,"arrow":4666,"Ġdie":4667,"Ġrace":4668,"36":4669,"Ġpip":4670,"Ġproperly":4671,"Ġprepared":4672,"Ġsaying":4673,"Ġleads":4674,"Ġmeant":4675,"rete":4676,"Ġtooth":4677,"aughter":4678,"Ġlandsc":4679,"Ġyouth":4680,"Ġobvious":4681,"ĠâĢ¦":4682,"Ġkill":4683,"Ġexposed":4684,"Ġfailure":4685,"Ġdecided":4686,"ĠPort":4687,"Ġadvanced":4688,"alle":4689,"Ġproposed":4690,"Ġinflamm":4691,"ek":4692,"Ġthick":4693,"Ġkept":4694,"berg":4695,"Many":4696,"Ġexperts":4697,"su":4698,"Ġtrend":4699,"Ġinvolves":4700,"Ġadvantage":4701,"Ġpromote":4702,"Ġarticles":4703,"Ġsynt":4704,"Ġexperienced":4705,"Ġprocessing":4706,"riculum":4707,"Ġsouthern":4708,"Ġspent":4709,"Ġvolunt":4710,"Ġclos":4711,"Ġsquare":4712,"Ġeast":4713,"Ġbrother":4714,"Ġfol":4715,"iverse":4716,"áĥ":4717,"Ġgender":4718,"Ġtransform":4719,"Ġeffectively":4720,"Ġreaction":4721,"Ġcharge":4722,"Ġinstitutions":4723,"Ġfluid":4724,"Ġpresc":4725,"urt":4726,"ĠRober":4727,"itz":4728,"bi":4729,"ĠAsia":4730,"Ġofficial":4731,"rian":4732,"New":4733,"That":4734,"Ġinvent":4735,"kin":4736,"uted":4737,"Ġimpl":4738,"Ġmel":4739,"board":4740,"Ġmanufacture":4741,"ĠMars":4742,"iling":4743,"Ġamounts":4744,"uration":4745,"Ġwest":4746,"ĠGra":4747,"Ġhour":4748,"Ġ70":4749,"Ġincorpor":4750,"Ġlib":4751,"Ġexpert":4752,"ĠSen":4753,"ĠIr":4754,"Ġadjust":4755,"Why":4756,"Ġinh":4757,"ĠST":4758,"Ġdepending":4759,"Ġpret":4760,"Ġspot":4761,"Ġsignal":4762,"Ġsort":4763,"Ġconclud":4764,"Ġeggs":4765,"ancing":4766,"Ġ2003":4767,"Ġaid":4768,"Ġessay":4769,"ĠTest":4770,"Ġfinally":4771,"Â°":4772,"Ġconcern":4773,"Ġacademic":4774,"Ġwaters":4775,"ifying":4776,"Ġremained":4777,"Ġoperation":4778,"ĠAcad":4779,"ams":4780,"Although":4781,"Ġpages":4782,"eline":4783,"ĠLa":4784,"Ġphase":4785,"ĠSub":4786,"Ġpric":4787,"rus":4788,"ĠMal":4789,"Ġforced":4790,"Res":4791,"Ġdiss":4792,"rep":4793,"Ġhop":4794,"ĠPhys":4795,"Ġconcerns":4796,"Ġpieces":4797,"Ġcoal":4798,"ĠMexico":4799,"Ġreached":4800,"Ġwealth":4801,"mat":4802,"Ġmanage":4803,"ules":4804,"amental":4805,"Ġhelping":4806,"ĠRich":4807,"ux":4808,"za":4809,"ĠOld":4810,"ĠJews":4811,"ĠVirgin":4812,"ded":4813,"Ġ...":4814,"place":4815,"Ġcere":4816,"Ġinstall":4817,"Ġlooks":4818,"nic":4819,"Ġmainly":4820,"Ġcontinues":4821,"Ġsupported":4822,"Ġowners":4823,"ĠService":4824,"Ġdatab":4825,"Ġlung":4826,"ĠMart":4827,"acing":4828,"Ġseek":4829,"Ġvegetables":4830,"Ġprofession":4831,"Ġelectrical":4832,"standing":4833,"Ġcorrespond":4834,"ĠInf":4835,"Ġemotional":4836,"AD":4837,"ĠLife":4838,"acific":4839,"which":4840,"ya":4841,"Ġsong":4842,"ĠBritain":4843,"Ġsecret":4844,"Ġatmosphere":4845,"ĠThomas":4846,"Ġidentity":4847,"Ġtrial":4848,"Ġfarmers":4849,"ĠStudents":4850,"Ġdiscover":4851,"ework":4852,"Ġsusp":4853,"ĠCivil":4854,"Ġpun":4855,"ĠSer":4856,"CO":4857,"Ġconsult":4858,"ĠBas":4859,"Ġpal":4860,"akers":4861,"vis":4862,"Ġseeds":4863,"Ġdefinition":4864,"Ġchemicals":4865,"astern":4866,"Ġdiagnosis":4867,"Ġnit":4868,"Now":4869,"rence":4870,"ishes":4871,"ĠIslam":4872,"Ġmanner":4873,"ĠBer":4874,"Ġmorning":4875,"Our":4876,"Ġdefic":4877,"Ġcompleted":4878,"Ġcomfort":4879,"Ġsettle":4880,"Ġconcepts":4881,"Ġplatform":4882,"ĠMedicine":4883,"ht":4884,"ĠWhite":4885,"Ġcenturies":4886,"ST":4887,"ĠArab":4888,"Ġdro":4889,"Ġdoll":4890,"rows":4891,"ĠDirect":4892,"Ġwonder":4893,"Ġnotice":4894,"38":4895,"west":4896,"atric":4897,"comes":4898,"oper":4899,"ĠJer":4900,"Ġban":4901,"Ġjour":4902,"ĠNASA":4903,"Ġengineering":4904,"Ġmath":4905,"Ġleader":4906,"Ġprofessor":4907,"Ġconver":4908,"'ll":4909,"Ġdrinking":4910,"ĠCourt":4911,"Ġther":4912,"ears":4913,"Ġbegins":4914,"Ġstation":4915,"ĠMac":4916,"Ġallowing":4917,"Ġvulner":4918,"Ġphenomen":4919,"Ġsufficient":4920,"ĠHel":4921,"Ġfort":4922,"ĠSal":4923,"Ġ2001":4924,"Ġintended":4925,"Ġtaught":4926,"ormal":4927,"clusion":4928,"Ġlanguages":4929,"itors":4930,"Ġlinks":4931,"Ġyellow":4932,"Ġformation":4933,"Ġrecorded":4934,"ĠBay":4935,"ĠQue":4936,"ĠCentral":4937,"Ġindicate":4938,"roke":4939,"ossible":4940,"ĠMedical":4941,"Ġtro":4942,"Ġraised":4943,"ĠWell":4944,"Ġ35":4945,"Ġtoxic":4946,"Ġcoord":4947,"col":4948,"Ġfoss":4949,"Ġoccurred":4950,"Ġwet":4951,"Ġresist":4952,"Ġcomment":4953,"Ġfrequency":4954,"Ġtechnical":4955,"Ġhearing":4956,"ĠArmy":4957,"espite":4958,"Cl":4959,"ĠKore":4960,"oviet":4961,"Ġlov":4962,"ĠMiss":4963,"Ġarmy":4964,"Ġcombined":4965,"Ġseed":4966,"mp":4967,"enced":4968,"Ġmaster":4969,"ensus":4970,"Ġoffered":4971,"Ġdri":4972,"ounced":4973,"ĠMet":4974,"Ġpractical":4975,"Ġcollected":4976,"Ġgirls":4977,"Americ":4978,"aturally":4979,"ball":4980,"Ġnav":4981,"Ġshared":4982,"Ġbond":4983,"ĠRem":4984,"ĠFre":4985,"otic":4986,"From":4987,"Ġkinds":4988,"Ġmotor":4989,"Ġsustainable":4990,"ĠBible":4991,"Ġhorm":4992,"Ġstorm":4993,"Ġappoint":4994,"olars":4995,"ĠMr":4996,"Ġlargely":4997,"ndrome":4998,"Ġhit":4999,"Ġsamples":5000,"field":5001,"zing":5002,"lig":5003,"Ġhospital":5004,"Ġlesson":5005,"ĠSpace":5006,"Ġsnow":5007,"48":5008,"Ġgrand":5009,"Ġfacts":5010,"Ġpurposes":5011,"ĠRussian":5012,"omin":5013,"ĠDi":5014,"ĠNews":5015,"Ġimproved":5016,"ĠEvery":5017,"Ġparticles":5018,"ĠAtl":5019,"going":5020,"RO":5021,"Ġexistence":5022,"Ġprimarily":5023,"Ġawareness":5024,"'ve":5025,"acters":5026,"Ġprocedure":5027,"hips":5028,"ĠTexas":5029,"Ġextent":5030,"Ġvoice":5031,"Ġgar":5032,"Ġsurpris":5033,"Ġmotiv":5034,"win":5035,"100":5036,"oking":5037,"ĠLou":5038,"ĠAD":5039,"ael":5040,"uable":5041,"Ġbrief":5042,"Ġflex":5043,"Ġreduction":5044,"Most":5045,"verty":5046,"rapy":5047,"ĠCommission":5048,"Ġreturned":5049,"Ġemergency":5050,"aker":5051,"Ġauthority":5052,"Ġwife":5053,"Ġflowers":5054,"Ġcertainly":5055,"Ġbud":5056,"Ġideal":5057,"osen":5058,"Ġpoverty":5059,"Ġrenew":5060,"tion":5061,"Ġ189":5062,"Ġconsequences":5063,"Ġshar":5064,"Ġgrade":5065,"Ġiniti":5066,"Ġcert":5067,"Ġdespite":5068,"Ġfocused":5069,"ixt":5070,"AP":5071,"Ġfib":5072,"Ġpolice":5073,"Ġblog":5074,"osite":5075,"Ġecosystem":5076,"Ġ2002":5077,"asure":5078,"Ġhighlight":5079,"Ġpersons":5080,"Ġexplan":5081,"Ġvaccine":5082,"Ġkn":5083,"Ġletters":5084,"Ġsituations":5085,"Ġefficiency":5086,"des":5087,"oo":5088,"Ab":5089,"Ġstraight":5090,"Ġshowing":5091,"ĠÃ":5092,"Ġperman":5093,"gl":5094,"Ġfelt":5095,"Ġbill":5096,"Ġbright":5097,"Ġrevolution":5098,"ĠHol":5099,"Ġthoughts":5100,"Ġcontribute":5101,"Ġadvance":5102,"Ġbiological":5103,"Ġ1990":5104,"ĠSecond":5105,"Ġmere":5106,"ache":5107,"Ġagricultural":5108,"gra":5109,"RI":5110,"Ġimmig":5111,"ĠMass":5112,"Ġsuggested":5113,"Ġsubjects":5114,"Ġmort":5115,"utive":5116,"Ġstars":5117,"39":5118,"Ġquar":5119,"oral":5120,"Ġhttps":5121,"Ġpark":5122,"Ġjobs":5123,"Ġhabitat":5124,"Ġdynam":5125,"EL":5126,"Ã¡":5127,"ample":5128,"Ġprotected":5129,"ĠBen":5130,"ĠLatin":5131,"Ġliquid":5132,"Ġcognitive":5133,"othing":5134,"Ġexplains":5135,"Ġplayed":5136,"Ġabuse":5137,"rich":5138,"van":5139,"ĠBC":5140,"what":5141,"Ġclaims":5142,"Ġdetailed":5143,"ÃŃ":5144,"olute":5145,"ulating":5146,"Ġresponsibility":5147,"ested":5148,"Ġgreatest":5149,"ari":5150,"Ġfirm":5151,"Ġspecifically":5152,"Ġbird":5153,"Ġmix":5154,"Ġnations":5155,"Ġlooked":5156,"Ġliver":5157,"ado":5158,"Ġneighbor":5159,"eters":5160,"ague":5161,"Ġfundamental":5162,"point":5163,"inent":5164,"oughly":5165,"Ġsend":5166,"roc":5167,"Ġplaying":5168,"Ġheight":5169,"Ġsin":5170,"No":5171,"Ġrand":5172,"Ġtreatments":5173,"ĠClass":5174,"Ġmonitoring":5175,"Ġmaximum":5176,"band":5177,"ĠFurther":5178,"resents":5179,"ĠDist":5180,"Ġsyn":5181,"Ġexcellent":5182,"Ġotherwise":5183,"ĠMont":5184,"Ġadvice":5185,"Ġprison":5186,"ĠTechnology":5187,"zy":5188,"Ġmuscles":5189,"Ġvast":5190,"Ġpros":5191,"Ġsche":5192,"Ġhappened":5193,"Ġrecognized":5194,"lar":5195,"Ġonto":5196,"ĠÎ":5197,"Ġoperating":5198,"Ġsalt":5199,"Ġrefers":5200,"ĠSoviet":5201,"Ġhundreds":5202,"ĠEnergy":5203,"Ġstem":5204,"Ġdomestic":5205,"iced":5206,"Ġcharacters":5207,"Ġsounds":5208,"Ġkm":5209,"ĠInformation":5210,"that":5211,"ses":5212,"Ġrandom":5213,"Ġnerv":5214,"ĠTwo":5215,"ey":5216,"Ġpul":5217,"Ġstone":5218,"Ġtypical":5219,"Ġminimum":5220,"rolog":5221,"inf":5222,"Ġcontrolled":5223,"Ġpotentially":5224,"Ġimpacts":5225,"ĠElect":5226,"Ġmeasured":5227,"Ġcomponent":5228,"Ġdivided":5229,"Pl":5230,"unk":5231,"Ġinstrument":5232,"Ġnutrients":5233,"ĠDise":5234,"Ġapproaches":5235,"Ġreform":5236,"ĠOp":5237,"enses":5238,"Ġsatis":5239,"Ġhyper":5240,"Ġconsists":5241,"Ġsurrounding":5242,"cript":5243,"osa":5244,"Ġofficials":5245,"cest":5246,"Ġperspective":5247,"igenous":5248,"Ġfif":5249,"Ġmetab":5250,"Ġslightly":5251,"ĠCatholic":5252,"Ġcareer":5253,"Ġspend":5254,"Ġchann":5255,"Ġfollows":5256,"pat":5257,"Ġfamiliar":5258,"Ġfle":5259,"Ġvital":5260,"34":5261,"Ġvent":5262,"Ġtitle":5263,"Ġkeeping":5264,"stood":5265,"ĠPacific":5266,"Ġastron":5267,"ometimes":5268,"ĠSou":5269,"Ġknew":5270,"Ġattacks":5271,"Ġproport":5272,"anges":5273,"Ġincreasingly":5274,"ville":5275,"Ġaren":5276,"BC":5277,"Ġfaster":5278,"Ġthin":5279,"Ġexternal":5280,"Ġspl":5281,"Ġappeared":5282,"ĠJose":5283,"Ġinterests":5284,"Ġspiritual":5285,"Ġneut":5286,"ĠCle":5287,"Ġdisapp":5288,"Ġroll":5289,"Ġdouble":5290,"Ġrural":5291,"Ġcontinuous":5292,"Ġinstruction":5293,"Ġgovernments":5294,"Ġwestern":5295,"Ġwel":5296,"Ġdepth":5297,"iled":5298,"Ġarms":5299,"Ġbow":5300,"Ġdirector":5301,"Ġsector":5302,"Ġstudied":5303,"Ġflat":5304,"OT":5305,"Ġlik":5306,"ĠToday":5307,"ĠBoth":5308,"active":5309,"Ġapparent":5310,"Ġkil":5311,"Ġtrain":5312,"Ġpray":5313,"ND":5314,"ĠStand":5315,"Ġvehicle":5316,"ĠMil":5317,"ING":5318,"istan":5319,"ĠSte":5320,"ĠBook":5321,"Ġexplained":5322,"ĠRussia":5323,"mic":5324,"ĠDel":5325,"itage":5326,"Ġdu":5327,"ĠRights":5328,"ĠDef":5329,"Ġmoist":5330,".;":5331,"Ġrepresents":5332,"aks":5333,"name":5334,"ĠMiddle":5335,"ipped":5336,"Ġmoral":5337,"Ġconvent":5338,"ĠFoundation":5339,"?âĢĿ":5340,"ĠNor":5341,"ĠRef":5342,"Ġaffects":5343,"Ġsubstant":5344,"Ġcouple":5345,"ION":5346,"Ġportion":5347,"Ġfiles":5348,"ĠCD":5349,"Ġdocuments":5350,"ĠFlor":5351,"Ġimmun":5352,"ails":5353,"Ġperiods":5354,"More":5355,"Ġages":5356,"ĠCharles":5357,"Ġvalid":5358,"Ġhelpful":5359,"Ġfacilities":5360,"Ġtasks":5361,"Ġtopics":5362,"atever":5363,"ibl":5364,"ĠWild":5365,"ellect":5366,"la":5367,"Ġtried":5368,"itness":5369,"Ġallerg":5370,"rastructure":5371,"Ġaccurate":5372,"Im":5373,"Ġwalls":5374,"BN":5375,"ĠEconom":5376,"nel":5377,"Ġhaz":5378,"ĠWind":5379,"Ġchief":5380,"Ġclim":5381,"Ġsubsequ":5382,"Ġsen":5383,"eck":5384,"Ġcontaining":5385,"Ġoral":5386,"Ġclosely":5387,"lers":5388,"ĠHistor":5389,"Ġproteins":5390,"Ġfing":5391,"alse":5392,"Ġcontem":5393,"Ġdepends":5394,"Ġcrisis":5395,"Ġpaint":5396,"Ġtested":5397,"down":5398,"Ġconcerned":5399,"Ġlose":5400,"Ġdiscovery":5401,"isp":5402,"Ġcrops":5403,"ompl":5404,"state":5405,"Ġrail":5406,"ĠColumb":5407,"Ġalt":5408,"chers":5409,"ĠLearning":5410,"ĠLibrary":5411,"Ġsed":5412,"racy":5413,"Ġsuffering":5414,"Ġcircumst":5415,"iest":5416,"eria":5417,"inding":5418,"ĠSmith":5419,"Ġrapidly":5420,"Ġstated":5421,"gal":5422,"37":5423,"ĠWomen":5424,"Ġselected":5425,"44":5426,"TS":5427,"Ġdiscrim":5428,"Ġvisible":5429,"Ġ2018":5430,"Ġgoods":5431,"Ġconcentration":5432,"198":5433,"Ġharvest":5434,"Ġnarrow":5435,"Ġmedications":5436,"ĠWil":5437,"ĠFranc":5438,"Ġparties":5439,"Ġrecy":5440,"Ġ45":5441,"Ġcrucial":5442,"Ġviews":5443,"Ġnaturally":5444,"ĠLake":5445,"Ġtips":5446,"Ġelev":5447,"alian":5448,"Ġmovements":5449,"Ġpaid":5450,"rants":5451,"ĠTreat":5452,"ĠLand":5453,"rating":5454,"ĠConstitution":5455,"Ġemployees":5456,"Ġfeelings":5457,"Ġrein":5458,"ĠNature":5459,"65":5460,"Ġfunding":5461,"celer":5462,"Ġ*":5463,"Ġstret":5464,"Ġmarine":5465,"Ġleaving":5466,"ĠOut":5467,"ĠHenry":5468,"umin":5469,"Ġmedium":5470,"Ġgrown":5471,"Ġdeliver":5472,"ĠFam":5473,"Ġoutcomes":5474,"Ġweap":5475,"ĠEmp":5476,"umber":5477,"ĠSea":5478,"oster":5479,"Ġdistingu":5480,"ĠCarol":5481,"Ġnan":5482,"Ġfloor":5483,"Ġsides":5484,"During":5485,"mas":5486,"Ġjustice":5487,"Ġdiscussed":5488,"ĠSupp":5489,"Ġinvestment":5490,"Ġod":5491,"Another":5492,"ĠPsych":5493,"ĠSuch":5494,"Ġresidents":5495,"ĠJud":5496,"Ġband":5497,"olf":5498,"Ġmyth":5499,"Ġpurs":5500,"MS":5501,"hi":5502,"Ġaccompl":5503,"Ġcurriculum":5504,"ĠUp":5505,"ĠEnvironmental":5506,"ĠRobert":5507,"ĠData":5508,"ascular":5509,"Ġhunt":5510,"Ġsmart":5511,"ĠNav":5512,"hma":5513,"Ġ2020":5514,"ificial":5515,"ĠControl":5516,"________":5517,"Ġroots":5518,".|":5519,"Ġleadership":5520,"Ġargument":5521,"dden":5522,"ny":5523,"reland":5524,"Ġcapable":5525,"athy":5526,"Ġobtained":5527,"Ġdial":5528,"ĠUsing":5529,"ĠAp":5530,"Ġadding":5531,"Ġpictures":5532,"ĠInstead":5533,"Do":5534,"Ġinterview":5535,"Ġ188":5536,"Ġdiam":5537,"ĠMem":5538,"Ġfruits":5539,"ĠAnother":5540,"Ġopinion":5541,"Ġsets":5542,"Ġlatest":5543,"Ġpil":5544,"gment":5545,"Dr":5546,"anguage":5547,"32":5548,"DF":5549,"Ġdiversity":5550,"Ġimpossible":5551,"Ġprevention":5552,"roid":5553,"Ġju":5554,"Ġaccomp":5555,"ocratic":5556,"hist":5557,"Ġtalking":5558,"Ġoriginally":5559,"99":5560,"Ġconscious":5561,"Ġrecognize":5562,"Gen":5563,"Ġdeaths":5564,"ĠDisc":5565,"Ġdream":5566,"ĠCompany":5567,"31":5568,"attle":5569,"ĠVirginia":5570,"Ġsecure":5571,"Ġdepos":5572,"My":5573,"See":5574,"Ġregional":5575,"spec":5576,"Ġhouses":5577,"ĠPers":5578,"ĠLike":5579,"Ġmuseum":5580,"Ġadvoc":5581,"osc":5582,"Ġingred":5583,"Ġcolors":5584,"Ind":5585,"Ġmillions":5586,"Ġpoet":5587,"liam":5588,"Ġraise":5589,"ĠMake":5590,"Ġchapter":5591,"Other":5592,"Ġflight":5593,"Ġprecise":5594,"500":5595,"osph":5596,"Ġcardi":5597,"Ġexpensive":5598,"Ġsatell":5599,"Ġinterf":5600,"Ġsubstance":5601,"Ġpig":5602,"Ġ1999":5603,"âĢĻ.":5604,"Ġvaluable":5605,"Ġtouch":5606,"ulin":5607,"ĠFederal":5608,"Ġancest":5609,"uses":5610,"icks":5611,"Ġtrad":5612,"Ġcomputers":5613,"ĠGoogle":5614,"Ġsudden":5615,"Ġbusinesses":5616,"Ġprices":5617,"Ġclosed":5618,"Ġprocedures":5619,"Ġfertil":5620,"Ġrecovery":5621,"Ġregularly":5622,"fall":5623,"Ġformal":5624,"Ġprinciple":5625,"Ġintroduction":5626,"ario":5627,"ĠPost":5628,"ĠKen":5629,"ĠTor":5630,"mbly":5631,"Ġdecrease":5632,"bing":5633,"Ġmit":5634,"Ġgun":5635,"Ġrecon":5636,"Ġfrag":5637,"ctic":5638,"ĠCanadian":5639,"Ġexchange":5640,"Ġpure":5641,"Ġaccepted":5642,"Ġble":5643,"Ġrestrict":5644,"olve":5645,"Ġlessons":5646,"rust":5647,"asive":5648,"55":5649,"anda":5650,"Ġdut":5651,"ĠHam":5652,"pass":5653,"Ġphone":5654,"agues":5655,"Ġlaun":5656,"ĠScient":5657,"Ġdescribes":5658,"ada":5659,"ĠLabor":5660,"Ġcalls":5661,"Ġmamm":5662,"De":5663,"lements":5664,"Ġwindow":5665,"Ġtroops":5666,"46":5667,"ooth":5668,"uke":5669,"Sc":5670,"Ġbrown":5671,"Ġcorpor":5672,"ĠStudies":5673,"Ġpossibility":5674,"long":5675,"Ġantibiot":5676,"Ġpump":5677,"Ġvillage":5678,"Ġpossibly":5679,"Ġparam":5680,"iology":5681,"Ġnormally":5682,"Ġapart":5683,"Ġbones":5684,"ĠManagement":5685,"Ġpu":5686,"Ġrecip":5687,"abil":5688,"Ġunlike":5689,"].":5690,"ĠLouis":5691,"ĠAlex":5692,"Ġsuffer":5693,"LE":5694,"ĠGroup":5695,"tenance":5696,"ĠCommit":5697,"plicated":5698,"inet":5699,"Ġsick":5700,"ĠSum":5701,"Ġcoff":5702,"Ġhorse":5703,"Ġagriculture":5704,"reed":5705,"othe":5706,"anta":5707,"Ġadopted":5708,"tage":5709,"Ġera":5710,"ĠOffice":5711,"inations":5712,"Ġincl":5713,"Ġcloud":5714,"ĠEngine":5715,"ĠOx":5716,"Ġinfected":5717,"76":5718,"Ġopened":5719,"Ġappearance":5720,"49":5721,"vironments":5722,"hemical":5723,"Ġstored":5724,"Ġlands":5725,"Ġapprec":5726,"Ġphr":5727,"ota":5728,"HO":5729,"Ġnetworks":5730,"ĠIreland":5731,"Ġ2019":5732,"Ġextract":5733,"Ġwarming":5734,"Ġtow":5735,"Ġunderstood":5736,"Ġdoctors":5737,"rors":5738,"ĠReview":5739,"Ġ<":5740,"Ġpregnancy":5741,"uilding":5742,"Ġdriving":5743,"Ġscholars":5744,"liament":5745,"Ġcomprehensive":5746,"rem":5747,"ibilities":5748,"ĠTem":5749,"Ġproducing":5750,"Ġadministration":5751,"Ġwire":5752,"bert":5753,"exp":5754,"Ġenhance":5755,"imer":5756,"pping":5757,"htm":5758,"indu":5759,"Ġdust":5760,"ato":5761,"Ġsan":5762,"Ġpretty":5763,"Ġaccounts":5764,"ĠProv":5765,"Ġentirely":5766,"ĠSaf":5767,"ĠGood":5768,"Ġsoldiers":5769,"Te":5770,"ston":5771,"Ġunless":5772,"Ġwildlife":5773,"Ġmoon":5774,"Ġfacilit":5775,"Ġfigures":5776,"ship":5777,"Ġinfrastructure":5778,"Ġdatabase":5779,"Ġlibrary":5780,"Ġslowly":5781,"ĠTer":5782,"Ġshel":5783,"ĠAnn":5784,"Ġmedication":5785,"Ġprotocol":5786,"Ġframework":5787,"Ġsensitive":5788,"Ġsurvival":5789,"Ġcandid":5790,"Ġaw":5791,"Ġinches":5792,"Ġprepare":5793,"Ġagreement":5794,"Ġintelligence":5795,"Ġdigest":5796,"add":5797,"Ġtoler":5798,"Ġlisted":5799,"struct":5800,"ifies":5801,"Ġpossess":5802,"olester":5803,"Ġabsolute":5804,"Ġinflammation":5805,"Ġagencies":5806,"Ġtraffic":5807,"Ġextensive":5808,"Ġmarriage":5809,"Ġlatter":5810,"Ġsuc":5811,"Ġ31":5812,"Ġgenerate":5813,"Ġrepeated":5814,"Ġinternet":5815,"ĠBet":5816,"Ġspeaking":5817,"alysis":5818,"Ġformat":5819,"Ġguidelines":5820,"Ġsecondary":5821,"ĠPower":5822,"Ġwave":5823,"Ġcreative":5824,"Us":5825,"urd":5826,"free":5827,"CS":5828,"Ġuniverse":5829,"Ġassistance":5830,"Ġrid":5831,"Ġ1998":5832,"organ":5833,"ĠNations":5834,"Ġworldwide":5835,"Ġfell":5836,"Ġworse":5837,"Ġintake":5838,"cling":5839,"itt":5840,"âĢĺ":5841,"Ġplate":5842,"omach":5843,"ĠLeg":5844,"Ġreject":5845,"prise":5846,"Ġlifest":5847,"ĠFlorida":5848,"Ġrevealed":5849,"asp":5850,"sey":5851,"Ġstages":5852,"ĠDiv":5853,"ĠAtt":5854,"obe":5855,"Ġinject":5856,"ĠBro":5857,"ava":5858,"ĠISBN":5859,"Ġsky":5860,"Ġnarr":5861,"Ġmassive":5862,"eer":5863,"ini":5864,"Ġachieved":5865,"Ġtal":5866,"Ġwear":5867,"Ġintellect":5868,"Ġgather":5869,"Ġtiny":5870,"Ġ1980":5871,"Ġlandscape":5872,"Ġacts":5873,"Ġchart":5874,"ĠKnow":5875,"Re":5876,"Ġperce":5877,"Ġexperiments":5878,"Ġwww":5879,"stream":5880,"Ġships":5881,"Ġtail":5882,"ĠCommon":5883,"Ġrub":5884,"Ġdiverse":5885,"ka":5886,"Ġstock":5887,"Ġnewsp":5888,"Ġequival":5889,"olesterol":5890,"Cont":5891,"Ġindeed":5892,"Ġtransmission":5893,"Ġcreates":5894,"idden":5895,"47":5896,"ĠYet":5897,"ĠCamb":5898,"war":5899,"Ġlabel":5900,"Ġforests":5901,"Ġshell":5902,"Ġbudget":5903,"Ġtun":5904,"luding":5905,"Ġerror":5906,"rot":5907,"Ġtwice":5908,"Ġsurf":5909,"cules":5910,"aria":5911,"acts":5912,"agers":5913,"Ġmobile":5914,"ctive":5915,"Ġadequ":5916,"Ġmanaged":5917,"ua":5918,"Ġimper":5919,"osal":5920,"Ġfailed":5921,"anged":5922,"Ġpref":5923,"ĠId":5924,"Ġstruggle":5925,"ĠUSA":5926,"ansion":5927,"rine":5928,"Ġaf":5929,"ki":5930,"Ġsupplement":5931,"Ġedge":5932,"Ġanswers":5933,"Ġuns":5934,"ypes":5935,"Ġinsurance":5936,"Ġvehicles":5937,"edu":5938,"Ġelectronic":5939,"Ġsurvive":5940,"ditionally":5941,"ioxide":5942,"Ġfill":5943,"inn":5944,"ĠTHE":5945,"Ġdoubt":5946,"icon":5947,"ĠBul":5948,"Ġstarts":5949,"being":5950,"OC":5951,"Ġdecline":5952,"Ġcalcium":5953,"ĠJoseph":5954,"Ġaircraft":5955,"Ġexpressed":5956,"Ġcircumstances":5957,"Ġinjuries":5958,"Go":5959,"Ġconstitution":5960,"Ġsell":5961,"esity":5962,"Ġbehaviour":5963,"Ġaqu":5964,"orrow":5965,"Ġconsid":5966,"Ġminim":5967,"Ġfilled":5968,"no":5969,"ĠMa":5970,"Ġreaders":5971,"Ġdin":5972,"ĠChic":5973,"bran":5974,"ĠJe":5975,"Ġdedic":5976,"inder":5977,"flow":5978,"Ġgall":5979,"Ġstick":5980,"Ġenvironments":5981,"Ġimproving":5982,"Ġmarked":5983,"Ġinsects":5984,"sts":5985,"zen":5986,"ocracy":5987,"ĠThose":5988,"Ġengage":5989,"Ġsentence":5990,"Ġroutine":5991,"Ġlaboratory":5992,"ye":5993,"Ġmountain":5994,"Se":5995,"ymph":5996,"igation":5997,"ribed":5998,"Ġsyndrome":5999,"Ġcircuit":6000,"ĠAustralian":6001,"ola":6002,"normal":6003,"orter":6004,"Ġproduces":6005,"Ġremaining":6006,"Ġafford":6007,"Ġ300":6008,"Ġdaughter":6009,".âĢĻ":6010,"ĠMad":6011,"Ġsweet":6012,"Ġgal":6013,"abits":6014,"ĠLong":6015,"iform":6016,"ĠBur":6017,"ĠFe":6018,"ĠGold":6019,"Ġchain":6020,"born":6021,"Ġobtain":6022,"Ġamb":6023,"Ġagency":6024,"Ġtruly":6025,"itan":6026,"teries":6027,"ita":6028,"Ġrefuge":6029,"orith":6030,"Ġfixed":6031,"ĠDan":6032,"abric":6033,"Ġfoundation":6034,"Ġnurs":6035,"icians":6036,"ĠPeter":6037,"Ġplays":6038,"Ġremote":6039,"Ġextended":6040,"Ġinner":6041,"Ġprem":6042,"apping":6043,"Ġwish":6044,"Ġtells":6045,"ĠVict":6046,"Ġdomin":6047,"Ġdecade":6048,"Ġwants":6049,"ĠBrown":6050,"Ġselection":6051,"Ġgenerated":6052,"ĠMo":6053,"Ġsuitable":6054,"eper":6055,"Ġabund":6056,"Ġgreatly":6057,"ĠOnly":6058,"Ġvote":6059,"Ġindex":6060,"Ġhappy":6061,"ĠAbout":6062,"Ġgrav":6063,"Ġparalle":6064,"ĠProfessor":6065,"arant":6066,"Ġsight":6067,"inking":6068,"Ġseeing":6069,"Ġsteel":6070,"ona":6071,"Ġtransition":6072,"Ġauthorities":6073,"ĠHome":6074,"UR":6075,"kins":6076,"Ġwaves":6077,"Ġunknown":6078,"Ġorganized":6079,"Ġbroken":6080,"under":6081,"Ġopening":6082,"Ġlocations":6083,"ĠItaly":6084,"body":6085,"erent":6086,"Ġaudience":6087,"Ġacceler":6088,"word":6089,"Ġmulti":6090,"but":6091,"ĠBre":6092,"Ġcritic":6093,"Ġcars":6094,"erals":6095,"Ġshut":6096,"Ġdoor":6097,"ĠGlobal":6098,"ĠOF":6099,"ĠSouthern":6100,"Ġdesire":6101,"Ġhealthcare":6102,"Ġfossil":6103,"Ġhus":6104,"Ġconsistent":6105,"Ġsports":6106,"Ġmechanism":6107,"inction":6108,"ĠCult":6109,"Ġcorn":6110,"Ġthor":6111,"ĠExp":6112,"level":6113,"ropical":6114,"Ġdiscipl":6115,"Ġyounger":6116,"Ġimplementation":6117,"ĠRome":6118,"American":6119,"Ġpull":6120,"Ġ>":6121,"Ġbear":6122,"ĠAny":6123,"Ġdecide":6124,"ĠKh":6125,"ĠHall":6126,"Ġderived":6127,"wing":6128,"Ġfounded":6129,"ols":6130,"ogue":6131,"Ġscript":6132,"Ġsignals":6133,"Ġphotograph":6134,"Ġsubs":6135,"Ġcatch":6136,"Ġdistrict":6137,"heast":6138,"ĠRad":6139,"Ġsharing":6140,"Ġchoices":6141,"Ġpermanent":6142,"Ġ185":6143,"Ġzone":6144,"ints":6145,"ĠAcademy":6146,"77":6147,"En":6148,"ivery":6149,"Ġstudying":6150,"Ġdestroyed":6151,"Ġdioxide":6152,"ĠIN":6153,"Ġ1970":6154,"Ġ500":6155,"Ġath":6156,"isters":6157,"ĠLab":6158,"elled":6159,"Ġrepresented":6160,"mary":6161,"Ġax":6162,"itative":6163,"Ġfly":6164,"Ġdensity":6165,"ĠThrough":6166,"Ġchildhood":6167,"Ġharmful":6168,"Ġmanufacturing":6169,"ĠMicro":6170,"ĠCommittee":6171,"Ġdescription":6172,"from":6173,"ĠGal":6174,"Ġstomach":6175,"called":6176,"nect":6177,"ĠPC":6178,"Ġindicates":6179,"Ġfalse":6180,"Ġcourses":6181,"ĠGet":6182,"Ġprincip":6183,"Ġbattery":6184,"lder":6185,"ĠParis":6186,"Ġimmediate":6187,"burg":6188,"ĠCamp":6189,"clop":6190,"Ġcolleagues":6191,"Ġfasc":6192,"ĠSpain":6193,"wo":6194,"Ġunp":6195,"Ġinstitution":6196,"Ġcultiv":6197,"Since":6198,"Ġelectron":6199,"Ġreplaced":6200,"Ġthousand":6201,"Ġacids":6202,"Ġdental":6203,"ĠCancer":6204,"Ġprofessionals":6205,"Ġjourney":6206,"Ġattend":6207,"Ġmaintenance":6208,"ĠReport":6209,"Ġethnic":6210,"Ġunable":6211,"Read":6212,"pet":6213,"Ã¼":6214,"Ġfewer":6215,"ĠMag":6216,"Ġdifficulty":6217,"Can":6218,"ĠNorthern":6219,"cel":6220,"last":6221,"oto":6222,"Ġshift":6223,"ĠStat":6224,"Ġgone":6225,"Ġenable":6226,"Ġinteraction":6227,"hand":6228,"ĠPM":6229,"Ġsolve":6230,"Ġcloser":6231,"Ã³":6232,"Ġvessels":6233,"Ġlots":6234,"izer":6235,"icide":6236,"Ġoptim":6237,"ca":6238,"Ġourselves":6239,"Ġcarefully":6240,"Ġopposite":6241,"Ġbeneficial":6242,"throp":6243,"Ġpowers":6244,"Stud":6245,"iration":6246,"Ġsupplies":6247,"Ġreader":6248,"LA":6249,"gent":6250,"stone":6251,"ums":6252,"Ġleaf":6253,"Ġcultures":6254,"ena":6255,"antly":6256,"Ġstanding":6257,"ĠExpl":6258,"inity":6259,"Ġarrived":6260,"Ġsod":6261,"Ã¶":6262,"ĠSl":6263,"ĠPub":6264,"Ġenemy":6265,"cher":6266,"Ġmos":6267,"ipping":6268,"ĠValley":6269,"stein":6270,"ĠIll":6271,"Ġlimits":6272,"ĠAC":6273,"ĠSk":6274,"Ġcomposition":6275,"Ġstroke":6276,"abul":6277,"Ġclust":6278,"Ġaccum":6279,"oned":6280,"aped":6281,"ĠCare":6282,"Ġcoffee":6283,"Ġsuccessfully":6284,"Ġnine":6285,"Ġresponses":6286,"ĠIrish":6287,"utch":6288,"ĠEth":6289,"Ġsequence":6290,"igned":6291,"Ġroof":6292,"aser":6293,"pan":6294,"Ġmolecules":6295,"kes":6296,"tra":6297,"ĠStreet":6298,"Ġstands":6299,"ĠPan":6300,"Ġskill":6301,"95":6302,"Ġpra":6303,"Ġgluc":6304,"Ġmarried":6305,"Ġresolution":6306,"Ġhydrogen":6307,"Ġflag":6308,"Ġsimpl":6309,"Ġ1997":6310,"Ġpurchase":6311,"Ġknows":6312,"Ġremark":6313,"ĠStudy":6314,"lets":6315,"Ġconcrete":6316,"Ġemotions":6317,"ĠParty":6318,"fortunately":6319,"etime":6320,"Ġmagnetic":6321,"ĠDisease":6322,"ĠEmpire":6323,"fish":6324,"Ġconsumers":6325,"Ġreserv":6326,"Ġunus":6327,"zil":6328,"Ġwalking":6329,"Ġconventional":6330,"ĠPenn":6331,"âĢĻ,":6332,"Ġcarb":6333,"Ġsucceed":6334,"Ġserver":6335,"Ġfunds":6336,"ĠTime":6337,"phone":6338,"DP":6339,"ait":6340,"ctor":6341,"ĠBr":6342,"Ġnecessarily":6343,"Ġchosen":6344,"gu":6345,"Ġsupports":6346,"ĠSol":6347,"Ġneck":6348,"Ġboost":6349,"Ġhandle":6350,"Ġissued":6351,"Ġsurve":6352,"Ġflav":6353,"Ġrank":6354,"Ġcos":6355,"Ġalle":6356,"ĠMill":6357,"Ġturns":6358,"ifications":6359,"then":6360,"Ġintervention":6361,"ashion":6362,"Ġfighting":6363,"Ġdedicated":6364,"Ġtraum":6365,"Ġpersist":6366,"Ġsupporting":6367,"Ġjoin":6368,"Ġoutl":6369,"Ġhousing":6370,"Ġalgorith":6371,"Ġcholesterol":6372,"Ġsupposed":6373,"Ġjoined":6374,"ĠNatural":6375,"Ġoccasion":6376,"Ġemployment":6377,"Ġoverl":6378,"Ġthy":6379,"raq":6380,"otion":6381,"umes":6382,"rd":6383,"....":6384,"ester":6385,"Ġwilling":6386,"Ġultimately":6387,"ĠRob":6388,"ĠSciences":6389,"Ġsoul":6390,"Ġcolour":6391,"Ġcryst":6392,"quit":6393,"ĠAdminist":6394,"Ġtaste":6395,"ĠBank":6396,"Ġcomments":6397,"Ġamaz":6398,"Ġeastern":6399,"Ġlisten":6400,"ĠBoard":6401,"Ġregulations":6402,"Ġdebate":6403,"Ġvoltage":6404,"Ġterritory":6405,"Pe":6406,"Ġvariable":6407,"irty":6408,"ĠExt":6409,"Ġwitness":6410,"ora":6411,"Ġmixed":6412,"Ġaer":6413,"rovers":6414,"ĠCy":6415,"ĠIP":6416,"Ġvulnerable":6417,"Ġshot":6418,"iah":6419,"itter":6420,"Ġexists":6421,"Ġunderlying":6422,"Ġadministr":6423,"ĠRichard":6424,"ĠAS":6425,"Ġraw":6426,"gans":6427,"Ġrhy":6428,"ribe":6429,"Ġmice":6430,"Ġarchitecture":6431,"Ġends":6432,"Ġearthqu":6433,"Ġcounty":6434,"Ġdefe":6435,"Ġbehaviors":6436,"such":6437,"Ġtea":6438,"ih":6439,"Ġborder":6440,"Ġmild":6441,"Ġcomparison":6442,"Ġpron":6443,"Ġgrew":6444,"Ġepid":6445,"zed":6446,"01":6447,"Ġrequest":6448,"66":6449,"bur":6450,"Ġrising":6451,"iability":6452,"uter":6453,"ĠWhe":6454,"Ġbiggest":6455,"Ġhem":6456,"Ġphilosophy":6457,"ĠCap":6458,"Ġvoc":6459,"Ġlifestyle":6460,"Ġfiber":6461,"Ġacknow":6462,"Ġobservations":6463,"esis":6464,"ediatric":6465,"Ġcards":6466,"orous":6467,"Ġcontained":6468,"Ġattached":6469,"Ġpercentage":6470,"een":6471,"Ġnob":6472,"Ġlies":6473,"earchers":6474,"Ġmac":6475,"ĠRoyal":6476,"agon":6477,"ĠClin":6478,"Ġwhereas":6479,"Ġratio":6480,"Ġresulted":6481,"Ġconnections":6482,"Ġpus":6483,"Ġcompounds":6484,"Ġorganisms":6485,"Ġcutting":6486,"ugh":6487,"Ġguarant":6488,"ĠSecurity":6489,"ĠCat":6490,"ictionary":6491,"Ġhoriz":6492,"05":6493,"Ġhabits":6494,"Ġrelax":6495,"Ġmechanisms":6496,"ĠRevolution":6497,"struction":6498,"Ġcommunicate":6499,"79":6500,"Ġprove":6501,"Ġtransportation":6502,"IL":6503,"Ġfrequent":6504,"Ġfeeding":6505,"comm":6506,"how":6507,"ĠIII":6508,"Ġdrawing":6509,"Ġcustomers":6510,"Ġwhatever":6511,"Ġinstruments":6512,"Ġyield":6513,"Ġbreathing":6514,"Let":6515,"ĠTimes":6516,"riting":6517,"Ġwriter":6518,"Ġprompt":6519,"ĠChicago":6520,"ĠWood":6521,"Ġcapture":6522,"Ġnerve":6523,"irds":6524,"ĠVis":6525,"ĠViet":6526,"Ġregist":6527,"roduction":6528,"Ġequivalent":6529,"ĠItalian":6530,"while":6531,"Ġhero":6532,"Ġcart":6533,"Ġcontamin":6534,"Ġplayers":6535,"Ġmanif":6536,"Ġtwenty":6537,"Ġreactions":6538,"top":6539,"Ġpsychological":6540,"ĠMichael":6541,"cture":6542,"etics":6543,"Ġpreval":6544,"Ġblocks":6545,"Ġregul":6546,"Ġusage":6547,"Ġarrange":6548,"Ġcentre":6549,"Ġdistur":6550,"ĠScott":6551,"ĠHoly":6552,"Ġbutter":6553,"ĠAgricult":6554,"hav":6555,"Ġdoi":6556,"Ġsmoke":6557,"ployment":6558,"Ġcrim":6559,"EP":6560,"Ġinhib":6561,"Ġelection":6562,"Ġnearby":6563,"ups":6564,"Ġgap":6565,"Ġmachines":6566,"Figure":6567,"riers":6568,"stract":6569,"Ġforth":6570,"Ġelectro":6571,"Ġpolitics":6572,"xts":6573,"Ġ1996":6574,"Ġtall":6575,"Ġstable":6576,"Ġtrained":6577,"Ġfabric":6578,"ĠDesign":6579,"eless":6580,"BS":6581,"Ġbio":6582,"ĠEnd":6583,"Ġkit":6584,"Ġcrime":6585,"Ġparticipate":6586,"Bl":6587,"Ġmatters":6588,"Ġexplanation":6589,"peror":6590,"Ġnegot":6591,"Ġdemonstrated":6592,"43":6593,"Ġshop":6594,"Ġevaluation":6595,"Ġspok":6596,"ĠExper":6597,"Ġbot":6598,"ocy":6599,"Ġnoise":6600,"Ġcats":6601,"Ġnone":6602,"aud":6603,"Ġteen":6604,"Ġexplo":6605,"ĠOh":6606,"Ġdownload":6607,"Ġveter":6608,"uts":6609,"abled":6610,"eers":6611,"omer":6612,"Ġstreet":6613,"Int":6614,"ureau":6615,"Ġcrow":6616,"Ġbrand":6617,"arsh":6618,"bour":6619,"hered":6620,"Ġparticipation":6621,"Ġcoastal":6622,"icious":6623,"ĠOcean":6624,"Ġ1995":6625,"ett":6626,"Not":6627,"Ġuniversity":6628,"ĠIndians":6629,"Ġpassage":6630,"ourage":6631,"Ġdemonstrate":6632,"Ġahead":6633,"icit":6634,"Ġpup":6635,"Ġimprovement":6636,"Ġstring":6637,"Ġbread":6638,"ĠDig":6639,"Ġprev":6640,"Ġdelivery":6641,"Ġtrials":6642,"Ġaccident":6643,"ults":6644,"Ġentry":6645,"Ġdefine":6646,"ĠAdd":6647,"Ġholds":6648,"isk":6649,"eenth":6650,"Ġholid":6651,"Ġgenerations":6652,"Ġmand":6653,"ĠSing":6654,"teen":6655,"orses":6656,"ĠCarolina":6657,"88":6658,"ether":6659,"Ġmode":6660,"espread":6661,"ĠStep":6662,"Ġreven":6663,"Ġrelation":6664,"ĠColor":6665,"42":6666,"Ġhun":6667,"ĠPy":6668,"ĠDen":6669,"ditional":6670,"Ġhypothes":6671,"erior":6672,"Ġlegs":6673,"%)":6674,"Ġwasn":6675,"ĠEss":6676,"ĠNative":6677,"Ġ1960":6678,"Ġexamine":6679,"Ġrecognition":6680,"Ġbridge":6681,"Ġestimate":6682,"Ġdiagnosed":6683,"isdom":6684,"Ġestimates":6685,"ĠGard":6686,"Ġlegislation":6687,"Ġaward":6688,"ĠHaw":6689,"ĠClimate":6690,"Ġdelay":6691,"Ġcommitted":6692,"ĠAI":6693,"Ġ36":6694,"hop":6695,"Ġmolecular":6696,"Ġrivers":6697,"Ġeveryday":6698,"Ġfunctional":6699,"Ġdollars":6700,"urrent":6701,"Ġemployed":6702,"Ġinstructions":6703,"Ġagreed":6704,"ĠDet":6705,"OL":6706,"Ġindependence":6707,"First":6708,"everal":6709,"ĠKeep":6710,"Ġfever":6711,"Ġneur":6712,"hesis":6713,"Ġbeliefs":6714,"rat":6715,"Ġasthma":6716,"Ġfold":6717,"Ġmembran":6718,"ĠFrank":6719,"41":6720,"Ġchrom":6721,"ĠForm":6722,"itudes":6723,"ĠFree":6724,"Ġmaps":6725,"idity":6726,"inating":6727,"orph":6728,"ĠIraq":6729,"ĠWik":6730,"Ġinvolving":6731,"utrition":6732,"ighter":6733,"Ġpartner":6734,"Ġgreenhouse":6735,"Ġkidney":6736,"aine":6737,"Ġflo":6738,"Ġobjective":6739,"tic":6740,"Ġalter":6741,"Ġcompetition":6742,"Ġongoing":6743,"ented":6744,"Ġinteractions":6745,"Ġfeedback":6746,"cyclop":6747,"sen":6748,"irt":6749,"Ġconfidence":6750,"ella":6751,"ĠScot":6752,"Ġped":6753,"Rec":6754,"onia":6755,"ifts":6756,"Ġscene":6757,"Ġrow":6758,"arn":6759,"Ġsections":6760,"Ġring":6761,"Ġfract":6762,"scale":6763,"Ġblow":6764,"Ġille":6765,"Ġmeters":6766,"Ġvolcan":6767,"ulty":6768,"Ġpainting":6769,"IG":6770,"Ġearn":6771,"Ġended":6772,"Ġdomain":6773,"Ġarrest":6774,"ĠZeal":6775,"Ġentered":6776,"Ġzero":6777,"Ġ75":6778,"Ġdiscrimination":6779,"inson":6780,"itivity":6781,"using":6782,"Ġneither":6783,"itely":6784,"Ġdanger":6785,"Ġfu":6786,"Ġprogramming":6787,"Ġintegrated":6788,"ĠColumbia":6789,"Ġconclusion":6790,"Ġorient":6791,"fit":6792,"Ġrice":6793,"Ġmanip":6794,"Ġintellectual":6795,"earing":6796,"ishment":6797,"Ġoperate":6798,"Ġparallel":6799,"Ġcup":6800,"Ġsacr":6801,"Ġrecept":6802,"Ġforget":6803,"Ġdestruction":6804,"Ġlayers":6805,"Ġpositions":6806,"asters":6807,"Ġmicrob":6808,"ĠFace":6809,"aked":6810,"Ġruns":6811,"usiness":6812,"osion":6813,"Ġartificial":6814,"Ġphysics":6815,"Ġassociation":6816,"Ġmaintaining":6817,"Ġsmoking":6818,"Ġrealize":6819,"Ġtrip":6820,"Ġaccessible":6821,"ittle":6822,"Lear":6823,"cons":6824,"Ġexpansion":6825,"Ġbiod":6826,"ĠAst":6827,"Ġpregnant":6828,"Ġsole":6829,"gov":6830,"oples":6831,"Ġcriminal":6832,"Ġspaces":6833,"Ġrepair":6834,"Ġtissues":6835,"ĠVictor":6836,"Ġcamera":6837,"rey":6838,"Ġsail":6839,"ĠGeorg":6840,"Ġmatch":6841,"Ġpresentation":6842,"azine":6843,"ĠKingdom":6844,"Ġbrings":6845,"Ġdeclared":6846,"Ġdebt":6847,"Ġburning":6848,"uits":6849,"Ġsheet":6850,"Of":6851,"Ġinsulin":6852,"Ġsubstances":6853,"Ġpapers":6854,"Ġsomewhat":6855,"Ġru":6856,"Ġrocks":6857,"weight":6858,"ĠEarly":6859,"alm":6860,"Ġislands":6861,"Ġscan":6862,"Ġholding":6863,"ĠAge":6864,"Ġlegisl":6865,"yles":6866,"Ġcircle":6867,"ĠAtlantic":6868,"Ġmerely":6869,"ĠEastern":6870,"Ġobesity":6871,"ala":6872,"Ġgram":6873,"asty":6874,"Ġexercises":6875,"rite":6876,"Ġrelief":6877,"Ġvictims":6878,"Ġloved":6879,"ĠZealand":6880,"rary":6881,"uh":6882,"Ġpublication":6883,"Ġswim":6884,"Ġment":6885,"ĠBrazil":6886,"Ġtons":6887,"ady":6888,"Ġdepart":6889,"Ġdrawn":6890,"Ġstrongly":6891,"iratory":6892,"Ġdepartment":6893,"ĠAccess":6894,"ĠEc":6895,"raining":6896,"plant":6897,"Ġmissing":6898,"Ġconstructed":6899,"liest":6900,"ĠMartin":6901,"Ġlaunched":6902,"Ġglucose":6903,"gs":6904,"ĠDiff":6905,"Ġundert":6906,"Ġcovers":6907,"Ġphoto":6908,"igan":6909,"Ġprohib":6910,"Ġthanks":6911,"ĠGuide":6912,"Ġhonor":6913,"Ġpair":6914,"ĠMer":6915,"ĠFort":6916,"Ġtexts":6917,"ĠServices":6918,"Ġwidespread":6919,"Ġroute":6920,"rial":6921,"Ġnest":6922,"Ġbreath":6923,"ĠEqu":6924,"Ġboy":6925,"ĠPop":6926,"ĠÐ":6927,"Ġcontrovers":6928,"ritis":6929,"Ġreceiving":6930,"Ġdamaged":6931,"Ġhistoric":6932,"Ġcalories":6933,"Once":6934,"Ġ150":6935,"ĠCoast":6936,"Ġchick":6937,"Ġindustries":6938,"Ġmold":6939,"ĠLanguage":6940,"reated":6941,"Ġbeings":6942,"Ġoblig":6943,"Ġputting":6944,"forcement":6945,"Ġspending":6946,"Ġdesigns":6947,"alls":6948,"Ġboys":6949,"umps":6950,"Ġcolumn":6951,"Ġfourth":6952,"ĠHave":6953,"IR":6954,"Ġmood":6955,"Ġviruses":6956,"IP":6957,"ĠRom":6958,"Ġkne":6959,"heimer":6960,"car":6961,"Ġreliable":6962,"Ġdistributed":6963,"Ġorgans":6964,"Ġmathematics":6965,"CD":6966,"Ġvs":6967,"Ġcoc":6968,"Ġdisaster":6969,"Ġapproved":6970,"hent":6971,"Ġsought":6972,"Ġworry":6973,"Ġmarkets":6974,"Ġoutbre":6975,"ĠAsian":6976,"Ġclaimed":6977,"Ġturning":6978,"85":6979,"irus":6980,"AA":6981,"ĠSar":6982,"Ġcomposed":6983,"ĠAngel":6984,"rin":6985,"Ġ32":6986,"Ġtrouble":6987,"fl":6988,"ocation":6989,"Ġassume":6990,"Ġdefense":6991,"ĠFamily":6992,"dule":6993,"Ġsmooth":6994,"ĠNaz":6995,"Ġstatistics":6996,"Ġwait":6997,"Ġtheories":6998,"Ġcenters":6999,"Ġcontrols":7000,"heric":7001,"ading":7002,"Your":7003,"oln":7004,"Ġtemple":7005,"Ġindicated":7006,"Ġmoisture":7007,"Ġguidance":7008,"gers":7009,"Â·":7010,"Ġasking":7011,"Ġrig":7012,"iral":7013,"Ġchallenging":7014,"Even":7015,"Ġpounds":7016,"ohyd":7017,"Ġconstantly":7018,"Over":7019,"ĠHeb":7020,"Ġplane":7021,"Ġfemales":7022,"ortion":7023,"reek":7024,"Ġbabies":7025,"making":7026,"inally":7027,"Ġconsumer":7028,"aska":7029,"Ġhusband":7030,"ĠPract":7031,"Ġadvert":7032,"Ġvirtual":7033,"ĠMD":7034,"Ġmeal":7035,"Ġfro":7036,"Ġpanel":7037,"Ġescape":7038,"Ġsettings":7039,"Ġcategories":7040,"Ġnitrogen":7041,"Ġpoison":7042,"Don":7043,"VID":7044,"va":7045,"Ġintense":7046,"Ġnervous":7047,"ĠAcc":7048,"Ġforg":7049,"opic":7050,"Ġpharm":7051,"ĠSecret":7052,"TM":7053,"yal":7054,"Ġfurn":7055,"Ġmales":7056,"Ġseemed":7057,"Qu":7058,"Ġconven":7059,"Ġcarrying":7060,"ano":7061,"pes":7062,"Ġmoves":7063,"ĠâĨ":7064,"ĠWhere":7065,"opes":7066,"SS":7067,"ĠYear":7068,"abulary":7069,"usal":7070,"Ġcategory":7071,"Ġevaluate":7072,"Ġproportion":7073,"Ġmaintained":7074,"htt":7075,"Ġtight":7076,"Ġtank":7077,"Ġhole":7078,"Ġcompens":7079,"Ġmeasurements":7080,"Ġbeauty":7081,"aded":7082,"ĠBig":7083,"acher":7084,"Ġframe":7085,"Ġarchae":7086,"Ġtel":7087,"ĠTake":7088,"Ġconversation":7089,"ĠVen":7090,"Ġbringing":7091,"Ġstrict":7092,"Ġjudge":7093,"Ġminerals":7094,"Ġske":7095,"Ġrely":7096,"ĠOxford":7097,"rowing":7098,"esh":7099,"ĠBab":7100,"ĠNetwork":7101,"Ġroles":7102,"Ġdefend":7103,"Ġ65":7104,"itamin":7105,"ĠAgency":7106,"Ġcompare":7107,"Ġoutcome":7108,"Ø§":7109,"ivered":7110,"ĠHill":7111,"Ġtelevision":7112,"Ġsignificance":7113,"Ġcontemporary":7114,"ĠProp":7115,"Ġannounced":7116,"Ġplus":7117,"IA":7118,"ĠThough":7119,"Ġempt":7120,"Ġcrew":7121,"Ġrarely":7122,"Ġphosph":7123,"ĠCast":7124,"including":7125,"Ġstre":7126,"IDS":7127,"71":7128,"IM":7129,"ĠIran":7130,"operation":7131,"Ġinstalled":7132,"Note":7133,"Ġheating":7134,"Ġinterpretation":7135,"Ġshock":7136,"Ġfulf":7137,"Ġweapons":7138,"ĠJac":7139,"health":7140,"Ġcm":7141,"Ġwound":7142,"Ġdent":7143,"Ġaband":7144,"Ġdischar":7145,"72":7146,"Ġtub":7147,"Ġwriters":7148,"ĠChristmas":7149,"Ġmessages":7150,"Ġid":7151,"herent":7152,"Ġsatellite":7153,"73":7154,"Ġofficers":7155,"RA":7156,"onds":7157,"Ġengaged":7158,"Ġseeking":7159,"Ġvac":7160,"ocial":7161,"Ġevil":7162,"Ġserving":7163,"Ġplanned":7164,"sis":7165,"ĠBill":7166,"Ġtract":7167,"Ġminute":7168,"mers":7169,"ĠMen":7170,"ĠEffect":7171,"UN":7172,"oir":7173,"Ġlake":7174,"ĠTV":7175,"Ġterror":7176,"ĠDirector":7177,"Ġ400":7178,"Ġmining":7179,"Ġrecommendations":7180,"Ġbanks":7181,"adder":7182,"ollowing":7183,"'m":7184,"ĠChange":7185,"Ġtut":7186,"Ġingredients":7187,"Ġagents":7188,"Ġtheore":7189,"ĠAP":7190,"Ġattempts":7191,"Ġadequate":7192,"Ġcompris":7193,"Ġpassing":7194,"isco":7195,"Ġcareful":7196,"Ġimplications":7197,"ĠResources":7198,"Ġsigned":7199,"89":7200,"OM":7201,"Ġaims":7202,"Ġ1994":7203,"Ġvisitors":7204,"Ġdependent":7205,"Ġsharp":7206,"Ġsubsequent":7207,"Ġcash":7208,"Ġfashion":7209,"Ġdefect":7210,"Ġelected":7211,"Ġclothing":7212,"Ġartists":7213,"iological":7214,"ĠPolic":7215,"orders":7216,"Ġsla":7217,"Ġpreparation":7218,"06":7219,"oric":7220,"Ġsurfaces":7221,"Ġphenomenon":7222,"Ġcomplicated":7223,"ĠFund":7224,"Every":7225,"Ġinher":7226,"Ġroughly":7227,"Ġoffering":7228,"Ġseconds":7229,"Ġfacility":7230,"olesc":7231,"ĠList":7232,"Ġblind":7233,"Ġexamination":7234,"Ġfavorite":7235,"ani":7236,"Ġbiology":7237,"Am":7238,"ĠPet":7239,"ĠBefore":7240,"ersonal":7241,"ĠDar":7242,"Ġopposed":7243,"ĠCreat":7244,"ĠFather":7245,"Ġinfect":7246,"Ġtheme":7247,"li":7248,"Ġmineral":7249,"Ġconsiderable":7250,"Ġhur":7251,"Ġitem":7252,"Ġneighborhood":7253,"Le":7254,"Ġchest":7255,"ĠPlease":7256,"Ġconfirmed":7257,"Ġtraditions":7258,"Ġinn":7259,"Ġfairly":7260,"ounter":7261,"Ġlaunch":7262,"ĠDistrict":7263,"Ġfacing":7264,"Ġcombat":7265,"Because":7266,"Ġincred":7267,"idential":7268,"ĠSup":7269,"Ġmm":7270,"Ġye":7271,"ĠHy":7272,"Ġslavery":7273,"Ġbreeding":7274,"86":7275,"ĠSil":7276,"Ġdesired":7277,"Ġeffectiveness":7278,"Ġconcerning":7279,"Ġmechanical":7280,"ixture":7281,"Ġradical":7282,"ĠSometimes":7283,"CH":7284,"UT":7285,"Ġhorses":7286,"Ġreduces":7287,"ĠWord":7288,"Ġarts":7289,"Ġdates":7290,"ipedia":7291,"incoln":7292,"Ġcaptured":7293,"ĠMuslim":7294,"Ġjump":7295,"ommod":7296,"Ġproof":7297,"Ġerrors":7298,"Ġphysician":7299,"itual":7300,"Ġstructural":7301,"Ġcollaboration":7302,"ĠSpecial":7303,"Ġkilomet":7304,"ude":7305,"ĠPo":7306,"osh":7307,"Ġpoem":7308,"Ġdivision":7309,"Ġgalax":7310,"Ġtargets":7311,"Ġran":7312,"Su":7313,"oston":7314,"oven":7315,"Ġproceed":7316,"Ġrespectively":7317,"Ġordered":7318,"Ġrenewable":7319,"Ġphotos":7320,"medi":7321,"greg":7322,"ĠCa":7323,"Ġmaybe":7324,"Ġassigned":7325,"Ġmetabol":7326,"ĠJeff":7327,"net":7328,"zheimer":7329,"ĠSat":7330,"ĠSym":7331,"rous":7332,"ĠLib":7333,"ĠStar":7334,"Ġteams":7335,"ĠPen":7336,"occ":7337,"Ġequally":7338,"Ġimplemented":7339,"Ġgradually":7340,"rooms":7341,"eren":7342,"Ġbath":7343,"Ġdecor":7344,"Ġencouraged":7345,"%.":7346,"oding":7347,"Ġdelivered":7348,"Ġedition":7349,"ĠCre":7350,"Ġdeeper":7351,"ĠAmong":7352,"oured":7353,"Ġlie":7354,"Ġinfluenced":7355,"Ġinformed":7356,"ĠMoreover":7357,"vard":7358,"ĠTre":7359,"Ġknowing":7360,"Ġtranslation":7361,"icted":7362,"Ġsatisf":7363,"Ġprincipal":7364,"Ġunusual":7365,"Ġwithd":7366,"Ġfinished":7367,"ĠOrganization":7368,"74":7369,"ogether":7370,"Ġproved":7371,"ĠAdv":7372,"theless":7373,"Ġstatements":7374,"thritis":7375,"Ġthreats":7376,"Ġexcessive":7377,"ĠMethod":7378,"mes":7379,"Ġessentially":7380,"Ġimagine":7381,"Ġlaid":7382,"Ġexclus":7383,"Ġdose":7384,"Ġdealing":7385,"Ġacute":7386,"Ġembry":7387,"ĠForest":7388,"esides":7389,"ĠâĢ¢":7390,"Ġ1993":7391,"ĠMoon":7392,"Ġdemands":7393,"Ġinterpre":7394,"ĠWall":7395,"airy":7396,"Ġepis":7397,"Ġfed":7398,"ooking":7399,"apse":7400,"ĠDespite":7401,"ĠChristians":7402,"lvan":7403,"Ġcompound":7404,"Ġpreventing":7405,"ĠFacebook":7406,"Ġfer":7407,"Ġmeth":7408,"Ġgained":7409,"rays":7410,"Ġaccuracy":7411,"Ġowner":7412,"ĠType":7413,"Ġoverw":7414,"hyd":7415,"Ġstronger":7416,"produ":7417,"Ġcav":7418,"Ġexperimental":7419,"Today":7420,"rox":7421,"ruption":7422,"Ġstimul":7423,"Ġconsidering":7424,"Med":7425,"Ġflows":7426,"roat":7427,"eut":7428,"tles":7429,"ishop":7430,"Ġfilter":7431,"Ġshapes":7432,"oom":7433,"Ġmeasurement":7434,"Ġmosquit":7435,"aired":7436,"ĠGrand":7437,"Ġabnormal":7438,"ĠYoung":7439,"Ġfalls":7440,"Ġexamined":7441,"Ġpush":7442,"Ġplenty":7443,"Ġirrit":7444,"ĠIss":7445,"Ġremind":7446,"Ġrose":7447,"uality":7448,"Ġcriteria":7449,"ĠOpen":7450,"ĠAdministration":7451,"ĠLar":7452,"Ġconference":7453,"Ġwarning":7454,"ĠCheck":7455,"eness":7456,"Ġlymph":7457,"amine":7458,"Ġtransp":7459,"ĠWho":7460,"Ġmicrosc":7461,"outs":7462,"rass":7463,"ĠAND":7464,"ograp":7465,"ĠVer":7466,"Ġsuffered":7467,"fts":7468,"Ġplayer":7469,"Ġuniversal":7470,"64":7471,"ounce":7472,"ĠEp":7473,"Ġintent":7474,"Ġcorner":7475,"ricts":7476,"Ġregulation":7477,"Ġremoval":7478,"Ġscore":7479,"ĠFour":7480,"Ġmodified":7481,"example":7482,"Or":7483,"Ġfix":7484,"iana":7485,"Ġmountains":7486,"html":7487,"Ġsession":7488,"Ġreward":7489,"opyright":7490,"Ġnose":7491,"erman":7492,"Ġanalys":7493,"Ġwindows":7494,"Ġobserve":7495,"Ġnewly":7496,"Ġproven":7497,"Ġvarieties":7498,"CE":7499,"orted":7500,"Ġvariables":7501,"ĠKorea":7502,"Ġathlet":7503,"etary":7504,"Ġplanets":7505,"Ġflower":7506,"ĠCentre":7507,"Ġscar":7508,"Ġspin":7509,"Ġpresents":7510,"Ġearliest":7511,"Ġ1992":7512,"pd":7513,"agram":7514,"Ġmarks":7515,"Ġscreening":7516,"Ġbranches":7517,"Ġvan":7518,"lishing":7519,"ĠWindows":7520,"Ġisolated":7521,"Comp":7522,"bra":7523,"sylvan":7524,"olving":7525,"ventions":7526,"Ġinvestigation":7527,"Ġorbit":7528,"Ġconj":7529,"ĠForce":7530,"ercury":7531,"Ġhazard":7532,"Ġsport":7533,"Ġroads":7534,"Ġfarming":7535,"Ġgranted":7536,"ĠNon":7537,"ĠLead":7538,"Ġtube":7539,"Ġstuff":7540,"ĠIndust":7541,"Ġguard":7542,"ĠFurthermore":7543,"bar":7544,"HD":7545,"Ġpestic":7546,"Ġscientist":7547,"estion":7548,"ptions":7549,"agraph":7550,"Ġmortality":7551,"Ġadvantages":7552,"ĠFinally":7553,"she":7554,"Ġhappening":7555,"sm":7556,"encing":7557,"aming":7558,"Ġcommission":7559,"ĠTim":7560,"Ġstores":7561,"ĠAlzheimer":7562,"essions":7563,"Ġidentification":7564,"Ġabsence":7565,"istical":7566,"ĠKar":7567,"Ġaccompan":7568,"ĠMel":7569,")|":7570,"Comm":7571,"Ġdrain":7572,"amins":7573,"Ġpeak":7574,"aya":7575,"itals":7576,"Ġdetection":7577,"Ear":7578,"sell":7579,"She":7580,"ĠSund":7581,"class":7582,"Ġdifficulties":7583,"icate":7584,"Ġunion":7585,"Ġrational":7586,"ĠUr":7587,"ĠIns":7588,"Ġvariation":7589,"Ġsettlement":7590,"Ġusual":7591,"ĠSwed":7592,"Ġconcluded":7593,"aph":7594,"ioxid":7595,"Ġtrigger":7596,"Ġstead":7597,"ĠThree":7598,"Ġdriven":7599,"endment":7600,"chen":7601,"atial":7602,"amber":7603,"69":7604,"def":7605,"illa":7606,"unicip":7607,"ĠJo":7608,"Ġcopper":7609,"Ġclar":7610,"Ġuncertain":7611,"Ġbranch":7612,"Ġhealing":7613,"Ġquarter":7614,"Ġ1950":7615,"ilation":7616,"ĠMah":7617,"action":7618,"aws":7619,"Ġflour":7620,"Ġeliminate":7621,"anes":7622,"ĠEU":7623,"Ġintest":7624,"Ġreveal":7625,"Ġbigger":7626,"Ġprinted":7627,"ĠLearn":7628,"ima":7629,"Ġbreed":7630,"Ġfaced":7631,"Ġswitch":7632,"Ġevolved":7633,"ĠDev":7634,"ansas":7635,"Ġinnovation":7636,"RC":7637,"Ġserves":7638,"Ġconfig":7639,"achers":7640,"Ġadm":7641,"Ġpeoples":7642,"Per":7643,"ĠDoes":7644,"Ġ;":7645,"otton":7646,"Ġindigenous":7647,"Ġcaught":7648,"Ġsitting":7649,"People":7650,"ulpt":7651,"onym":7652,"Ġunw":7653,"ĠStr":7654,"Ġinspired":7655,"ĠProtection":7656,"ĠMS":7657,"Ġouter":7658,"ĠPot":7659,"Ġexceed":7660,"ogs":7661,"Ġenorm":7662,"allow":7663,"ultane":7664,"irth":7665,"Ġsubstantial":7666,"Ġrepresentation":7667,"amination":7668,"Ġinsert":7669,"ĠConservation":7670,"ĠPrinc":7671,"Ġbomb":7672,"Ġgro":7673,"Ġvisited":7674,"?\"":7675,"lete":7676,"ĠChapter":7677,"Ġcharacterized":7678,"ĠCommunity":7679,"Ġchannel":7680,"ĠResp":7681,"Ġaged":7682,"Ġaccommod":7683,"Ġcorrel":7684,"Ġmusical":7685,"Ġinitially":7686,"AB":7687,"rency":7688,"Ġampl":7689,"Ġartist":7690,"Ġsenior":7691,"Ã¢":7692,"Ġbees":7693,"Ġgut":7694,"ĠDutch":7695,"ĠEst":7696,"Ġpermission":7697,"print":7698,"Ġcooking":7699,"Ġfinds":7700,"Ġprominent":7701,"Ġconsume":7702,"Ġsunlight":7703,"Ġdys":7704,"igue":7705,"ovascular":7706,"Ġoldest":7707,"vin":7708,"bles":7709,"Ġrhyth":7710,"just":7711,"Ġprocessed":7712,"Ġsplit":7713,"Ġsup":7714,"Ġopposition":7715,"Ġfocuses":7716,"ĠEdward":7717,"iary":7718,"asts":7719,"Ġrecover":7720,"Ġmyst":7721,"Ġexception":7722,"rection":7723,"ĠLow":7724,"arents":7725,"ĠMinister":7726,"onomic":7727,"Ġrect":7728,"Ġalph":7729,"angle":7730,"Ġfung":7731,"Ġwrites":7732,"Ġdietary":7733,"Ã¤":7734,"Ġconqu":7735,"Ġarray":7736,"Ġanywhere":7737,"Ġassets":7738,"Ġasc":7739,"Ġfatty":7740,"cyclopedia":7741,"May":7742,"Ġfishing":7743,"CT":7744,"Ġdirected":7745,"ĠPlant":7746,"Ġsilver":7747,"Ġangle":7748,"Ġspectrum":7749,"abeth":7750,"Ġintensity":7751,"otype":7752,"Ġsuperior":7753,"Ġvictim":7754,"Ġcommunications":7755,"sylvania":7756,"Ġfest":7757,"Ġglac":7758,"ĠNov":7759,"Ġparas":7760,"rene":7761,"Ġchap":7762,"Ġritual":7763,"Ġracial":7764,"Ġamazing":7765,"Ġinfant":7766,"rison":7767,"elfare":7768,"Ġgiant":7769,"ĠDou":7770,"iva":7771,"Ġslaves":7772,"09":7773,"Ġ38":7774,"Ġpy":7775,"Ġcomplications":7776,"Ġplot":7777,"iner":7778,"irms":7779,"riend":7780,"Ġcab":7781,"emia":7782,"rolled":7783,"ĠLincoln":7784,"ieval":7785,"Ġbless":7786,"Ġemphasis":7787,"Ġdecreased":7788,"Ġ×":7789,"Ġrespiratory":7790,"ĠHebrew":7791,"aning":7792,"Ġstations":7793,"ĠLight":7794,"Ġadds":7795,"Ġcattle":7796,"08":7797,"Ed":7798,"Ġdrought":7799,"ĠWorks":7800,"Ġsupplements":7801,"Ġprinting":7802,"Car":7803,"Ġprovider":7804,"ogenic":7805,"riz":7806,"Ġautism":7807,"list":7808,"03":7809,"iat":7810,"ĠIV":7811,"ĠJul":7812,"Ġprovince":7813,"ĠNever":7814,"ells":7815,"ba":7816,"effect":7817,"Get":7818,"mod":7819,"Ġholes":7820,"pling":7821,"Ġperception":7822,"Ġlearners":7823,"acco":7824,"otherapy":7825,"yer":7826,"otal":7827,"ĠHor":7828,"Ġconserv":7829,"Ġdetected":7830,"Ġdiameter":7831,"Ġantibiotics":7832,"Ġfra":7833,"Ġrab":7834,"ucky":7835,"Ġwisdom":7836,"eli":7837,"Ġargue":7838,"Ġautomatically":7839,"App":7840,"ĠEr":7841,"night":7842,"Ġchlor":7843,"Ġliteracy":7844,"ĠSupreme":7845,"Ġconsideration":7846,"anger":7847,"century":7848,"',":7849,"bec":7850,"itarian":7851,"Ġworst":7852,"Ġoccurring":7853,"Ġdisrupt":7854,"Ġtowns":7855,"atively":7856,"Ġtrends":7857,"ĠQueen":7858,"ĠLiter":7859,"coming":7860,"rical":7861,"uset":7862,"Ġviewed":7863,"Ġcontribution":7864,"Ġturb":7865,"ĠMichigan":7866,"Ġcarbohyd":7867,"soft":7868,"Ġattach":7869,"Ġmeasuring":7870,"iture":7871,"Ġextend":7872,"real":7873,"asant":7874,"oli":7875,"ĠBoston":7876,"Ġobjectives":7877,"Ġelder":7878,"Ġjur":7879,"ĠAdditionally":7880,"Ġceremon":7881,"ĠCross":7882,"Ġalive":7883,"oga":7884,"Ġcalling":7885,"Ġpanels":7886,"Ġwine":7887,"Ġinterface":7888,"ĠConvention":7889,"ĠNeu":7890,"ENT":7891,"requ":7892,"Ġremed":7893,"Ġaddressed":7894,"Ġvideos":7895,"ĠSign":7896,"Ġimaging":7897,"Ġworship":7898,"Ġtreating":7899,"ĠSuper":7900,"athered":7901,"Ġcopyright":7902,"rav":7903,"Ġacres":7904,"ĠOtt":7905,"Ġeditor":7906,"Ġstrengthen":7907,"ĠAuthor":7908,"Ġovercome":7909,"Ġweakness":7910,"Ġov":7911,"Ġuniform":7912,"Ġdemocracy":7913,"Ġobservation":7914,"ĠCam":7915,"Pre":7916,"Ġreaching":7917,"aka":7918,"ĠCOVID":7919,"Ġcort":7920,"Ġheavily":7921,"ocolate":7922,"ĠLo":7923,"Ġmoderate":7924,"Ġformula":7925,"Ġdegrad":7926,"roud":7927,"ĠCurrent":7928,"Ġlogic":7929,"ĠSimilar":7930,"Ġinhabit":7931,"Ġpit":7932,"achuset":7933,"ĠOnline":7934,"Ġcourts":7935,"ĠArticle":7936,"Ġphrase":7937,"Ġslave":7938,"ĠCambridge":7939,"achusetts":7940,"Ġgrid":7941,"Ġexperiencing":7942,"Col":7943,"onal":7944,"ĠJohnson":7945,"Ġvocabulary":7946,"04":7947,"ĠSet":7948,"emb":7949,"Ġcontributed":7950,"ĠDC":7951,"Ġsales":7952,"enger":7953,"Ġpin":7954,"angered":7955,"68":7956,"Ġprogramme":7957,"Ġbiom":7958,"Ġillegal":7959,"Ġattitude":7960,"acent":7961,"Ġschedule":7962,"Ġ)":7963,"ĠAM":7964,"ĠNote":7965,"Ġthereby":7966,"neys":7967,"Ġgrows":7968,"Ġmothers":7969,"EF":7970,"Ġlights":7971,"Ġcomfortable":7972,"ĠRock":7973,"Ġwheat":7974,"Ġordinary":7975,"ĠGeorgia":7976,"Ġflying":7977,"ĠFigure":7978,"Ġhence":7979,"Ġcoverage":7980,"Ġforming":7981,"haust":7982,"Ġcooling":7983,"ĠTable":7984,"adel":7985,"quar":7986,"Ġprofit":7987,"ĠAmaz":7988,"itory":7989,"Ġhoney":7990,"ĠTop":7991,"Ġdecay":7992,"Ġ55":7993,"ĠFrancisco":7994,"har":7995,"ĠLy":7996,"Ġdesert":7997,"Ġauthent":7998,"mm":7999,"Ġinsight":8000,"Ġconcentrations":8001,"Last":8002,"Ġtropical":8003,"ĠGulf":8004,".).":8005,"urning":8006,"ĠSir":8007,"Ġperm":8008,"asma":8009,"ĠChristianity":8010,"ega":8011,"ĠPennsylvania":8012,"Ġsubt":8013,"ĠMult":8014,"ibraries":8015,"Ġcommitment":8016,"Ġlaser":8017,"Ġconce":8018,"Ġ33":8019,"Ġheads":8020,"ĠPrevention":8021,"Ġdisabilities":8022,"ĠPolicy":8023,"ruit":8024,"ĠPalest":8025,"Ġmur":8026,"stant":8027,"About":8028,"Ġstability":8029,"Ġtribes":8030,"quir":8031,"Ġpreced":8032,"Ġrelie":8033,"Ġseat":8034,"eping":8035,"Ġtaxes":8036,"iations":8037,"Ġfires":8038,"Ġlens":8039,"Ġcharged":8040,"bean":8041,"ĠPolit":8042,"ura":8043,"plete":8044,"Ġpolar":8045,"Ġelsewhere":8046,"Ġexpanded":8047,"Ġhidden":8048,"Ġadvent":8049,"ĠArctic":8050,"Ġengineers":8051,"Ġthreatened":8052,"Ġmigration":8053,"Ġabilities":8054,"agen":8055,"Part":8056,"Ġprotecting":8057,"PR":8058,"Ġmathematical":8059,"Ġcleaning":8060,"Ġgirl":8061,"Ġexplicit":8062,"Ġregardless":8063,"Ġmouse":8064,"Ġcounsel":8065,"Ġcorrectly":8066,"ustain":8067,"ailable":8068,"Ġgrain":8069,"Ġeducators":8070,"Ġboat":8071,"Ġhardware":8072,"Ġcovering":8073,"ette":8074,"cking":8075,"Ġseparated":8076,"Ġregarded":8077,"ami":8078,"Ġwheel":8079,"Ġpool":8080,"Ġpointed":8081,"ĠOhio":8082,"Ġorb":8083,"Ġethical":8084,"Ġaudio":8085,"una":8086,"Ġcomprom":8087,"Ġfaces":8088,"Ġmeals":8089,"Ġstopped":8090,"ĠEngineering":8091,"John":8092,"02":8093,"gon":8094,"Ġnice":8095,"Ġmanufacturers":8096,"98":8097,"ĠFire":8098,"Ġdynamic":8099,"Ġdescript":8100,"Ġlosses":8101,"Ġtong":8102,"Ġclient":8103,"ĠSafety":8104,"urches":8105,"Ġmir":8106,"Ġaffecting":8107,"Ġliterary":8108,"hus":8109,"aren":8110,"Ġsuscept":8111,"ĠFar":8112,"Ġspr":8113,"Ġswit":8114,"Ġidentifying":8115,"Ġenables":8116,"Ġincident":8117,"Ġ48":8118,"izabeth":8119,"Ġinteractive":8120,"Ġnarrative":8121,"Ġbelieves":8122,"HS":8123,"Ġfalling":8124,"Ġroyal":8125,"erty":8126,"Ġbehavioral":8127,"Ġquiet":8128,"Ġmixture":8129,"Ġfunctioning":8130,"Ġargued":8131,"GE":8132,"PC":8133,"Ġburied":8134,"Ġnewspaper":8135,"Ġspoken":8136,"ildren":8137,"Ġecological":8138,"door":8139,"oul":8140,"omatic":8141,"Ġsculpt":8142,"Ġantioxid":8143,"Ġstrike":8144,"Ġhumanity":8145,"Ġorders":8146,"Ġupdated":8147,"Ġappointed":8148,"Ġoverwhel":8149,"Ġflash":8150,"Ġprotective":8151,"Ġhormone":8152,"Ġgases":8153,"Ġshoot":8154,"ĠStart":8155,"Ġcharacteristic":8156,"Ġinnovative":8157,"ĠHand":8158,"brid":8159,"Ġproviders":8160,"Ġhouseholds":8161,"Ġvel":8162,"Ġmine":8163,"Ġplain":8164,"ĠUnfortunately":8165,"Ġparad":8166,"Ġlistening":8167,"ĠConference":8168,"run":8169,"Ġbrows":8170,"icing":8171,"amples":8172,"Ġeru":8173,"Ġhunting":8174,"63":8175,"Ġ^":8176,"Also":8177,"Ġhosp":8178,"Ġassumed":8179,"ĠMassachusetts":8180,"Ġ1930":8181,"archy":8182,"Ġinitiative":8183,"usalem":8184,"uy":8185,"ostic":8186,"ugg":8187,"Ġadolesc":8188,"Ġresearcher":8189,"ĠBattle":8190,"Ġrac":8191,"ĠRoad":8192,"Ġdramatic":8193,"BT":8194,"HA":8195,"Ð¾":8196,"Ġthermal":8197,"raham":8198,"forest":8199,"Ġ1991":8200,"Ġestablishment":8201,"ao":8202,"iop":8203,"ĠCard":8204,"ĠUt":8205,"Ġsurge":8206,"ĠMedia":8207,"Ġcyber":8208,"Ġembra":8209,"LC":8210,"Ġsizes":8211,"Ġ37":8212,"Ġevening":8213,"atal":8214,"istant":8215,"Ġagent":8216,"Ġreporting":8217,"ĠScotland":8218,"utation":8219,"Ġentit":8220,"ĠBooks":8221,"Ġsimultane":8222,"Ġacquired":8223,"ĠLos":8224,"Ġversions":8225,"ĠSand":8226,"Ġstrain":8227,"Ġexped":8228,"ema":8229,"Ġcontainer":8230,"Ġles":8231,"ĠOper":8232,"Ġclub":8233,"Ġprobability":8234,"Ġmanaging":8235,"ĠWithout":8236,"Ġtumor":8237,"ĠImp":8238,"iti":8239,"ĠPortug":8240,"ĠWay":8241,"Ġpreserve":8242,"Ġgrounds":8243,"Ð°":8244,"eting":8245,"ĠSanta":8246,"ĠCorn":8247,"ĠÂ£":8248,"Ġtor":8249,"Ġresid":8250,".'":8251,"icular":8252,"Ġfarms":8253,"Ġstreets":8254,"jo":8255,"uan":8256,"icy":8257,"uting":8258,"Ġarguments":8259,"adow":8260,"ĠHospital":8261,"ourse":8262,"ontal":8263,"Ġvaccines":8264,"%,":8265,"Ġbag":8266,"Ġvegetation":8267,"Hist":8268,"Ġtempor":8269,"Ġfellow":8270,"Ġharder":8271,"Ġven":8272,"Ġduty":8273,"holders":8274,"Ġbare":8275,"Ġfur":8276,"igate":8277,"ĠPur":8278,"Ġdance":8279,"iments":8280,"Ġsubstit":8281,"Ġsettled":8282,"Ġlists":8283,"ranean":8284,"Ġexciting":8285,"Co":8286,"Ġspray":8287,"ifice":8288,"ĠPak":8289,"ĠHeart":8290,"riday":8291,"ĠLee":8292,"ĠOl":8293,"ĠCho":8294,"Ġcreatures":8295,"Ġchemistry":8296,"Ġnutrient":8297,"Ġequation":8298,"Ġbiodiversity":8299,"zer":8300,"gener":8301,"ĠColl":8302,"Ġflexible":8303,"ĠAlexander":8304,"elve":8305,"Ġparagraph":8306,"67":8307,"NS":8308,"Ġinequ":8309,"ĠWal":8310,"Ġsocieties":8311,"Ġempty":8312,"Ġkilling":8313,"ĠSurvey":8314,"59":8315,"Ġinterior":8316,"ĠAL":8317,"Ġhabitats":8318,"lines":8319,"Ġowned":8320,"Ġmarketing":8321,"Ġdism":8322,"ĠEgyptian":8323,"Ġboundaries":8324,"lymp":8325,"rize":8326,"ĠGar":8327,"Ġheritage":8328,"ician":8329,"ĠPass":8330,"Ġdeeply":8331,"IF":8332,"Ġbeat":8333,"ĠDO":8334,"ĠAssess":8335,"Ġbeans":8336,"ĠBa":8337,"Ġdriver":8338,"Ġresc":8339,"Ġcommittee":8340,"Ġnotion":8341,"Ġaimed":8342,"ĠDivision":8343,"Ġdim":8344,"Ġentertain":8345,"ometry":8346,"Com":8347,"ket":8348,"olt":8349,"opher":8350,"ographical":8351,"Ġexecutive":8352,"Ġwonderful":8353,"oids":8354,"ĠSpirit":8355,"Ġadvis":8356,"Ġsensitivity":8357,"ĠTom":8358,"Ġanalyze":8359,"Ġdense":8360,"Ġbutton":8361,"Ġappeal":8362,"Ġtechnological":8363,"Ġexploration":8364,"ĠReading":8365,"ĠLess":8366,"apes":8367,"Ġtables":8368,"Ġul":8369,"Ġavailability":8370,"Ġimprovements":8371,"Ġmanifest":8372,"Ġtick":8373,"ĠModern":8374,"Ġtens":8375,"was":8376,"ceans":8377,"uten":8378,"zym":8379,"Ġstake":8380,"Ġchair":8381,"apor":8382,"Ġprofile":8383,"Ġemerging":8384,"ĠParliament":8385,"ĠTurk":8386,"Ġfought":8387,"Ġlip":8388,"ecess":8389,"Ġtemporary":8390,"Ġofficer":8391,"Ġpsychology":8392,"Ġphotographs":8393,"Ġom":8394,"Ġcas":8395,"Ġfats":8396,"Ġwaiting":8397,"Ġearthquake":8398,"Ġenormous":8399,"wan":8400,"Ġlifetime":8401,"Ġfisher":8402,"Ġstones":8403,"Ġphysically":8404,"Ġviolent":8405,"Ġvariations":8406,"ĠRh":8407,"Ġassert":8408,"],":8409,"ĠAsse":8410,"Ġdistricts":8411,"mann":8412,"hester":8413,"ayer":8414,"ĠJustice":8415,"ĠIslamic":8416,"Ġdeficiency":8417,"Ġparameters":8418,"gence":8419,"Ġpand":8420,"ipher":8421,"ĠLaboratory":8422,"ĠIdent":8423,"ĠMath":8424,"ĠWildlife":8425,"Ġwage":8426,"Ġshore":8427,"ĠSpring":8428,"Ġperceived":8429,"Sim":8430,"Ġsched":8431,"EE":8432,"Ġkeeps":8433,"Ġachievement":8434,"zyme":8435,"Ġdimens":8436,"Ġcancers":8437,"Ġpersonality":8438,"Ġdirections":8439,"world":8440,"ĠHead":8441,"Ġintroduce":8442,"ĠJerusalem":8443,":||":8444,"lims":8445,"words":8446,"alities":8447,"ĠCirc":8448,"Ġraising":8449,"Ġneutral":8450,"ifted":8451,"Ġadverse":8452,"Ġcollective":8453,"Ġexpectations":8454,"Ġquantity":8455,"Ġsaved":8456,"ailed":8457,"Ġcorresponding":8458,"Ġsentences":8459,"Ġexhaust":8460,"Ġcoat":8461,"ĠConnect":8462,"Ġvitamins":8463,"Ġsad":8464,"ĠTry":8465,"Ġstrategic":8466,"ĠSystems":8467,"http":8468,"Ġemotion":8469,"ĠFind":8470,"rob":8471,"Ġlowest":8472,"ĠClick":8473,"cho":8474,"ricted":8475,"Ġmarg":8476,"58":8477,"Under":8478,"Ġgrains":8479,"Ġvertical":8480,"ĠMess":8481,"ĠBusiness":8482,"ensed":8483,"Ġfocusing":8484,"Ġengaging":8485,"Ġexisted":8486,"ĠLin":8487,"ĠTestament":8488,"!âĢĿ":8489,"Ġreasonable":8490,"Ġfatigue":8491,"Ġbegun":8492,"kind":8493,"endar":8494,"ĠColorado":8495,"ĠTO":8496,"Ġsevent":8497,"ependent":8498,"ĠAgain":8499,"Ġsymbols":8500,"ĠNavy":8501,"Ġmg":8502,"Ġcontributions":8503,"Art":8504,")||":8505,"Ġconclus":8506,"aints":8507,"Ġaccord":8508,"Ġmyself":8509,"Ġperforming":8510,"Ġplanting":8511,"Ġkingdom":8512,"Ġexhibit":8513,"Ġconsciousness":8514,"ipe":8515,"Ġacting":8516,"EA":8517,"Ġentering":8518,"Ġdisability":8519,"text":8520,"Pr":8521,"br":8522,"Ġextension":8523,"2012":8524,"Ġpropag":8525,"Ġmembrane":8526,"ali":8527,"2010":8528,"Ġcomputing":8529,"Ġcolonies":8530,"Ġgravity":8531,"Cons":8532,"Ġton":8533,"through":8534,"Ġtransmit":8535,"Ġminds":8536,"Ġadapted":8537,"Ġlungs":8538,"Ġchances":8539,"Ġaging":8540,"borne":8541,"Ġinvestigate":8542,"ĠGre":8543,"56":8544,"Ġuniversities":8545,"ĠRight":8546,"Ġ1920":8547,"Ġguess":8548,"Ġheaven":8549,"ĠOs":8550,"ĠObs":8551,"Ġfinger":8552,"eor":8553,"Ġabstract":8554,"Ġconsumed":8555,"omers":8556,"ĠHarvard":8557,"Ġ2021":8558,"Ġrestoration":8559,"Ġpromoting":8560,"Ġcustomer":8561,"Ġtrauma":8562,"Ps":8563,"ĠNO":8564,"pled":8565,"Ġherb":8566,"eling":8567,"Ġhaven":8568,"ĠLittle":8569,"ogy":8570,"kl":8571,"ĠLast":8572,"Ġcelebrated":8573,"ĠSection":8574,"rix":8575,"Ġtelling":8576,"ĠEconomic":8577,"Where":8578,"Ġinterventions":8579,"07":8580,"Eng":8581,"ĠIT":8582,"Ġreturns":8583,"Ġurine":8584,"Ġ39":8585,"ĠAnalysis":8586,"2013":8587,"Ġpriority":8588,"Ġclassified":8589,"Ġequality":8590,"ĠOrig":8591,"Ġsummary":8592,"Ġcure":8593,"ĠPoint":8594,"Ġtargeted":8595,"Ġbacterial":8596,"dr":8597,"agan":8598,"Ġpoetry":8599,"ĠPhot":8600,"Are":8601,"orig":8602,"onday":8603,"ĠIndeed":8604,"Â®":8605,"Ġasp":8606,"Ġactively":8607,"Ġversus":8608,"Ġvirtually":8609,"Ġwider":8610,"abs":8611,"Ġmovie":8612,"Step":8613,"rh":8614,"ĠFact":8615,"Ġgods":8616,"imp":8617,"Ġlabour":8618,"Ġlinear":8619,"ouds":8620,"ashes":8621,"Ġstood":8622,"ĠPage":8623,"you":8624,"'.":8625,"green":8626,"hea":8627,"ĠOlymp":8628,"Ġmedicines":8629,"uum":8630,"anted":8631,"Ġvictory":8632,"ĠAgriculture":8633,"disc":8634,"Ġ120":8635,"Ġ95":8636,"Ġcord":8637,"Ġlosing":8638,"ĠStan":8639,"awa":8640,"Ġreferences":8641,"Ġpreferred":8642,"ptic":8643,"Ġwouldn":8644,"ĠKey":8645,"Ġtransmitted":8646,"Ġpainful":8647,"Ġstyles":8648,"Ġholiday":8649,"thon":8650,"Ġobst":8651,"Ġfuels":8652,"zo":8653,"ĠMoses":8654,"Ġscheme":8655,"ĠFred":8656,"Ġintention":8657,"Ġfinish":8658,"hire":8659,"Ġease":8660,"Ġcolony":8661,"'d":8662,"Ġsustainability":8663,"rity":8664,"Ġaccompanied":8665,"onents":8666,"play":8667,"ĠDigital":8668,"aret":8669,"53":8670,"Ġcardiovascular":8671,"\")":8672,"Ġrecording":8673,"Ġconstra":8674,"Ġquantum":8675,"ĠSunday":8676,"bell":8677,"Ġpion":8678,"Using":8679,"atter":8680,"Ġevident":8681,"Ġtraits":8682,"Ġregime":8683,"operative":8684,"adelph":8685,"ĠHim":8686,"Ġmanager":8687,"Ġsensors":8688,"Ġensuring":8689,"iterranean":8690,"Ġcalculated":8691,"eutic":8692,"foot":8693,"ico":8694,"Ġrequirement":8695,"Ġsodium":8696,"Ġclassical":8697,"DS":8698,"feed":8699,"Ġgathered":8700,"Ġspinal":8701,"Ġshaped":8702,"Ġwars":8703,"uther":8704,"Ġranging":8705,"Ġtransc":8706,"Ġpromise":8707,"Ġloose":8708,"iblical":8709,"Ġcurve":8710,"Sm":8711,"fast":8712,"Ġanger":8713,"Ġoccas":8714,"ĠAvoid":8715,"Ġecosystems":8716,"ĠVietnam":8717,"ĠPakistan":8718,"ivest":8719,"ospel":8720,"bel":8721,"Ġapplying":8722,"Ġcouncil":8723,"Ġ34":8724,"Ġinvasion":8725,"Ġseriously":8726,"ĠElizabeth":8727,"Ġconverted":8728,"box":8729,"Ġcraft":8730,"Ġparticle":8731,"Ġcontinuing":8732,"Ġhall":8733,"Ġresistant":8734,"Ġsoph":8735,"fe":8736,"Ġdetermining":8737,"Ġrobot":8738,"ĠBuddh":8739,"Ġprescribed":8740,"Ġears":8741,"TP":8742,"ĠCE":8743,"thew":8744,"asy":8745,"ĠCub":8746,"Ġspoke":8747,"Ġoxid":8748,"Ġdropped":8749,"ĠEPA":8750,"Ġremarkable":8751,"Ġcotton":8752,"idal":8753,"ricks":8754,"Ġremoving":8755,"MA":8756,"Ne":8757,"2011":8758,"Ġanticip":8759,"Ġfeels":8760,"ĠMinistry":8761,"ĠSenate":8762,"Like":8763,"Ref":8764,"Ġscores":8765,"Ġrepresentative":8766,"Ġpleasure":8767,"Ðµ":8768,"Ġtip":8769,"Ġconvey":8770,"Ġindirect":8771,"Ġwatching":8772,"Ġpassion":8773,"ati":8774,"Ġsees":8775,"Ġmetals":8776,"----":8777,"Ġimmigrants":8778,"mentia":8779,"Ġintegration":8780,"isd":8781,"ĠMur":8782,"Ġmodule":8783,"Ġcapabilities":8784,"Ġverb":8785,"made":8786,"Ġsafely":8787,"ĠSecretary":8788,"Ġfo":8789,"plo":8790,"Ġdifferently":8791,"Ġaggressive":8792,"ĠDrug":8793,"61":8794,"Just":8795,"Ġmunicip":8796,"aware":8797,"Ġpersonnel":8798,"Ġwebsites":8799,"Ġtone":8800,"Ġwat":8801,"ocated":8802,"Ġirrig":8803,"Ġdominant":8804,"adelphia":8805,"eries":8806,"Ġarmed":8807,"Ġhypothesis":8808,"ĠSolar":8809,"rue":8810,"Ġclock":8811,"agnetic":8812,"Ġ1940":8813,"Ġadopt":8814,"Ġsacred":8815,"Ġtact":8816,"Ġgift":8817,"ifier":8818,"awn":8819,"Ġdrinks":8820,"mun":8821,"Ġgent":8822,"ĠBureau":8823,"Ġdiffer":8824,"Ġreverse":8825,"Ġattribut":8826,"Ġfriendly":8827,"gien":8828,"ĠpH":8829,"Ġinvolvement":8830,"ĠJacob":8831,"ĠIslands":8832,"Who":8833,"Ġapparently":8834,"onomy":8835,"Ġduration":8836,"Ġprivile":8837,"ĠPhilipp":8838,"Ġresil":8839,"Ġoccupied":8840,"Ġweigh":8841,"mentation":8842,"Ġchose":8843,"Ġestate":8844,"hemistry":8845,"Ġcolonial":8846,"ĠBiology":8847,"Ġexpertise":8848,"Despite":8849,"Each":8850,"ressing":8851,"Ġinfants":8852,"Ġscope":8853,"Ġsurg":8854,"ĠMusic":8855,"Ġsubsid":8856,"Ġpermit":8857,"Ġproductivity":8858,"Ġqualities":8859,"Ġnutritional":8860,"Ã±":8861,"erts":8862,"unc":8863,"Ġbreaking":8864,"Ġprivacy":8865,"Ġfacilitate":8866,"ĠNob":8867,"outheast":8868,"Ġplanted":8869,"this":8870,"ĠBM":8871,"Ġsuicide":8872,"Ġliterally":8873,"Ġdefinitely":8874,"Ġopinions":8875,"Ġteens":8876,"Ġreaches":8877,"Ġchromos":8878,"ĠSaint":8879,"Ġlock":8880,"claim":8881,"ĠAmazon":8882,"Ġcul":8883,"Ġtom":8884,"Ġreserved":8885,"ĠVe":8886,"Ġengines":8887,"Ġbatteries":8888,"Ġbarrier":8889,"UL":8890,"uscript":8891,"Ġjoy":8892,"Ġdescend":8893,"Ġzones":8894,"ĠÂ©":8895,"Ġwelfare":8896,"Ġsteam":8897,"Ġrecycling":8898,"Ġbleeding":8899,"Ġfrust":8900,"ĠMove":8901,"Ġhappiness":8902,"Ġdiscussions":8903,"Ġdisplayed":8904,"Ġneurons":8905,"Ġnoticed":8906,"Ġunn":8907,"Ġdies":8908,"ĠVan":8909,"Ġaddiction":8910,"Ġ1989":8911,"Ġminority":8912,"Ġgly":8913,"umer":8914,"Ġvot":8915,"Ġengagement":8916,"Ge":8917,"amil":8918,"Ġprey":8919,"à¥":8920,"Ġcable":8921,"Ġcran":8922,"aven":8923,"Ġtrace":8924,"Ġtelesc":8925,"mented":8926,"Ġsuit":8927,"Ġposts":8928,"havior":8929,"Ġtack":8930,"Ġdict":8931,"Ġbeach":8932,"eras":8933,"Ġdevast":8934,"ĠGreece":8935,"ĠFil":8936,"after":8937,"Ġcub":8938,"advant":8939,"ĠEncyclopedia":8940,"Ġhydro":8941,"ĠSeveral":8942,"Ġpeer":8943,"Ġspecified":8944,"Ġelections":8945,"BM":8946,"Ġbears":8947,"ĠMax":8948,"Ġchocolate":8949,"Ġperf":8950,"Ġfunded":8951,"Ġcelebrate":8952,"mond":8953,"section":8954,"izz":8955,"Ġdevelops":8956,"ĠAsk":8957,"Ġrealized":8958,"also":8959,"Ġnom":8960,"ĠMediterranean":8961,"ĠIncre":8962,"Ġorigins":8963,"Ġcomplexity":8964,"Ġtransferred":8965,"ivestock":8966,"vation":8967,"Ġcann":8968,"Ġlogical":8969,"ĠLew":8970,"Ġhandling":8971,"Ġannually":8972,"uity":8973,"ĠBack":8974,"ĠOffic":8975,"ysical":8976,"Ġdevelopments":8977,"Ġdocumented":8978,"Ġatoms":8979,"ĠDiet":8980,"Ġfaculty":8981,"Ġcrown":8982,"Ġshorter":8983,"Ġspan":8984,"Ġcertific":8985,"ĠDown":8986,"Ġherself":8987,"Ġreadily":8988,"Ġdeploy":8989,"Ġauto":8990,"ĠPerhaps":8991,"ila":8992,"ĠSS":8993,"Ġalarm":8994,"Then":8995,"ĠChief":8996,"Ġenthus":8997,"ĠConfed":8998,"Before":8999,"Ġsessions":9000,"ĠTown":9001,"ĠMuslims":9002,"Sec":9003,"ĠMid":9004,"ogens":9005,"Ġenjoyed":9006,"oline":9007,"berry":9008,"ologically":9009,"lected":9010,"irable":9011,"Ġevolutionary":9012,"Ġgast":9013,"Ġconvert":9014,"Ġvolunteers":9015,"Ġdrivers":9016,"ĠAngeles":9017,"Ġpill":9018,"ateral":9019,"Ġrefused":9020,"Os":9021,"Ġcow":9022,"Ġmature":9023,"Ġadvances":9024,"Scient":9025,"Ġfet":9026,"icts":9027,"Ġreign":9028,"Ġash":9029,"62":9030,"enda":9031,"Ġspots":9032,"52":9033,"host":9034,"mail":9035,"pre":9036,"izers":9037,"ĠContin":9038,"dep":9039,"Ġtob":9040,"Ġidentical":9041,"Ġrestore":9042,"ĠHeritage":9043,"ĠTurkey":9044,"rons":9045,"ĠFair":9046,"Ġclients":9047,"Ġrestrictions":9048,"Ġpel":9049,"usive":9050,"ĠHa":9051,"Ġcooperation":9052,"Ġsleeping":9053,"Ġassemb":9054,"ĠCapt":9055,"ĠRail":9056,"ouses":9057,"Ġeverywhere":9058,"Ġreflected":9059,"Source":9060,"Ġaest":9061,"Ġdraft":9062,"ĠBlue":9063,"ĠPeace":9064,"specific":9065,"Rel":9066,"ĠField":9067,"ushing":9068,"Ġjoints":9069,"Ġrestaur":9070,"CA":9071,"Ġstrange":9072,"aterials":9073,"Ġfilms":9074,"97":9075,"actions":9076,"ĠInvest":9077,"Ġrecre":9078,"regon":9079,"Ġtu":9080,"Ġchurches":9081,"Ġemerged":9082,"Ġpilot":9083,"Ġunlikely":9084,"mia":9085,"Ġft":9086,"ilst":9087,"shaped":9088,"Ġvibr":9089,"Ġprayer":9090,"Ġthread":9091,"ador":9092,"Ġsurprise":9093,"Ġbuff":9094,"ĠPlay":9095,"Ġspacecraft":9096,"onom":9097,"thod":9098,"Ġwearing":9099,"chnology":9100,"Ġchoosing":9101,"Ġruled":9102,"Ġcontrolling":9103,"ĠDictionary":9104,"Ġabol":9105,"Ġcontents":9106,"Ġownership":9107,"EG":9108,"Ġbee":9109,"ĠWeek":9110,"Ġforecast":9111,"Ġempire":9112,"Ġsons":9113,"ĠEll":9114,"Ġpurchased":9115,"ĠMarine":9116,"Ġacknowled":9117,"ĠAk":9118,"ĠMA":9119,"Ġrepresenting":9120,"Ġmammals":9121,"ĠWikipedia":9122,"bury":9123,"Ġspatial":9124,"Ġclay":9125,"Ġsuddenly":9126,"ĠBulgar":9127,"ĠØ":9128,"Ġsaving":9129,"ifer":9130,"54":9131,"Ġthroat":9132,"Ġassembly":9133,"Tra":9134,"Ġsuspect":9135,"Ġlimitations":9136,".),":9137,"Mar":9138,"Ġtill":9139,"asm":9140,"omal":9141,"issance":9142,"Ġvaries":9143,"Ġclassic":9144,"ĠHawai":9145,"Ġcited":9146,"ometer":9147,"ĠHum":9148,"Ġcompos":9149,"Ġassociate":9150,"TH":9151,"Ġborrow":9152,"cin":9153,"enh":9154,"ĠCT":9155,"Ġclothes":9156,"itting":9157,"Ġsug":9158,"Ġcurrency":9159,"ĠBeing":9160,"Ġdivine":9161,"olk":9162,"Ġbene":9163,"Ġgardens":9164,"Ġpartnership":9165,"Ġpaintings":9166,"ĠFarm":9167,"ĠLuc":9168,"Ġreveals":9169,"ĠObama":9170,"estions":9171,".||":9172,"Ġhat":9173,"Ġorange":9174,"Ġdeer":9175,"Ġdefault":9176,"ĠProcess":9177,"Ġtrem":9178,"Ġpenal":9179,"Ġtherm":9180,"Ġtongue":9181,"ĠAff":9182,"ĠCreek":9183,"Ġcheap":9184,"Ġviral":9185,"ackson":9186,"Ġsongs":9187,"Gl":9188,"Ġpace":9189,"ĠStandard":9190,"Ġcouldn":9191,"Ġwithdraw":9192,"function":9193,"ĠMajor":9194,"opl":9195,"Ġvaried":9196,"inois":9197,"Ġdairy":9198,"teb":9199,"Ġsensor":9200,"ĠMexican":9201,"Ġentitled":9202,"press":9203,"Ġgum":9204,"Ġ(\"":9205,"Ġworker":9206,"fulness":9207,"Ġvisits":9208,"zymes":9209,"Ġpets":9210,"Ġvillages":9211,"Ġreplacement":9212,"ĠHistorical":9213,"Ġdating":9214,"ĠBal":9215,"ĠBuilding":9216,"Ġuncle":9217,"Ġinvention":9218,"2009":9219,"Ġtobacco":9220,"di":9221,"assium":9222,"Ġstreams":9223,"best":9224,"Ġshed":9225,"amps":9226,"Ġcompost":9227,"ĠImpro":9228,"Ġdil":9229,"ĠAR":9230,"ĠBang":9231,"Ġincent":9232,"Ġprovision":9233,"Ġpreserved":9234,"Ġgrades":9235,"Ġlighting":9236,"ĠCommons":9237,"Ġpenet":9238,"ethe":9239,"ĠGall":9240,"Ġencl":9241,"oked":9242,"Ġutility":9243,"ĠPhiladelphia":9244,"Ġfifth":9245,"Ġdeposits":9246,"ĠDie":9247,"Ġbeneath":9248,"abb":9249,"ĠCentury":9250,"ĠTreatment":9251,"ĠTemple":9252,"Ġunderground":9253,"neum":9254,"Ġsister":9255,"mental":9256,"acles":9257,"Ġending":9258,"amic":9259,"Ġbuying":9260,"Ġpaying":9261,"Ġattractive":9262,"Ġenforcement":9263,"Ġburden":9264,"Ġmilit":9265,"Ġcirculation":9266,"Ġallergic":9267,"orus":9268,"ĠAbraham":9269,"books":9270,"Ġancestors":9271,"Ġprevalence":9272,"raine":9273,"CP":9274,"ĠSon":9275,"power":9276,"Ġexploring":9277,"Rep":9278,"ĠCP":9279,"Ġrequiring":9280,"Ġencounter":9281,"Ġwise":9282,"orters":9283,"Ġeleph":9284,"Ġattempted":9285,"Ġsciences":9286,"Ġestablishing":9287,"Ġimagination":9288,"Ġconversion":9289,"ĠCA":9290,"issipp":9291,"Ġdipl":9292,"2006":9293,"Ġperfectly":9294,"View":9295,"iger":9296,"ĠLog":9297,"Ġabsorb":9298,"Ġneuro":9299,"Ġmorph":9300,"Ġbalanced":9301,"Ġmaxim":9302,"lock":9303,"Ġtort":9304,"Ġlun":9305,"ĠRest":9306,"Ġoutbreak":9307,"Post":9308,"ĠES":9309,"Ġinvasive":9310,"olph":9311,"ĠAction":9312,"Two":9313,"Ġsmell":9314,"Ġsavings":9315,"Ġchannels":9316,"aneous":9317,"Ġwooden":9318,"Ġelectrons":9319,"western":9320,"ĠPu":9321,"Ġmanual":9322,"Ġmagnitude":9323,"Ġtension":9324,"uled":9325,"ĠArts":9326,"ĠAndrew":9327,"Ġbreaks":9328,"Ġgraduate":9329,"III":9330,"sex":9331,"apped":9332,"ĠAntar":9333,"sub":9334,"urable":9335,"igious":9336,"Ġapplies":9337,"Ġsale":9338,"ĠDaniel":9339,"93":9340,"Ġsending":9341,"ĠRNA":9342,"Ġdistant":9343,"Ġinhabitants":9344,"ĠMach":9345,"Ġcompetitive":9346,"Ġembed":9347,"ĠFriday":9348,"Ġprecisely":9349,"Ġ(âĢľ":9350,"Ġbasically":9351,"Ġcuts":9352,"Ġpowder":9353,"Ġsurveys":9354,"vi":9355,"Ġreef":9356,"iano":9357,"Ġbroke":9358,"Ġmeaningful":9359,"Sub":9360,"friend":9361,"Ġlakes":9362,"ĠNext":9363,"Ġultimate":9364,"ĠRam":9365,"Ġcalculate":9366,"Ġtag":9367,"oded":9368,"Ġvig":9369,"Ġaddresses":9370,"Ġvegetable":9371,"pos":9372,"erving":9373,"Ġ42":9374,"inces":9375,"ĠLater":9376,"Ġdiscipline":9377,"ĠCrit":9378,"Ġlegit":9379,".:":9380,"ĠID":9381,"Ġoverview":9382,"Ġreproductive":9383,"Ġwal":9384,"Ġpairs":9385,"Ġlingu":9386,"ĠAlaska":9387,"regular":9388,"cut":9389,"swe":9390,"enter":9391,"obile":9392,"Ġreflection":9393,"Ġscenario":9394,"BI":9395,"á¹":9396,"ĠCop":9397,"Ġinsights":9398,"Ġlanding":9399,"Ġspecialist":9400,"ĠSmall":9401,"Ġabsolutely":9402,"ĠFDA":9403,"Ġsolving":9404,"Ġswelling":9405,"Ġmerch":9406,"atus":9407,"ĠNorm":9408,"Ġpersu":9409,"Ġdistinction":9410,"Ġdistinguish":9411,"Ġtap":9412,"Ġgate":9413,"Ġspecialized":9414,"ĠArea":9415,"erally":9416,"Ġrecall":9417,"Ġseparation":9418,"Ġregistered":9419,"57":9420,"Ġbought":9421,"2008":9422,"Ġaccurately":9423,"ĠLim":9424,"Ġsediment":9425,"sk":9426,"Ġol":9427,"ocument":9428,"ĠUV":9429,"ritten":9430,"Ġrays":9431,"icking":9432,"ophical":9433,"Ġpreparing":9434,"Ġpupils":9435,"cule":9436,"ref":9437,"Ġdimin":9438,"Ġholy":9439,"Ġlibraries":9440,"ĠOregon":9441,"ĠJr":9442,"Ġattributed":9443,"Ġinev":9444,"Ġprime":9445,"Ġtotally":9446,"emies":9447,"Ġenzyme":9448,"rub":9449,"Ġaccomplish":9450,"mble":9451,"trans":9452,"Ġmira":9453,"ĠKids":9454,"ologic":9455,"oves":9456,"2007":9457,"Ġmeetings":9458,"Ġcellular":9459,"Ġbarriers":9460,"ĠAssembly":9461,"ocity":9462,"ideo":9463,"Ġsurrounded":9464,"ĠEmer":9465,"ĠTrust":9466,"Ġpert":9467,"Ġgenome":9468,"Ġproductive":9469,"Ġhormones":9470,"ught":9471,"ĠNutrition":9472,"aved":9473,"ictions":9474,"Ġhopes":9475,"Ġjuice":9476,"Please":9477,"Î±":9478,"ĠOften":9479,"Ġsurprising":9480,"51":9481,"rose":9482,"Ġlob":9483,"ĠCode":9484,"ĠGuard":9485,"Ġanalyzed":9486,"Ġpackage":9487,"rological":9488,"Click":9489,"Ġion":9490,"Ġpractition":9491,"Ġprofound":9492,"Pub":9493,"Ġwing":9494,"rip":9495,"Ġsurvived":9496,"Ġrevenue":9497,"National":9498,"Ġhal":9499,"Ġworkplace":9500,"Ġoils":9501,"Ġtends":9502,"ghan":9503,"Ġinstances":9504,"Ġtranslated":9505,"Ġbutterf":9506,"Ġfan":9507,"ĠHindu":9508,"Ġrod":9509,"Ġrooms":9510,"Ġmemor":9511,"Ġnuts":9512,"pdf":9513,"worth":9514,"Ġprox":9515,"Ġalign":9516,"ĠHence":9517,"Ġpainted":9518,"Ġacceptable":9519,"!!":9520,"terior":9521,"about":9522,"Ġdisag":9523,"Ġpossibilities":9524,"ĠWhich":9525,"stru":9526,"ĠVitamin":9527,"ĠâĨĳ":9528,"OD":9529,"ĠNeed":9530,"Ġdoors":9531,"Ġexclud":9532,"ometric":9533,"Ġchicken":9534,"Ġpasses":9535,"ĠBlood":9536,"Ġreasoning":9537,"Ġkilometers":9538,"Ġperpet":9539,"Ġjudgment":9540,"ĠDam":9541,"Ġunem":9542,"Ġputs":9543,"ĠHelp":9544,"QL":9545,"Ġsulf":9546,"Ġarise":9547,"Ġscholar":9548,"Ġdisturb":9549,"Ġmetabolism":9550,"oons":9551,"ĠFed":9552,"angel":9553,"Ġassignment":9554,"Ġliberal":9555,"Ġcandidates":9556,"ĠWhether":9557,"bow":9558,"Ġcitizen":9559,"ĠCost":9560,"Ġscr":9561,"Ġinitiatives":9562,"quiry":9563,"CR":9564,"Ġwings":9565,"ĠIce":9566,"Ġsalmon":9567,"ĠModel":9568,"ĠPoly":9569,"Me":9570,"ĠKent":9571,"Ġcream":9572,"Ġlicense":9573,"ĠLi":9574,"Ġregulate":9575,"Ġproposal":9576,"Ġsimultaneously":9577,"Ġcycles":9578,"Ġinfluences":9579,"ĠLevel":9580,"Ġcopies":9581,"Ġdramatically":9582,"issippi":9583,"Use":9584,"Ġcodes":9585,"ĠHit":9586,"oca":9587,"Ġglobe":9588,"Ġsurprised":9589,"Ġpandemic":9590,"Ġshr":9591,"Ġincidence":9592,"Ġsubsc":9593,"Ġcoron":9594,"Ġspons":9595,"Ġregister":9596,"Ġdesignated":9597,"illance":9598,"Ġneural":9599,"Ġillnesses":9600,"page":9601,"isted":9602,"ĠOnt":9603,"Ġatmospheric":9604,"Ġoste":9605,"ĠBush":9606,"erb":9607,"acle":9608,"ivation":9609,"ĠIllinois":9610,"gments":9611,"ori":9612,"Ġrelate":9613,"Ġoceans":9614,"Ġarc":9615,"Ġminimize":9616,"Ġalgorithm":9617,"Learn":9618,"Ġrefugees":9619,"ais":9620,"Ġaddressing":9621,"oler":9622,"ĠFish":9623,"Ġsheep":9624,"nedy":9625,"Ġcontributing":9626,"Ġoccasionally":9627,"OW":9628,"Ġinherent":9629,"ighth":9630,"ĠBuddha":9631,"Ġbottle":9632,"92":9633,"Ġ600":9634,"Ġtumors":9635,"Ġathletes":9636,"ications":9637,"Ġbell":9638,"Ġ1000":9639,"Ġamino":9640,"Ġseverity":9641,"Ġbullying":9642,"Ġsurgical":9643,"Ġschem":9644,"lectric":9645,"Ġlegend":9646,"Ġ1988":9647,"300":9648,"eem":9649,"omed":9650,"ĠUnivers":9651,"uis":9652,"Ġmedieval":9653,"Ġcombine":9654,"Trans":9655,"Ġaside":9656,"Ġseal":9657,"Ġconfusion":9658,"engers":9659,"ĠBu":9660,"Ġconsent":9661,"Ġresemb":9662,"Ġprecip":9663,"Ġflexibility":9664,"aque":9665,"Ġendangered":9666,"Ġsatisfact":9667,"ener":9668,"thur":9669,"Ġdementia":9670,"Ġreflects":9671,"2000":9672,"ĠRather":9673,"Ġdiarr":9674,"Ġbonds":9675,"ĠRemember":9676,"Ġdimensions":9677,"ĠCr":9678,"ĠVar":9679,"Ġcalm":9680,"Ġgrammar":9681,"Ġelderly":9682,"Ġminimal":9683,"ĠPhD":9684,"Ġoperated":9685,"ĠStandards":9686,"Ġhier":9687,"ĠSP":9688,"Ġplasma":9689,"Ġcompass":9690,"Ġoutdoor":9691,"Ġvalve":9692,"ĠPlace":9693,"Ġdiets":9694,"profit":9695,"Reg":9696,"ĠScript":9697,"Ġcollections":9698,"quality":9699,"ĠFer":9700,"Ġcreativity":9701,"Ġrepeat":9702,"Ġcorporate":9703,"OP":9704,"oving":9705,"Ġoptical":9706,"Ġtab":9707,"Ġnoun":9708,"Health":9709,"enza":9710,"Ġtreaty":9711,"Ġworkshe":9712,"Ġdivide":9713,"auses":9714,"ĠKorean":9715,"Ġfraction":9716,"Ġtomat":9717,"ĠCarib":9718,"Ġencouraging":9719,"Ġhonest":9720,"Ġefficiently":9721,"Ġsemi":9722,"Ġbrothers":9723,"Ġhospitals":9724,"pectives":9725,"Ġhybrid":9726,"Ġsummar":9727,"Ġconsequence":9728,"Ġalgae":9729,"Ġthyroid":9730,"ĠPope":9731,"Ġlecture":9732,"Ġrobust":9733,"Ġwidth":9734,"Ġcandidate":9735,"Ġdisadvant":9736,"Ġdemocratic":9737,"Ġmistakes":9738,"Ġprisoners":9739,"Ġdischarge":9740,"Ġtheoretical":9741,"96":9742,"Man":9743,"osaur":9744,"Ġemployee":9745,"Ġcough":9746,"rait":9747,"arded":9748,"Ġalternatives":9749,"Ġmail":9750,"Ġlivestock":9751,"Ġsuggesting":9752,"Any":9753,"Ġelevated":9754,"Ġthemes":9755,"Ġbias":9756,"Ġow":9757,"Ġpose":9758,"Ġ250":9759,"Ġrelating":9760,"Ġneighb":9761,"bul":9762,"ĠCS":9763,"isting":9764,"Ġstatistical":9765,"Ġengineer":9766,"ĠTwitter":9767,"astics":9768,"Ġmanagers":9769,"Ġhumidity":9770,"ĠProble":9771,"Ġrestricted":9772,"2005":9773,"ĠTH":9774,"ĠSqu":9775,"Ġshoes":9776,"ĠJackson":9777,"Ġdisk":9778,"ĠStation":9779,"Ġfluor":9780,"Ġpayment":9781,"Ġvarying":9782,"Ġclouds":9783,"Ġcontinent":9784,"Ġextraord":9785,"otypes":9786,"Ġcanal":9787,"Ġprosper":9788,"ĠJefferson":9789,"ĠBern":9790,"ĠTrade":9791,"Ġadministrative":9792,"wa":9793,"Ġsystematic":9794,"Ġtendency":9795,"ivities":9796,"Ġdebris":9797,"MP":9798,"Ġwash":9799,"ubble":9800,"Ġblank":9801,"Ġelementary":9802,"Ġanalyses":9803,"Ġhurt":9804,"ĠNic":9805,"egin":9806,"Ġburned":9807,"ouri":9808,"role":9809,"Ġster":9810,"reshold":9811,"ĠHard":9812,"Ġpollut":9813,"Ġjurisd":9814,"han":9815,"pert":9816,"plate":9817,"Ġmanuscript":9818,"imensional":9819,"Ġknee":9820,"Ġsympt":9821,"ga":9822,"aylor":9823,"ĠJack":9824,"Ġoptimal":9825,"Ġwinds":9826,"Ġadoption":9827,"Ġallergies":9828,"Ġorientation":9829,"ĠColon":9830,"even":9831,"ĠMain":9832,"Ġimpair":9833,"Ġrainfall":9834,"Ġfascinating":9835,"elly":9836,"ĠThird":9837,"rowth":9838,"Ġextens":9839,"Ġmotivation":9840,"isations":9841,"Ġrevers":9842,"Ġalert":9843,"author":9844,"ĠMississippi":9845,"Ġfavour":9846,"Ġincorporated":9847,"Ð¸":9848,"ĠBased":9849,"ĠDesc":9850,"Ġbags":9851,"ĠSus":9852,"ĠClub":9853,"Ġfibers":9854,"Students":9855,"Ġcrimes":9856,"isticated":9857,"ĠOS":9858,"Ġhygien":9859,"Ġpredicted":9860,"Ġexpanding":9861,"Rem":9862,"Ġpale":9863,"Ġscales":9864,"Ġ1986":9865,"Ġ1987":9866,"Ġsusceptible":9867,"Ġmissions":9868,"ĠPhilos":9869,"ĠGDP":9870,"Ġvisiting":9871,"Ġapproval":9872,"ĠCorpor":9873,"Ġexhibition":9874,"Ġpesticides":9875,"ĠCH":9876,"aternal":9877,"athan":9878,"Ġcharges":9879,"uclear":9880,"Ġexcav":9881,"ivate":9882,"Ġmagazine":9883,"Ke":9884,"itle":9885,"Ġminister":9886,"Ġthirty":9887,"ropol":9888,"Ġquantities":9889,"Ġguarantee":9890,"igm":9891,"Ġprovisions":9892,"Ġtough":9893,"ĠTool":9894,"rible":9895,"Ġretail":9896,"Ġerosion":9897,"Ġpopularity":9898,"Ġconflicts":9899,"Ġ978":9900,"Ġresponsibilities":9901,"Ġcrack":9902,"TER":9903,"ceptions":9904,"Researchers":9905,"Ġdynamics":9906,"ĠHispan":9907,"ATION":9908,"Ġswimming":9909,"RS":9910,"efficient":9911,"ker":9912,"Ġassociations":9913,"Ġadjacent":9914,"abling":9915,"Ġcollecting":9916,"uro":9917,"ĠMap":9918,"ĠHaving":9919,"ibet":9920,"Ġabundance":9921,"ĠAncient":9922,"Ġreceives":9923,"ĠMicrosoft":9924,"Ġadolescents":9925,"itic":9926,"ĠDue":9927,"Ġrough":9928,"Ġdescribing":9929,"87":9930,"etically":9931,"Ġ64":9932,"ĠConsider":9933,"Ġsectors":9934,"zzle":9935,"Ġchamber":9936,"ĠView":9937,"Ġattitudes":9938,"ĠJersey":9939,"Ġenzymes":9940,"Ġappl":9941,"ĠCorps":9942,"Ġcamps":9943,"rium":9944,"Ġwhenever":9945,"Ġstruck":9946,"Ġabandoned":9947,"Ġmyster":9948,"Ġposted":9949,"Ġinspiration":9950,"expected":9951,"Ġconclusions":9952,"law":9953,"ĠMonday":9954,"ĠUnlike":9955,"nea":9956,"Ġgest":9957,"Ġthank":9958,"Ġdevelopmental":9959,"Ġconsistently":9960,"ĠSupport":9961,"Ġ||":9962,"ela":9963,"ika":9964,"Ġbusy":9965,"inite":9966,"Ġmask":9967,"phal":9968,"ĠIndones":9969,"Ġethics":9970,"Ġpipe":9971,"esium":9972,"ĠBetween":9973,"burn":9974,"ji":9975,"Ġproud":9976,"Ġninet":9977,"Ġamongst":9978,"Ġsuggestions":9979,"Ġarrival":9980,"DL":9981,"ĠBerlin":9982,"elihood":9983,"yes":9984,"ĠCell":9985,"ĠMaster":9986,"ieth":9987,"Ġentrance":9988,"inch":9989,"Ġpor":9990,"step":9991,"Ġalumin":9992,"Ġdish":9993,"Ġarthritis":9994,"icut":9995,"Ġham":9996,"redit":9997,"duction":9998,"iances":9999,"Ġreputation":10000,"Ġgrad":10001,"Ġdiagram":10002,"Ġisolation":10003,"Ġcontaminated":10004,"Ġdoses":10005,"ifting":10006,"Ġspreading":10007,"ĠCharl":10008,"ĠWilson":10009,"Ġfiction":10010,"Ġtransplant":10011,"formed":10012,"Ġmurder":10013,"Ġalongside":10014,"urse":10015,"ĠAh":10016,"Ġpassword":10017,"Ġconsisting":10018,"ĠPhysical":10019,"vol":10020,"Ġselling":10021,"ashed":10022,"Ġweaken":10023,"ques":10024,"ntil":10025,"ĠNeg":10026,"nesota":10027,"ĠKennedy":10028,"Ġhung":10029,"Ġrh":10030,"Ġ2022":10031,"chain":10032,"umns":10033,"Ġoffices":10034,"Ġofficially":10035,"Cal":10036,"imm":10037,"thood":10038,"ĠHyd":10039,"Ġfant":10040,"Ġvom":10041,"Ġtherapeutic":10042,"Ġforever":10043,"ĠAz":10044,"Ġrepet":10045,"Ġargues":10046,"Ġtower":10047,"Ġprevents":10048,"ctors":10049,"unning":10050,"iy":10051,"Ġà¤":10052,"ĠWed":10053,"Ġranges":10054,"Ġpatent":10055,"Ġvector":10056,"iously":10057,"Ac":10058,"plex":10059,"Ġaffairs":10060,"itus":10061,"ĠHot":10062,"Ġpartly":10063,"Ġvice":10064,"ĠWriting":10065,"Ġcameras":10066,"Ġinvented":10067,"Ġinstallation":10068,"Ġmetabolic":10069,"Ġawarded":10070,"Ġtwelve":10071,"Ġspeaker":10072,"Ġseasonal":10073,"ĠBuddhist":10074,"ustainable":10075,"91":10076,"Ġprol":10077,"Ġsegment":10078,"Ġnumer":10079,"itzer":10080,"itate":10081,"ĠHem":10082,"they":10083,"Ġclassification":10084,"Ġsynthetic":10085,"Ġ%":10086,"Ġinch":10087,"iders":10088,"Ġstabil":10089,"Ġphysicians":10090,"Ġphenomena":10091,"Ġduties":10092,"800":10093,"ĠLook":10094,"Ġreturning":10095,"Ġcalendar":10096,"Ġfault":10097,"Ġbrains":10098,"ĠAssessment":10099,"Back":10100,"duate":10101,"Ġcontrad":10102,"Ġweekly":10103,"Ġdigestive":10104,"81":10105,"Ġpartially":10106,"Ġcivilization":10107,"Ġstriking":10108,"ĠHig":10109,"ĠLED":10110,"ĠAdam":10111,"only":10112,"Ġaccounting":10113,"ĠCulture":10114,"Table":10115,"ĠTurn":10116,"Che":10117,"inger":10118,"ĠTenn":10119,"Ġstere":10120,"Ġconfident":10121,"Ġ85":10122,"develop":10123,"zone":10124,"ĠIde":10125,"Ġorganism":10126,"ridges":10127,"Ġsoils":10128,"ĠGovernor":10129,"ĠPoland":10130,"attered":10131,"ĠPut":10132,"Ġshade":10133,"Christ":10134,"General":10135,"Ġbron":10136,"ĠStory":10137,"obic":10138,"Ġpunishment":10139,"94":10140,"vae":10141,"Ġaltered":10142,"Ġglob":10143,"found":10144,"Ġborders":10145,"ĠRen":10146,"ĠKansas":10147,"ussion":10148,"Aut":10149,"Ġexport":10150,"comp":10151,"Ġdeliber":10152,"Ġrepresentatives":10153,"ependence":10154,"Ġeaten":10155,"Ġcourage":10156,"Ġrent":10157,"Ġrib":10158,"Ġpartial":10159,"Ġvalley":10160,"Ġabsorption":10161,"ĠCaribbean":10162,"oa":10163,"ĠCall":10164,"ĠMot":10165,"Ġreviewed":10166,"Ġboundary":10167,"Ġpediatric":10168,"Ġfles":10169,"Ġsubmit":10170,"Ġabundant":10171,"Ġprolong":10172,"Ġintr":10173,"ursday":10174,"ĠAsh":10175,"ugs":10176,"ĠMarsh":10177,"Ġcluster":10178,"ĠHop":10179,"ĠRisk":10180,"Ġphones":10181,"Ġincorporate":10182,"rizona":10183,"ĠSchools":10184,"Ġconnecting":10185,"ĠNether":10186,"Ġlikelihood":10187,"Ġregulatory":10188,"ĠDyn":10189,"Ġsomewhere":10190,"Ġcaps":10191,"Ġsurviv":10192,"reprene":10193,"oult":10194,"ĠPain":10195,"ergart":10196,"Ġtolerance":10197,"Ġbits":10198,"ĠProduct":10199,"who":10200,"Ġcomplement":10201,"ĠEmperor":10202,"ĠOthers":10203,"Ġfertilizer":10204,"Ġmile":10205,"Ġho":10206,"Ġonset":10207,"Ġfingers":10208,"ĠHitler":10209,"**":10210,"Yes":10211,"Ġtrail":10212,"cts":10213,"sters":10214,"ĠBon":10215,"olds":10216,"ĠWilliams":10217,"dess":10218,"Ġdivers":10219,"ĠAmendment":10220,"Ġsettlers":10221,"ĠDemocratic":10222,"Ġplatforms":10223,"Fig":10224,"ois":10225,"Ġthrow":10226,"Ġfatal":10227,"Ġloud":10228,"ĠLocal":10229,"Ġattended":10230,"TA":10231,"anium":10232,"Ġerect":10233,"Ġassault":10234,"uesday":10235,"reens":10236,"ĠUk":10237,"ĠClinical":10238,"ĠGarden":10239,"ĠOntario":10240,"cor":10241,"raid":10242,"ĠON":10243,"Ġrhythm":10244,"Ġdying":10245,"ĠSud":10246,"Ġprotest":10247,"Ġbroader":10248,"Ġsophisticated":10249,"fire":10250,"Ġwax":10251,"imen":10252,"ĠLine":10253,"ĠThanks":10254,"Ġtransformation":10255,"Ġsacrifice":10256,".-":10257,"lear":10258,"Ġmemories":10259,"Ġcosm":10260,"Ġ?":10261,"Ġhol":10262,"ĠSelf":10263,"Ġedges":10264,"Ġlasting":10265,"Ġirrigation":10266,"dis":10267,"inery":10268,"Ġdevelopers":10269,"ĠComputer":10270,"Ġfeather":10271,"Ġcave":10272,"Ġabsorbed":10273,"otten":10274,"early":10275,"Ġsoy":10276,"ĠIsa":10277,"2004":10278,"Ġwelcome":10279,"ĠMother":10280,"ĠMathemat":10281,"Ġtracks":10282,"Ġ44":10283,"Ġrefrig":10284,"Ġretain":10285,"Ġpredomin":10286,"Ġdefinitions":10287,"Ġshelter":10288,"Ĥ¬":10289,"ĠProm":10290,"oning":10291,"ican":10292,"onsin":10293,"Ġemployers":10294,"Ġtherapies":10295,"ĠDiabetes":10296,"Ġcontainers":10297,"ĠIssue":10298,"Ġachieving":10299,"Ġplacing":10300,"Ġacquire":10301,"ĠFle":10302,"ĠReal":10303,"ĠWales":10304,"economic":10305,"Ġproducers":10306,"Ġelig":10307,"Ġinjured":10308,"ĠArabic":10309,"Ġsucceeded":10310,"Ġfirms":10311,"Ġharsh":10312,"Ġvag":10313,"isconsin":10314,"ĠNG":10315,"ĠGM":10316,"agle":10317,"Ġpreservation":10318,"Ġvelocity":10319,"ĠSC":10320,"ĠKn":10321,"ermat":10322,"Ġcollapse":10323,"ĠLewis":10324,"ods":10325,"ĠMinnesota":10326,"ctu":10327,"ffe":10328,"Ġcontrary":10329,"Ġsovere":10330,"Ġauthentic":10331,"Ġrender":10332,"owered":10333,"ĠMind":10334,"ĠOcc":10335,"strate":10336,"Ġspeakers":10337,"Ġmolecule":10338,"Ġoccupation":10339,"zant":10340,"Ġparks":10341,"Ġvoting":10342,"owners":10343,"compass":10344,"Ġpotassium":10345,"ĠIntroduction":10346,"83":10347,"yr":10348,"ĠTar":10349,"imic":10350,"Ġconfused":10351,"arios":10352,"Ġnort":10353,"ulates":10354,"Ġeducated":10355,"ĠPrince":10356,"UC":10357,"Ġtied":10358,"olves":10359,"Ġgerm":10360,"ĠText":10361,"Ġappreciate":10362,"uine":10363,"ĠHan":10364,"Ġbrush":10365,"Ġmobility":10366,"leton":10367,"ĠWW":10368,"ĠGr":10369,"Ġgrams":10370,"Ġconsuming":10371,"ĠJim":10372,"Ġ800":10373,"ĠReserve":10374,"Ġsenses":10375,"Ġconstitutional":10376,"jud":10377,"ĠPL":10378,"istically":10379,"Ġearned":10380,"Ġprevented":10381,"ĠApplic":10382,"ĠBarb":10383,"Ġenhanced":10384,"ĠRomans":10385,"Ġpap":10386,"Ġnodes":10387,"lyn":10388,"ocent":10389,"ĠFa":10390,"Ġdesk":10391,"afe":10392,"Ġcig":10393,"ĠShould":10394,"ĠOrder":10395,"Ġhistorians":10396,"Ġattain":10397,"ĠIndigenous":10398,"Ġoperational":10399,"ĠMountain":10400,"ĠMissouri":10401,"ĠScientific":10402,"case":10403,"Ġpest":10404,"Ġrats":10405,"ooked":10406,"Ġobviously":10407,"Ġpursue":10408,"forced":10409,"Ġmutations":10410,"ulsion":10411,"Ġcarbohydrates":10412,"84":10413,"Ġthreshold":10414,"Ġexch":10415,"orer":10416,"Ġdistribut":10417,"ĠVolume":10418,"Ġrejected":10419,"Ġhorizontal":10420,"Through":10421,"isition":10422,"ĠSav":10423,"Ġhealthier":10424,"Ġparliament":10425,"Ġcampus":10426,"Ġevaluated":10427,"Mod":10428,"vy":10429,"Ġwhales":10430,"Ġfactory":10431,"Ġaccomplished":10432,"ĠTibet":10433,"ĠPDF":10434,"reatment":10435,"Ġtrading":10436,"ĠGermans":10437,"ĠSyria":10438,"Finally":10439,"utical":10440,"Ġassessments":10441,"FS":10442,"atoes":10443,"eller":10444,"plan":10445,"Ġcontamination":10446,"Ġcounties":10447,"ranch":10448,"Ġimplementing":10449,"nesday":10450,"Ġmercury":10451,"Ġdried":10452,"Ġantibodies":10453,"Ġwake":10454,"ĠTro":10455,"ipation":10456,"ĠCarl":10457,"Ġinfectious":10458,"ĠTurkish":10459,"arks":10460,"Ġmuc":10461,"rac":10462,"ĠLat":10463,"Ġpermitted":10464,"Ġ43":10465,"Ass":10466,"ĠWithin":10467,"ĠProtest":10468,"dd":10469,"Ġutilized":10470,"Ġdialogue":10471,"Ġty":10472,"Ġartistic":10473,"ĠPrint":10474,"Ġindependently":10475,"Ġsequences":10476,"stic":10477,"ĠFac":10478,"Ġallergy":10479,"aping":10480,"Ġgovernor":10481,"Ġinvestments":10482,"Ġattacked":10483,"Ġconcentrated":10484,"ĠCDC":10485,"Ġstems":10486,"Ġimpressive":10487,"ĠResearchers":10488,"Ġcircles":10489,"Ġdrops":10490,"Ġspark":10491,"Ġdevoted":10492,"Ġexpressions":10493,"quarters":10494,"Ġplates":10495,"Ġcyl":10496,"Ġavoided":10497,"Ġstrains":10498,"Ġstretch":10499,"Ġattributes":10500,"ĠArizona":10501,"ĠTheory":10502,"acon":10503,"original":10504,"rint":10505,"Ã¨":10506,"isons":10507,"Ġdeleg":10508,"Ġvine":10509,"Ġroutes":10510,"Ġmalaria":10511,"cal":10512,"Ġhills":10513,"ĠSn":10514,"ĠJones":10515,"ĠYes":10516,"ĠExec":10517,"Ġdefects":10518,"ÑĤ":10519,"Ġbinding":10520,"ĠHay":10521,"ĠTeaching":10522,"Ġstruggling":10523,"Will":10524,"Ġinver":10525,"chron":10526,"Ġanthrop":10527,"reement":10528,"Ġeconomics":10529,"atching":10530,"Ġconvenient":10531,"da":10532,"nia":10533,"Ġpond":10534,"Ġinflation":10535,"Ġimmigration":10536,"iography":10537,"umbers":10538,"Ġtraditionally":10539,"Ġsituated":10540,"ĠJon":10541,"Ġbladder":10542,"ypically":10543,"Ġcarries":10544,"Ġdrives":10545,"Ġexcited":10546,"ĠMaryland":10547,"ĠNOT":10548,"Ġblo":10549,"pson":10550,"Ġavoiding":10551,"Ġarrive":10552,"Ġbroadcast":10553,"commun":10554,"ĠSimilarly":10555,"Ġdiagnostic":10556,"Ġbuck":10557,"Ġimproves":10558,"Ġfinance":10559,"Ġflavor":10560,"Ġpests":10561,"Ġmarch":10562,"emor":10563,"ĠFuture":10564,"Ġ41":10565,"ĠTeachers":10566,"Ġobser":10567,"Ġimplies":10568,"Ġaccordance":10569,"gged":10570,"Ġirregular":10571,"insula":10572,"Ġimmunity":10573,"Åį":10574,"estone":10575,"ĠStill":10576,"Ġparticipating":10577,"ĠWars":10578,"spring":10579,"Ġtribe":10580,"Ġgentle":10581,"don":10582,"fold":10583,"Ġshares":10584,"income":10585,"ĠConstant":10586,"ĠAfghan":10587,"Ġcircular":10588,"doi":10589,"healthy":10590,"ĠDuke":10591,"hedral":10592,"Ġhistorian":10593,"Ġsampling":10594,"Ġshallow":10595,"ĠMatthew":10596,"yard":10597,"Ġgran":10598,"ĠBest":10599,"Ġunexpected":10600,"ricane":10601,"Ġfounder":10602,"ĠPhilip":10603,"Ġsubsequently":10604,"Ġdistinguished":10605,"roleum":10606,"iac":10607,"Ġindicating":10608,"Ġdirectory":10609,"Ġelabor":10610,"Ġfreely":10611,"Ġdisplays":10612,"ĠNetherlands":10613,"Ġbark":10614,"rels":10615,"Ġaggreg":10616,"ĠDarwin":10617,"asia":10618,"ĠMuch":10619,"istent":10620,"ĠHom":10621,"Ġdiscl":10622,"azz":10623,"Ġ1985":10624,"Ġassessed":10625,"ecessary":10626,"Ġbite":10627,"âĢĿ)":10628,"adequ":10629,"Ġsheets":10630,"400":10631,"Well":10632,"ĠTel":10633,"Ġappet":10634,"Ġdefines":10635,"Ġworkshop":10636,"Ġdecreases":10637,"Ġkitchen":10638,"Ġbull":10639,"Ġnick":10640,"ĠAud":10641,"Ġatomic":10642,"iph":10643,"rypt":10644,"ORD":10645,"Ġcontroversial":10646,"inth":10647,"Ġ1945":10648,"Ġadaptation":10649,"ĠRepublican":10650,"ĠClean":10651,"Ġvow":10652,"Ġ1900":10653,"Ġpeers":10654,"risk":10655,"ĠPrim":10656,"Ġembedded":10657,"type":10658,"Ġtanks":10659,"Ġresolve":10660,"auc":10661,"Ġfitness":10662,"thal":10663,"iotic":10664,"LS":10665,"Ġthesis":10666,"Ġpink":10667,"ĠMrs":10668,"aceutical":10669,"Ġequipped":10670,"ĠMean":10671,"Def":10672,"Ġintermedi":10673,"Ã³n":10674,"atories":10675,"generation":10676,"Ġintegrity":10677,"ĠDavis":10678,"iosity":10679,"rise":10680,"ĠTree":10681,"Ġmonthly":10682,"Ġprescription":10683,"ĠOil":10684,"Ġgrants":10685,"ĠMcC":10686,"Further":10687,"Ġber":10688,"ĠAllah":10689,"Ġoxide":10690,"Ġprogressive":10691,"Ġprospect":10692,"Ġmirror":10693,"ÙĦ":10694,"ĠCenters":10695,"rared":10696,"Ġvon":10697,"Ġhardly":10698,"ĠRedu":10699,"Ġ~":10700,"onin":10701,"ĠWisconsin":10702,"ĠLuther":10703,"uble":10704,"Ġpublications":10705,"Ġcondem":10706,"PDF":10707,"Whe":10708,"iating":10709,"ĠFollowing":10710,"Ġspir":10711,"ulture":10712,"Ġcolumns":10713,"Ġindoor":10714,"Ġextinction":10715,"effective":10716,"Ġreh":10717,"Ġsew":10718,"Ġkg":10719,"ĠProper":10720,"ĠOrd":10721,"Ġthoroughly":10722,"gregation":10723,"Dep":10724,"ternoon":10725,"conf":10726,"Ġloan":10727,"ĠConnecticut":10728,"Ġrelatives":10729,"Ġsensory":10730,"hard":10731,"aze":10732,"Ġappointment":10733,"Ġhunger":10734,"ĠEssay":10735,"Ġdemonstrates":10736,"BA":10737,"Ġhide":10738,"ĠChap":10739,"Ġenabled":10740,"Ġresidential":10741,"Ġexecution":10742,"Ġcrypt":10743,"verages":10744,"ĠFront":10745,"Ġprone":10746,"Google":10747,"bestos":10748,"Ġ`":10749,"Ġcensus":10750,"ceeds":10751,"Ġsocio":10752,"Ġpromising":10753,"Ġaccompany":10754,"Water":10755,"Ġbearing":10756,"Ġimportantly":10757,"Ġgray":10758,"Scientists":10759,"Ġwashing":10760,"Ġleak":10761,"Ġcolored":10762,"Ġnamely":10763,"Ġfertility":10764,"Ġnursing":10765,"date":10766,"ĠJava":10767,"Ġdoctrine":10768,"Ġrecommends":10769,"Ġfemin":10770,"Ġcommander":10771,"Ġcalculations":10772,"Ġantibiotic":10773,"Ġreservoir":10774,"ja":10775,"ĠDub":10776,"Ġenlar":10777,"Ġdesigning":10778,"ĠPhysics":10779,"Î½":10780,"Ġfate":10781,"Ġthinks":10782,"Ġcong":10783,"velength":10784,"Ġaccidents":10785,"Ġlabels":10786,"security":10787,"Ġtelephone":10788,"ĠScientists":10789,"Ġdress":10790,"ĠCit":10791,"Ġmetres":10792,"Ġswallow":10793,"rology":10794,"Ġafraid":10795,",âĢĻ":10796,"RNA":10797,"Ġdispers":10798,"Ġdeadly":10799,"Ġtiming":10800,"Ġaxis":10801,"Ġwages":10802,"Ġskull":10803,"ropriate":10804,"ĠWalk":10805,"Ġspeeds":10806,"ĠTraining":10807,"ĠMarc":10808,"ĠNY":10809,"Ġmini":10810,"Ġ1979":10811,"Ġbulk":10812,"rophic":10813,"Ġmanufacturer":10814,"ĠDifferent":10815,"high":10816,"Ġkeys":10817,"ĠAltern":10818,"Ġupdate":10819,"grade":10820,"Ġsurveillance":10821,"bage":10822,"ollo":10823,"2014":10824,"Ġpollen":10825,"Research":10826,"Ġtalks":10827,"ĠNazi":10828,"Ġessence":10829,"ĠNation":10830,"Ġdiscom":10831,"Ġpersistent":10832,"Ġworn":10833,"Ġgenetics":10834,"ognition":10835,"Jan":10836,"ÑĢ":10837,"Ġessays":10838,"Ġtraveling":10839,"Ġqualified":10840,"ĠTaylor":10841,"ĠFord":10842,"Ġspine":10843,"Ġunto":10844,"ĠObject":10845,"Ġpine":10846,"Ġrend":10847,"ĠSher":10848,"ĠCensus":10849,"Ġexplored":10850,"Ġruling":10851,"ĠScholar":10852,"Ġstraw":10853,"Ġalgorithms":10854,"ĠPractice":10855,"Ġconfiguration":10856,"thodox":10857,"Ġmart":10858,"Ġconducting":10859,"ĠInteg":10860,"Ġdefeat":10861,"orb":10862,"Ġbeet":10863,"neg":10864,"Ġpubl":10865,"Ġportray":10866,"Ġcasual":10867,"Ġextraordinary":10868,"ĠNa":10869,"Ġtourism":10870,"Ġlying":10871,"ĠExamples":10872,"Ġtermin":10873,"Ġdestination":10874,"ĠWorking":10875,"Ġmud":10876,"ĠMP":10877,"Ġundergo":10878,"Ġmeditation":10879,"Ġartif":10880,"ĠBuddhism":10881,"Ġrom":10882,"ĠBh":10883,"Ġfluids":10884,"Ġreferring":10885,"Ġreviews":10886,"Ġassistant":10887,"eav":10888,"Ġgaps":10889,"owa":10890,"Ġmodeling":10891,"Ġalphabet":10892,"ergarten":10893,"Ġride":10894,"ĠNap":10895,"akespe":10896,"Ġconfront":10897,"Ġcapability":10898,"Ġlawn":10899,"ivals":10900,"ĠOpp":10901,"Ġconsensus":10902,"Ġgenerating":10903,"ĠStudent":10904,"sequently":10905,"Ġterritories":10906,"Ġarrangement":10907,"EW":10908,"iatric":10909,"upiter":10910,"Ġsustained":10911,"Ġcompliance":10912,"Ġgathering":10913,"Ġmystery":10914,"imedia":10915,"Ġpriest":10916,"Ġwritings":10917,"Ġnucleus":10918,"osaurs":10919,"Ġdow":10920,"aying":10921,"ĠNS":10922,"Ġenact":10923,"Ġcomparing":10924,"Ġprogression":10925,"incial":10926,"iking":10927,"Ġpredators":10928,"ochond":10929,"names":10930,"yo":10931,"ĪĴ":10932,"ĠCase":10933,"ĠDaily":10934,"agger":10935,"Ġdepr":10936,"Ġhomework":10937,"ĠQur":10938,"Ġattracted":10939,"Ġcompensation":10940,"Ġes":10941,"Ġyes":10942,"2017":10943,"Ġsearching":10944,"Ġboxes":10945,"Ġscenes":10946,"Ġdegradation":10947,"Ant":10948,"orney":10949,"ĠBat":10950,"ĠBrain":10951,"rics":10952,"ĠEnter":10953,"Ġdominated":10954,"Ġhygiene":10955,"Ġbills":10956,"ĠPA":10957,"Ġshipping":10958,"Ġcloth":10959,"Prof":10960,"uv":10961,"Ġtrick":10962,"Ġhang":10963,"entieth":10964,"Ġinspect":10965,"akespeare":10966,"Ġlunch":10967,"ĠTan":10968,"Ġpipes":10969,"some":10970,"orient":10971,"Ġbor":10972,"ĠNC":10973,"Ġrestored":10974,"Ġdollar":10975,"Ġadvertising":10976,"ĠByzant":10977,"Ġgeographic":10978,"Ġdefeated":10979,"Ġoverwhelming":10980,"bone":10981,"Ġloyal":10982,"ĠHung":10983,"ĠNep":10984,"ogram":10985,"ĠThink":10986,"Ġsubmitted":10987,"Ġexpedition":10988,"Ġtremend":10989,"Ġsperm":10990,"Ġjaw":10991,"ĠChile":10992,"Ġsurre":10993,"Ġpresum":10994,"Ġvaccination":10995,"xic":10996,"igma":10997,"uns":10998,"IST":10999,"Ġtracking":11000,"Ġflooding":11001,"ĠFram":11002,"Ġseasons":11003,"Ġlarvae":11004,"Ġdinner":11005,"Ġaffordable":11006,"onent":11007,"ĠPaper":11008,"obs":11009,"olecular":11010,"Ġignored":11011,"Ġnewspapers":11012,"FA":11013,"ĠSource":11014,"ĠJean":11015,"Ġappe":11016,"Ġ46":11017,"rank":11018,"ylon":11019,"isphere":11020,"ĠPsychology":11021,"Ġreserves":11022,"ĠStephen":11023,"Ã§":11024,"Ġicon":11025,"storm":11026,"ĠAT":11027,"Ġnotable":11028,"Ġdisput":11029,"Ġcrust":11030,"aturday":11031,"ĠBelg":11032,"Ġmarginal":11033,"His":11034,"Ġdiver":11035,"Ġillustrated":11036,"makers":11037,"isible":11038,"ĠSep":11039,"there":11040,"ĠAnne":11041,"ĠArm":11042,"Ġcompletion":11043,"Ġprotects":11044,"ĠPolish":11045,"Ġcontinuously":11046,"ĠMovement":11047,"front":11048,"Ġinvited":11049,"Ġblacks":11050,"Ġloop":11051,"Ġcatal":11052,"Ġwireless":11053,"Ġic":11054,"Ġought":11055,"arians":11056,"eterm":11057,"ĠSem":11058,"Ġcoinc":11059,"Ġextrem":11060,"ĠInterest":11061,"Ġcelebration":11062,"Ġfolk":11063,"feeding":11064,"Ġbind":11065,"olit":11066,"ĠRay":11067,"Ġrememb":11068,"inflamm":11069,"Ġgear":11070,"ĠMand":11071,"Ġheal":11072,"Ġimpression":11073,"Ġoutline":11074,"Ġoccurrence":11075,"shore":11076,"ĠQuestions":11077,"Ġtransformed":11078,"Ġbrowser":11079,"edge":11080,"Ġcoral":11081,"Ġmistake":11082,"High":11083,"Ġdece":11084,"ĠJun":11085,"Ġopens":11086,"ĠDeath":11087,"Ġnecessity":11088,"oxide":11089,"Ġfrequencies":11090,"Ġirre":11091,"Ġscenarios":11092,"Ġhighlights":11093,"Ġrear":11094,"ĠChemical":11095,"Ġdehyd":11096,"emed":11097,"Ġrings":11098,"ĠFull":11099,"Ġintelligent":11100,"Ġdiarrhea":11101,"FC":11102,"vals":11103,"Ġdeterior":11104,"Ġ1984":11105,"Ġdentist":11106,"oil":11107,"eld":11108,"Ġalien":11109,"Ġcheese":11110,"ĠImport":11111,"Ġalleged":11112,"dimensional":11113,"ÏĦ":11114,"ĠSleep":11115,"Ġadmitted":11116,"Ġmasses":11117,"Ġpock":11118,"Ġhill":11119,"ĠDid":11120,"Ġthorough":11121,"aver":11122,"Ġbugs":11123,"Ġassumptions":11124,"Ġdisappear":11125,"Ġguns":11126,"ĠSymptoms":11127,"friendly":11128,"VD":11129,"ĠHas":11130,"uster":11131,"ĠChall":11132,"Ġemperor":11133,"Ġ1800":11134,"Ġorganisation":11135,"Ġpushed":11136,"ĠCN":11137,"Ġenemies":11138,"Ġarranged":11139,"Ġhazards":11140,"Ġexclusively":11141,"yan":11142,"ĠHunt":11143,"ĠIndividual":11144,"Ġteaches":11145,"Ġprecision":11146,"Ġdistinctive":11147,"Spec":11148,"PL":11149,"non":11150,"igration":11151,"ĠLt":11152,"oved":11153,"Ġfallen":11154,"ondition":11155,"ercise":11156,"Ġpathways":11157,"Ġpathogens":11158,"Ġarrested":11159,"Gu":11160,"ĠBell":11161,"ĠBalt":11162,"Ġshouldn":11163,"icked":11164,"Ġfeatured":11165,"ĠForeign":11166,"Ġliberty":11167,"Ġinjection":11168,"Ġelectronics":11169,"Ġsau":11170,"Ġcommands":11171,"supp":11172,"Ġsymptom":11173,"82":11174,"first":11175,"idae":11176,"ĠPath":11177,"arer":11178,"Ġrises":11179,"Ġthickness":11180,"Ġfleet":11181,"Ġdiscomfort":11182,"inian":11183,"Ġgifts":11184,"Ġshield":11185,"2003":11186,"Ġimagery":11187,"Ġrubber":11188,"Ġsteady":11189,"ĠSix":11190,"Ġemit":11191,"Ġdistract":11192,"Ġmonument":11193,"Ġcareg":11194,"Ġencourages":11195,"Ġutilize":11196,"onymous":11197,"DR":11198,"El":11199,"Find":11200,"Ð½":11201,"Ġgains":11202,"Ġheter":11203,"Ġchron":11204,"velt":11205,"Ġadministered":11206,"Ġdiscoveries":11207,"Ġodd":11208,"atre":11209,"Ġmapping":11210,"ĠHu":11211,"ĠGuid":11212,"Ġtoxins":11213,"Ġepidem":11214,"Ġepidemic":11215,"Ġepisode":11216,"Ġmosquito":11217,"Both":11218,"Ġalike":11219,"ĠGreg":11220,"ĠLind":11221,"ĠAnimal":11222,"Ġterminal":11223,"ĠLeague":11224,"Ġfrozen":11225,"Ġsle":11226,"abama":11227,"ĠEnt":11228,"Ġsubtle":11229,"ãģ":11230,"omon":11231,"ĠTy":11232,"Ġasks":11233,"ĠMos":11234,"inton":11235,"Ġgrace":11236,"iens":11237,"po":11238,"Ġ57":11239,"iversary":11240,"Though":11241,"Ġentreprene":11242,"ĠLeon":11243,"ĠNevertheless":11244,"eous":11245,"atile":11246,"Ġintra":11247,"osex":11248,"Ġempir":11249,"Ġdismiss":11250,"aug":11251,"Ġgenuine":11252,"2015":11253,"Ġ1983":11254,"range":11255,"Ġlegacy":11256,"Ġinfluential":11257,"Ġmutual":11258,"nings":11259,"ĠAN":11260,"Ġyard":11261,"ĠHon":11262,"ountered":11263,"Ġflowing":11264,"Ġcope":11265,"Ġpries":11266,"arma":11267,"Ġboards":11268,"ĠRepresent":11269,"Ġcategor":11270,"Ġgalaxy":11271,"Ġdrainage":11272,"Ġvomiting":11273,"cled":11274,"nals":11275,"Ġpneum":11276,"Ġreson":11277,"rying":11278,"Ġpromotes":11279,"Ġdiscussing":11280,"Ġportions":11281,"Ġemerge":11282,"ĠStatistics":11283,"grim":11284,"ĠSac":11285,"aund":11286,"Ġpoliticians":11287,"Ġdigit":11288,"govern":11289,"doors":11290,"Ġchapters":11291,"Ġrescue":11292,"Ġdetermination":11293,"ĠUrban":11294,"Ġinequality":11295,"fare":11296,"ĠÙ":11297,"ĠMong":11298,"screen":11299,"Ġgolden":11300,"ĠLinux":11301,"Ġtorn":11302,"ĠIron":11303,"ĠâĢĿ":11304,"Ġdistances":11305,"ĠSamuel":11306,"ĠMoh":11307,"ĠHo":11308,"ĠGiven":11309,"Ġsuspected":11310,"Ġinclusion":11311,"nected":11312,"Î¿":11313,"Ġnic":11314,"Ġexpend":11315,"Ġorganize":11316,"ĠShort":11317,"Ġacceptance":11318,"Ġhypert":11319,"Ġimperial":11320,"swered":11321,"ez":11322,"ĠGir":11323,"Ġlocally":11324,"Ġencountered":11325,"ĠMaria":11326,"Ġconservative":11327,"Ġencompass":11328,"uese":11329,"oultry":11330,"Children":11331,"Ġstops":11332,"Ġlift":11333,"Ġexecuted":11334,"Ġsynthesis":11335,"Ġafternoon":11336,"ĠSweden":11337,"Ġlapt":11338,"Ġpayments":11339,"Ġshadow":11340,"Ġinstant":11341,"Ġbattles":11342,"Ġcrossing":11343,"Ġbehalf":11344,"Ġpoorly":11345,"Ġcorrelation":11346,"Ġovers":11347,"ĠAIDS":11348,"ĠFlow":11349,"osevelt":11350,"Ġoverse":11351,"Ġdeclined":11352,"Ġnineteenth":11353,"Ġflesh":11354,"Ġsel":11355,"ĠHur":11356,"ĠCommand":11357,"Ġmultip":11358,"Ġseverely":11359,"laration":11360,"Ġcriticism":11361,"Ġtang":11362,"Ġfilling":11363,"Ġly":11364,"ĠCore":11365,"ĠBow":11366,"ĠUlt":11367,"teenth":11368,"Ġanalog":11369,"Ġcontributes":11370,"Ġmoments":11371,"Ġtimber":11372,"Ġinherited":11373,"anol":11374,"ĠCold":11375,"Ġgrey":11376,",'":11377,"UM":11378,"Ġpec":11379,"berries":11380,"Ġprophe":11381,"Ġempower":11382,"Ġassumption":11383,"Ġfifty":11384,"BD":11385,"iors":11386,"Ġbrick":11387,"ĠDun":11388,"ĠYears":11389,"Ġpatri":11390,"ĠAvailable":11391,"ĠUnderstanding":11392,"Ġanat":11393,"ĠNumber":11394,"Ġ47":11395,"Ġstorms":11396,"Ġrepeatedly":11397,"ĠPMID":11398,"Ag":11399,"urated":11400,"Ġforb":11401,"ĠGrant":11402,"dominal":11403,"Intern":11404,"Ġseeks":11405,"Ġfollowers":11406,"Ġcatast":11407,"Ġweapon":11408,"burgh":11409,"ĠVictoria":11410,"orse":11411,"Ġreplic":11412,"ĠHong":11413,"Ġillustrate":11414,"arter":11415,"Ġunity":11416,"Ġpicked":11417,"Ġprosec":11418,"ĠBridge":11419,"essional":11420,"iley":11421,"Ġservers":11422,"hr":11423,"Ġtired":11424,"Ġevac":11425,"Ġcolleges":11426,"Ġnerves":11427,"Hz":11428,"IO":11429,"ĠWin":11430,"ĠKat":11431,"Ġorganisations":11432,"elson":11433,"Ġsafer":11434,"Ġoriginated":11435,"Ġdangers":11436,"cm":11437,"illy":11438,"Ġcataly":11439,"ĠPython":11440,"Ġfrog":11441,"Ġtomb":11442,"stud":11443,"ĠEvent":11444,"ĠYellow":11445,"Ġtransf":11446,"bro":11447,"Ġinadequ":11448,"Ġmes":11449,"Ġparticipated":11450,"Ġhazardous":11451,"Â©":11452,"Ġhepat":11453,"Ġgenetically":11454,"Ġ49":11455,"Ġfacial":11456,"Ġpaths":11457,"Ġmutation":11458,"Ġtexture":11459,"Ġtraveled":11460,"ECT":11461,"ĠADHD":11462,"Ġunemployment":11463,"Aug":11464,"natural":11465,"heastern":11466,"Ġmi":11467,"Ġclassrooms":11468,"Ġaccessed":11469,"Ġwavelength":11470,"ĠFreedom":11471,"Ġsolely":11472,"Ġfurniture":11473,".]":11474,"Have":11475,"hops":11476,"ilateral":11477,"Ġexpenses":11478,"Ġzinc":11479,"Ġinvestigated":11480,"Ġreproduction":11481,"ĠMountains":11482,"ĠScottish":11483,"keys":11484,"ĠWHO":11485,"Ġrealistic":11486,"Ġstimulate":11487,"Ġdimension":11488,"ni":11489,"Ġgau":11490,"ĠCR":11491,"Ġoperators":11492,"Ġvolumes":11493,"Ġindicators":11494,"Ġlicensed":11495,"sur":11496,"stead":11497,"Ġenabling":11498,"Ġmeter":11499,"Ġignore":11500,"gered":11501,"formance":11502,"Ġgroundwater":11503,"Ġ1969":11504,"EST":11505,"Ġbrill":11506,"Ġpolymer":11507,"ĠGh":11508,"Ġviewing":11509,"Ġdrag":11510,"ĠAustria":11511,"Ġincorrect":11512,"Ġvacuum":11513,"Ġfraud":11514,"ĠPoll":11515,"ĠBor":11516,"ĠBio":11517,"ĠFA":11518,"Ġsupplied":11519,"ĠSoft":11520,"ĠIntellig":11521,"icting":11522,"ĠPas":11523,"thening":11524,"Ġmetap":11525,"anna":11526,"inition":11527,"arts":11528,"Ġincredible":11529,"ĠCaptain":11530,"Ġgums":11531,"ĠGer":11532,"iki":11533,"spe":11534,"ĠFrancis":11535,"human":11536,"jamin":11537,"Ġinsu":11538,"Ġmicrobes":11539,"heres":11540,"ĠCape":11541,"ĠRab":11542,"!\"":11543,"vasive":11544,"Ġbeds":11545,"Ġtoys":11546,"acular":11547,"Ġintegral":11548,"ĠArchived":11549,"Ġincredibly":11550,"Ġyeast":11551,"uilt":11552,"rell":11553,"Ġnas":11554,"Ġbeam":11555,"ĠTalk":11556,"Ġvotes":11557,"ĠRus":11558,"Ġkings":11559,"father":11560,"Ġpride":11561,"Ġmarkers":11562,"Ġangry":11563,"Ġconclude":11564,"Ġphrases":11565,"Ġconjunction":11566,"Ġlith":11567,"olas":11568,"Ġapps":11569,"Ġmeteor":11570,"Ġmatrix":11571,"Ġmagnet":11572,"Ġcounterpart":11573,"Ġrevolutionary":11574,"ĠEthiop":11575,"itored":11576,"Ġbip":11577,"asures":11578,"Ġcompat":11579,"Ġdreams":11580,"Ġacknowledge":11581,"perial":11582,"Ġexplaining":11583,"ĠEvolution":11584,"pm":11585,"educ":11586,"ths":11587,"actic":11588,"Ġreserve":11589,"arest":11590,"Ġquote":11591,"Ġphilosophical":11592,"Ġelectroly":11593,"EV":11594,"UD":11595,"ĠSens":11596,"Ġanswered":11597,"ĠPrime":11598,"Ġsilicon":11599,"ĠTorah":11600,"lings":11601,"olly":11602,"ĠSite":11603,"Ġpoems":11604,"ĠAlabama":11605,"egu":11606,"Ġloans":11607,"Ġpollutants":11608,"600":11609,"Ġpanc":11610,"Ġren":11611,"ushed":11612,"Ġseiz":11613,"Ġskilled":11614,"Ġ99":11615,"ĠTherapy":11616,"Ġabroad":11617,"ĠBehavior":11618,"bet":11619,"Ġgenus":11620,"Ġpossession":11621,"Ġbottles":11622,"ĠDiego":11623,"Ġappetite":11624,"ĠMission":11625,"ĠLower":11626,"Ġsimulation":11627,"Ġcooked":11628,"ographer":11629,"Ġbay":11630,"asa":11631,"rage":11632,"ĠUnit":11633,"Ġeducate":11634,"Ġguides":11635,"Ġracism":11636,"link":11637,"asse":11638,"ĠBru":11639,"Ġwealthy":11640,"Ġanch":11641,"Ġpassive":11642,"Ġcrash":11643,"ĠArchives":11644,"Ġthrive":11645,"Ġlunar":11646,"Bel":11647,"Ġprofits":11648,"Ġ1975":11649,"Ġdenied":11650,"Ġrelieve":11651,"ĠDom":11652,"Ġshoulder":11653,"Ġchecked":11654,"sized":11655,"2016":11656,"Ġnoble":11657,"pers":11658,"essee":11659,"Ġmakers":11660,"ĠKong":11661,"!)":11662,"aft":11663,"ĠFive":11664,"eman":11665,"ĠShakespeare":11666,"Ġinvestors":11667,"ĠDougl":11668,"Ġaluminum":11669,"Copyright":11670,"iro":11671,"ĠSearch":11672,"reating":11673,"Ġperspectives":11674,"Ġfilters":11675,"Ġpropos":11676,"Ġcoordination":11677,"Ġgalaxies":11678,"arium":11679,"Ġstrand":11680,"Ġconvention":11681,"Ġintensive":11682,"Ġsket":11683,"Ġcompassion":11684,"stration":11685,"Ġgang":11686,"abetic":11687,"Ġchim":11688,"Ġdecent":11689,"2002":11690,"Ġstressed":11691,"iler":11692,"Ġdamaging":11693,"Ġthrone":11694,"Ġprotocols":11695,"uct":11696,"Ġcod":11697,"orie":11698,"Ġmurd":11699,"rock":11700,"ĠPow":11701,"Ġmounted":11702,"Ġtubes":11703,"ĠLarge":11704,"ĠFOR":11705,"Ġarbit":11706,"Ġcommod":11707,"Ġpreschool":11708,"Ġwarmer":11709,"yt":11710,"ĠThursday":11711,"Ġfee":11712,"Ġ1982":11713,"Ġinflammatory":11714,"abilitation":11715,"GS":11716,"Ġnurse":11717,"ĠJane":11718,"Ġgrave":11719,"Ġdispute":11720,"FT":11721,"PD":11722,"ĠName":11723,"Ġconsiderably":11724,"Ġreligions":11725,"Ġchecking":11726,"Ġextraction":11727,"ĠMiller":11728,"ĠFreder":11729,"()":11730,"school":11731,"two":11732,"will":11733,"Ġincidents":11734,"Ġobsc":11735,"Ġpurple":11736,"ĠUSB":11737,"ĠEducational":11738,"Ġinstitutional":11739,"Ñģ":11740,"ĠFall":11741,"Ġagenda":11742,"Ġintu":11743,"phones":11744,"Ġradi":11745,"Ġdepartments":11746,"ĠExecutive":11747,"ĠRub":11748,"Ġtraged":11749,"Ġovert":11750,"Ġbelonging":11751,"Next":11752,"dam":11753,"orship":11754,"Ġ56":11755,"Ġherbs":11756,"Ġapplicable":11757,"Ġharass":11758,"ĠDefense":11759,"onomous":11760,"gebra":11761,"ĠLu":11762,"Ġlimiting":11763,"worm":11764,"ĠTuesday":11765,"Ġyields":11766,"enders":11767,"ĠKim":11768,"Ġsurviving":11769,"Ġdiagnose":11770,"ĠÂ°":11771,"Ġfreshwater":11772,"ĠDeclaration":11773,"Ġvolcanic":11774,"Ġpharmac":11775,"pen":11776,"inates":11777,"Ġcin":11778,"omical":11779,"ĠTax":11780,"emet":11781,"Ġadmit":11782,"ammad":11783,"ĠArchitect":11784,"ĠSpecies":11785,"ĠIndustrial":11786,"oen":11787,"idge":11788,"Ġanten":11789,"ĠFig":11790,"Those":11791,"ugar":11792,"Ġdetermines":11793,"Ġprevalent":11794,"Oct":11795,"hour":11796,"ĠSA":11797,"eland":11798,"ĠDomin":11799,"ĠFlu":11800,"ĠJupiter":11801,"Ġmeets":11802,"ĠConc":11803,"osphere":11804,"Ġcha":11805,"arding":11806,"Ġfled":11807,"Ġreads":11808,"ĠRoosevelt":11809,"ĠAccount":11810,"Take":11811,"gram":11812,"Ġstuck":11813,"ĠPear":11814,"ĠRA":11815,"angers":11816,"appy":11817,"Ġsteep":11818,"Ġtitles":11819,"Ġvoters":11820,"World":11821,"sun":11822,"icul":11823,"Ġgaining":11824,"Ġwhilst":11825,"Ġcollaborative":11826,"Ġpulled":11827,"Ġprolonged":11828,"ordan":11829,"Ġdecomp":11830,"Ġcaffe":11831,"Ġdesigners":11832,"Ġpromoted":11833,"Ġmembership":11834,"sl":11835,"Ġtape":11836,"ilty":11837,"akh":11838,"Ġ51":11839,"Ġextends":11840,"ikes":11841,"Ġfarmer":11842,"Ġwra":11843,"Ġviable":11844,"MD":11845,"ĠRand":11846,"Ġsecular":11847,"2001":11848,"ĠÂ·":11849,"Ġconversations":11850,"Ġsubstitute":11851,"Fl":11852,"TO":11853,"ishers":11854,"ĠRog":11855,"Ġlect":11856,"Ġfeas":11857,"psy":11858,"ports":11859,"Ġignor":11860,"ĠIndonesia":11861,"Ġfoster":11862,"Ġendeav":11863,"letter":11864,"Ġpackaging":11865,"Ġinterpreted":11866,"py":11867,"tha":11868,"ĠLiving":11869,"Ġphases":11870,"viously":11871,"Ġbreakfast":11872,"âĦ":11873,"ĠSel":11874,"irs":11875,"Ġeconomies":11876,"Ġ1973":11877,"Ġverse":11878,"white":11879,"ĠApple":11880,"ĠSTEM":11881,"Ġreceptors":11882,"Europe":11883,"Mon":11884,"when":11885,"eton":11886,"uty":11887,"aki":11888,"Ġ52":11889,"ierra":11890,"Ġaquatic":11891,"Ġstakeholders":11892,"Ġbats":11893,"ighters":11894,"Ġchip":11895,"Ġadul":11896,"Ġoperator":11897,"Ġrotation":11898,"his":11899,"hot":11900,"ESS":11901,"PV":11902,"Ġspecimens":11903,"Ġmonitored":11904,"Ġmainstream":11905,"ĠEnc":11906,"Ġhearts":11907,"Ġdivor":11908,"Ġcorporations":11909,"ĠDenmark":11910,"Ġtoile":11911,"ĠTok":11912,"imals":11913,"activity":11914,"Ġpassengers":11915,"Ġastronaut":11916,"ĠHistoric":11917,"backs":11918,"ĠCass":11919,"articles":11920,"Ġspelling":11921,"Ġjew":11922,"ĠClark":11923,"Ġharmony":11924,"Ġresponded":11925,"Ġpraise":11926,"ĠCorporation":11927,"ĠBapt":11928,"Ġchains":11929,"ĠNat":11930,"ĠNort":11931,"ailing":11932,"Ġemission":11933,"Ġcombust":11934,"ĠMarg":11935,"Ġhistorically":11936,"Ġcrystal":11937,"Ġshopping":11938,"Current":11939,"Make":11940,"Pres":11941,"ĠSa":11942,"ĠPH":11943,"Ġapple":11944,"Ġmeanings":11945,"Ġexplicitly":11946,"Pat":11947,"ilib":11948,"ĠMes":11949,"inea":11950,"Ġdescriptions":11951,"Ġabd":11952,"Ġrecovered":11953,"Ġsinging":11954,"Ġstatue":11955,"Ġprecious":11956,"sor":11957,"Ġbom":11958,"Ġpotatoes":11959,"otechnology":11960,"Ġdocumentation":11961,"Ġepit":11962,"ĠGrade":11963,"ko":11964,"onics":11965,"ĠBan":11966,"lessly":11967,"Ġheaded":11968,"Ġattempting":11969,"ĠTransport":11970,"Ġmethane":11971,"cat":11972,"post":11973,"othy":11974,"Ġvoices":11975,"Ġgraphic":11976,"Ġpupp":11977,"ĠBrook":11978,"Ġgel":11979,"ĠPR":11980,"Ġregulated":11981,"Ġentity":11982,"Ġinitiated":11983,"Ġsore":11984,"Ġbars":11985,"ĠMaking":11986,"Ġexamining":11987,"Ġelectrom":11988,"ĠQuality":11989,"Ġ1972":11990,"Ġfails":11991,"Ġsubstantially":11992,"Ġcardiac":11993,"Ġunnecessary":11994,"ĠTennessee":11995,"rative":11996,"ĠPay":11997,"ĠBol":11998,"Ġrepublic":11999,"Ġboats":12000,"iotics":12001,"Ġmanufactured":12002,"Ġceremony":12003,"Ġric":12004,"ructive":12005,"Ġslope":12006,"Ġpromised":12007,"Ġnorms":12008,"ĠApollo":12009,"etheless":12010,"otyp":12011,"ĠSex":12012,"Ġpersec":12013,"Ġinfluenza":12014,"icides":12015,"ogene":12016,"Ġprogrammes":12017,"ĠZe":12018,"Ġcostly":12019,"ĠBasic":12020,"ĠPersian":12021,"Ġrefriger":12022,"lob":12023,"ĠCut":12024,"ĠMi":12025,"ĠNi":12026,"engu":12027,"Ġneighbors":12028,"emetery":12029,"erness":12030,"Ġsorts":12031,"held":12032,"Ġbands":12033,"asses":12034,"Ġoutdoors":12035,"Ġrelates":12036,"Ġbasics":12037,"Ġheadaches":12038,"Ġindicator":12039,"Ġink":12040,"ochemical":12041,"Ġdisasters":12042,"Ġequity":12043,"Ġguided":12044,"aza":12045,"ĠPortuguese":12046,"Ġsugars":12047,"mouth":12048,"imony":12049,"ĠStone":12050,"aughters":12051,"Ġquantitative":12052,"Ġkidneys":12053,"warf":12054,"Ġtransparent":12055,"giving":12056,"Ġlig":12057,"ĠPrize":12058,"opt":12059,"osity":12060,"Ġintens":12061,"Ġingredient":12062,"Ġdevastating":12063,"pur":12064,"Char":12065,"Ġmotivated":12066,"Ġdescendants":12067,"whe":12068,"orious":12069,"Ġheated":12070,"Ġoverweight":12071,"Ġ53":12072,"Ġtempt":12073,"Ġpathway":12074,"ĠTreaty":12075,"Ġglobally":12076,"Ob":12077,"instein":12078,"Ġcel":12079,"Ġbes":12080,"Ġthou":12081,"avirus":12082,"Ġintervals":12083,"Ġimmense":12084,"Ġbasin":12085,"riction":12086,"Ġarchitectural":12087,"ĠCreate":12088,"amily":12089,"ĠRose":12090,"Ġedited":12091,"ĠWhit":12092,"Ġdamages":12093,"Ġcampaigns":12094,"Ġcrowd":12095,"Har":12096,"alin":12097,"Ġasbestos":12098,"ausea":12099,"Ġpublicly":12100,"Ġconstitute":12101,"Ġwetlands":12102,"God":12103,"inator":12104,"ĠRod":12105,"weet":12106,"Ġwells":12107,"efits":12108,"Ġprojected":12109,"Ġensures":12110,"Ġtelescope":12111,"esar":12112,"Ġdual":12113,"Ġhorn":12114,"Ġbeta":12115,"Ġannounce":12116,"Ġspeaks":12117,"ĠMilitary":12118,"Ġnurses":12119,"Second":12120,"ĠWednesday":12121,"Ġ@":12122,"inced":12123,"anas":12124,"urred":12125,"Ġraces":12126,"atherine":12127,"Ġgovernance":12128,"Ġmachinery":12129,"Ġdrawings":12130,"Ġteachings":12131,"ĠCultural":12132,"Ġbold":12133,"ĠMaterials":12134,"Ġprovinces":12135,"Ġfounding":12136,"Ġcomparable":12137,"Ġions":12138,"Ġisot":12139,"ĠTen":12140,"ĠRaj":12141,"Ġfoundations":12142,"Ġsocially":12143,"Ġcircuits":12144,"Ġ1976":12145,"Ġcrossed":12146,"graduate":12147,"Ġuncertainty":12148,"inflammatory":12149,"June":12150,"restrial":12151,"ĠLady":12152,"appropriate":12153,"English":12154,"Ġcertificate":12155,"Ä«":12156,"inus":12157,"Ġcer":12158,"Ġproclaim":12159,"ĠIniti":12160,"ĠDepression":12161,"Ġneighbour":12162,"ĠAffairs":12163,"Based":12164,"rasound":12165,"Ġarchaeological":12166,"rade":12167,"plus":12168,"ĠIndex":12169,"Ġmovies":12170,"Dis":12171,"angular":12172,"Ġrespective":12173,"ĠIndiana":12174,"Ġtear":12175,"Ġbeef":12176,"urb":12177,"istence":12178,"MC":12179,"Ġbases":12180,"Ġpersonally":12181,"Ġsmallest":12182,"Ġ72":12183,"Ġshortly":12184,"Ġaccumulation":12185,"Ġomega":12186,"FL":12187,"Ġstiff":12188,"opath":12189,"Ġchamp":12190,"uncture":12191,"Ġperipher":12192,"Ġarsen":12193,"ĠArthur":12194,"ĠCarbon":12195,"Ġdarkness":12196,"Ġpresidential":12197,"Ġantioxidants":12198,"Ġaesthetic":12199,"Ġpitch":12200,"Ġcorruption":12201,"Ġ1968":12202,"osynt":12203,"Ġfulfill":12204,"urrection":12205,"ĠMental":12206,"Ġatom":12207,"Ġsphere":12208,"Ġbutt":12209,"Ġexpense":12210,"Ġequations":12211,"Ġ1978":12212,"Ġinterviews":12213,"History":12214,"iciency":12215,"roups":12216,"Ġseemingly":12217,"Ġcycl":12218,"Ġsymbolic":12219,"Ġnegotiations":12220,"ĠAstron":12221,"Ġscheduled":12222,"have":12223,"zan":12224,"ĠIC":12225,"ĠPresent":12226,"ĠEle":12227,"Ġimposed":12228,"Ġrocket":12229,"ĠUC":12230,"Ġresident":12231,"Ġpracticed":12232,"Ġvirtue":12233,"ĠProtocol":12234,"Ġeligible":12235,"hu":12236,"wall":12237,"iser":12238,"oub":12239,"Ġsoap":12240,"ĠStaff":12241,"erves":12242,"Inter":12243,"ĠAlbert":12244,"Ġabsent":12245,"Ġbelongs":12246,"Ġclusters":12247,"Orig":12248,"seud":12249,"Ġoffspring":12250,"Ġ1967":12251,"yers":12252,"Ġcher":12253,"adic":12254,"ĠDu":12255,"ĠLic":12256,"ĠLove":12257,"Ġcompact":12258,"Ġ54":12259,"venue":12260,"cription":12261,"good":12262,"itance":12263,"ĠHell":12264,"Ġvapor":12265,"onto":12266,"ĠPeriod":12267,"cr":12268,"ĠTri":12269,"ĠSO":12270,"Ġjet":12271,"Ġsyll":12272,"Ġretire":12273,"Ġupdates":12274,"Ġreforms":12275,"Ġsacrific":12276,"four":12277,"ĠCru":12278,"Ġdeals":12279,"Ġcombinations":12280,"Ġfestival":12281,"Ġcerv":12282,"Ġfart":12283,"imb":12284,"Ġstack":12285,"oping":12286,"Ġdeple":12287,"Ġquad":12288,"Ġcounts":12289,"Ġdefining":12290,"Ġentities":12291,"Ġmenu":12292,"Ġmissed":12293,"Ġconstraints":12294,"vance":12295,"Ġfool":12296,"ĠPap":12297,"ĠOpt":12298,"Ġdishes":12299,"Ġcoating":12300,"Ġlateral":12301,"ART":12302,"Ġconsisted":12303,"ĠDemocr":12304,"ĠBenjamin":12305,"Ġtremendous":12306,"fat":12307,"five":12308,"Ġinquiry":12309,"ĠIndependence":12310,"Ġpressures":12311,"nut":12312,"ĠTB":12313,"Ġfreed":12314,"Ġpeaceful":12315,"Ġpalm":12316,"ĠMathematics":12317,"eu":12318,"ifferent":12319,"Ġaffil":12320,"ĠMonitor":12321,"ĠKnowledge":12322,"Ġforty":12323,"Ġwhale":12324,"Ġreplacing":12325,"Ġtalked":12326,"Ġdecreasing":12327,"Ġsatellites":12328,"ĠFranklin":12329,"Ġattachment":12330,"Dec":12331,"Feb":12332,"Ġbore":12333,"child":12334,"ĠMit":12335,"Ġdozen":12336,"ĠIsraeli":12337,"Ġcontracts":12338,"TML":12339,"ropolitan":12340,"Av":12341,"Ġmethodology":12342,"ĠGenesis":12343,"Ġmagnesium":12344,"imeter":12345,"urally":12346,"ĠAges":12347,"Inc":12348,"Ġinduced":12349,"Ġcustoms":12350,"Ġpowered":12351,"Ġrobots":12352,"ĠWatch":12353,"ĠDick":12354,"ĠCountry":12355,"THE":12356,"Ġdirt":12357,"uras":12358,"ĠPatients":12359,"Ġefficacy":12360,"Ġmelan":12361,"Ġwatershed":12362,"ME":12363,"Ġtale":12364,"Ġintact":12365,"ĠLawrence":12366,"Ġbinary":12367,"Ġstatic":12368,"ĠCopyright":12369,"uming":12370,"Ġscal":12371,"Ġanniversary":12372,"plicit":12373,"Ġhosts":12374,"Ġeliminated":12375,"Ġclosest":12376,"ĠAuthority":12377,"ĠAfghanistan":12378,"âĦ¢":12379,"test":12380,"uly":12381,"roach":12382,"Ġlighter":12383,"ĠCra":12384,"Ġarteries":12385,"forward":12386,"rish":12387,"Ġprostate":12388,"Ġresidence":12389,"Ġimported":12390,"ĠMonth":12391,"Did":12392,"mus":12393,"otional":12394,"Ġconvinced":12395,"ĠCook":12396,"ĠBah":12397,"ewater":12398,"Ġsomehow":12399,"Ġcarrier":12400,"Ġsword":12401,"kal":12402,"ÙĨ":12403,"Ġgland":12404,"quin":12405,"ĠOR":12406,"Ġcompress":12407,"Ġflies":12408,"Ġ1981":12409,"Ġ1974":12410,"Ġ1977":12411,"Ġstaying":12412,"Ġdisposal":12413,"Ġfathers":12414,"ĠCommunication":12415,"ulses":12416,"Ġpatch":12417,"Ġwounded":12418,"Work":12419,"Ġpoultry":12420,"ĠIb":12421,"ĠBody":12422,"ĠRu":12423,"Ġmultipl":12424,"ĠContact":12425,"Ġscattered":12426,"Ġindication":12427,"Ġinterrupt":12428,"ĠParkinson":12429,"Ġpermits":12430,"Ġaspir":12431,"TE":12432,"Ġwed":12433,"alo":12434,"ĠJoh":12435,"rup":12436,"Ġuncom":12437,"Ġworlds":12438,"Ġdepicted":12439,"iscal":12440,"Ġautomated":12441,"Ġcaffeine":12442,"ĠSD":12443,"Ġmankind":12444,"Ġunions":12445,"lict":12446,"Ġreadings":12447,"Ġspecialists":12448,"Ġcontroversy":12449,"ĠEffects":12450,"Ġnumb":12451,"Ġautumn":12452,"Ġcurious":12453,"Ġsymmet":12454,"Ġradar":12455,"Ġautomatic":12456,"Ġbeer":12457,"Ġrou":12458,"rosion":12459,"Ġslide":12460,"ĠObserv":12461,"BL":12462,"Em":12463,"olis":12464,"Ġ130":12465,"ocene":12466,"pton":12467,"ĠOm":12468,"wealth":12469,"Ġaccused":12470,"olescent":12471,"Ġkin":12472,"ĠVers":12473,"Ġcaution":12474,"Ġverbal":12475,"Ġties":12476,"acre":12477,"ĠFisher":12478,"ĠNich":12479,"Ġcheaper":12480,"Ġbasket":12481,"lastname":12482,"ĠCreative":12483,"Mic":12484,"RL":12485,"Ġbin":12486,"Ġyoga":12487,"ĠThor":12488,"Ġconsp":12489,"Ġphysiological":12490,"Ġcomprehension":12491,"Ġsemic":12492,"Ġhind":12493,"olia":12494,"ationally":12495,"ĠParents":12496,"ĠGro":12497,"Ġpartition":12498,"Instit":12499,"Thus":12500,"Ġdistress":12501,"Ġdiscusses":12502,"Ġmillenn":12503,"Ġcalculation":12504,"Ġfloating":12505,"ĠSaturday":12506,"Ġdeemed":12507,"ĠEdition":12508,"Ġ1964":12509,"ĠHawaii":12510,"Ġpractitioners":12511,"Ġlocate":12512,"exts":12513,"arched":12514,"Ġheadache":12515,"ERS":12516,"Ġsoldier":12517,"iplinary":12518,"Ġrecycled":12519,"induced":12520,"GA":12521,"Ġdrew":12522,"ĠCertain":12523,"asting":12524,"Ġfeat":12525,"Ġfees":12526,"iolet":12527,"Ġagreements":12528,"ĠGolden":12529,"PP":12530,"TC":12531,"var":12532,"Ġq":12533,"riends":12534,"Ġabdominal":12535,"Ġpromotion":12536,"Ġbulbs":12537,"Ġmagic":12538,"ĠMarket":12539,"ĠMalays":12540,"Cent":12541,"Ġbiblical":12542,"othel":12543,"ĠBob":12544,"Ġworried":12545,"ĠKu":12546,"Ġadvised":12547,"Ġbreathe":12548,"rets":12549,"osures":12550,"Ġdesirable":12551,"Ġtwentieth":12552,"Ġrequests":12553,"annel":12554,"Ġvolunteer":12555,"Ġimplant":12556,"Ġbrilliant":12557,"zens":12558,"Ġtender":12559,"arms":12560,"Ġdated":12561,"Ġexem":12562,"Ġcommemor":12563,"ĠArgent":12564,"Ġmobil":12565,"Ġdatas":12566,"Ġexplanations":12567,"km":12568,"oard":12569,"Ġdign":12570,"igion":12571,"Ġants":12572,"ĠDat":12573,"ĠFacts":12574,"ĠGames":12575,"izational":12576,"Ġobese":12577,"Ġcombining":12578,"ĠMarx":12579,"Ġforgotten":12580,"ML":12581,"ĠMIT":12582,"ĠPediatric":12583,"ĠBoy":12584,"Ġspite":12585,"ĠKit":12586,"Ġpole":12587,"Ġnetworking":12588,"Ġoak":12589,"Ġexplos":12590,"Ġenvironmentally":12591,"Ġterrible":12592,"Ġconsiderations":12593,"Ġpigs":12594,"ĠNobel":12595,"Ġsatisfaction":12596,"VI":12597,"ĠBad":12598,"ĠHun":12599,"Ġate":12600,"Ġmodest":12601,"Ġslower":12602,"Ġappreciation":12603,"Ġenthusi":12604,"Net":12605,"agine":12606,"away":12607,"Ġartic":12608,"ĠConserv":12609,"Ġdeclar":12610,"Ġpencil":12611,"ĠElectric":12612,"ĠMemorial":12613,"ĠLouisiana":12614,"Ġrows":12615,"Ġartifacts":12616,"ĠNapole":12617,"Food":12618,"has":12619,"idel":12620,"Ġraises":12621,"Ġgeometry":12622,"Ġsnake":12623,"ĠPolitical":12624,"forestation":12625,"Ġresilience":12626,"flu":12627,"phe":12628,"Ġeternal":12629,"Ġnode":12630,"ĠTal":12631,"ĠAle":12632,"ulative":12633,"opathy":12634,"ĠFat":12635,"Ġweren":12636,"Ġ1918":12637,"Ġbillions":12638,"Supp":12639,"ĠAdvanced":12640,"grad":12641,"ĠTai":12642,"olutions":12643,"ĠDor":12644,"ĠVill":12645,"Ġobserving":12646,"Ġ1941":12647,"Ġuncons":12648,"Ġassignments":12649,"ĠSeries":12650,"Ġbriefly":12651,"Ġlabeled":12652,"Early":12653,"wind":12654,"Ġconform":12655,"keley":12656,"ĠVI":12657,"Ġlandf":12658,"Ġfootprint":12659,"ĠPopulation":12660,"Ġwhites":12661,"Ġpointing":12662,"Ġchallenged":12663,"Ġrailroad":12664,"Data":12665,"ĠBot":12666,"ĠBall":12667,"Ġplaque":12668,"Ġclosing":12669,"Ġ700":12670,"Ġintroducing":12671,"Ġcompete":12672,"ĠRelations":12673,"Ġwinning":12674,"Ġrailway":12675,"Ġsurvivors":12676,"vo":12677,"Ġthrown":12678,"third":12679,"ĠWy":12680,"hematic":12681,"Ġ1971":12682,"Ġ1965":12683,"Ġcastle":12684,"ĠCastle":12685,"itzerland":12686,"Ġhepatitis":12687,"Ġbuilds":12688,"Ġmelt":12689,"ĠSoutheast":12690,"Ġhack":12691,"Ġgeography":12692,"zech":12693,"Ġenterprise":12694,"organisms":12695,"Ġgastro":12696,"owed":12697,"irie":12698,"ibration":12699,"apore":12700,"Ġ1914":12701,"Ġemergence":12702,"ĠParticip":12703,"Ġpoisoning":12704,"ĠHans":12705,"ĠWrite":12706,"cedented":12707,"Ġtransactions":12708,"Ġparish":12709,"Ġstructured":12710,"Ġsimilarities":12711,"Ġuter":12712,"Ġstrengths":12713,"ĠTerrit":12714,"Ġdigestion":12715,"itives":12716,"ĠIowa":12717,"ĠVerm":12718,"Ġtries":12719,"Ġactors":12720,"Ġactivists":12721,"Ġmargin":12722,"Ġstrip":12723,"Ġstayed":12724,"Ġtitled":12725,"________________":12726,"Among":12727,"Cor":12728,"Ġglory":12729,"ĠImperial":12730,"Ġjudges":12731,"Ġtriggers":12732,"ĠCapital":12733,"ĠUtah":12734,"ĠPhilippines":12735,"ĠBroad":12736,"Ġsubstrate":12737,"Ġinterval":12738,"Ġfootball":12739,"Ġstrikes":12740,"Ġdynasty":12741,"Ġmosquitoes":12742,"Ġpix":12743,"Ġhip":12744,"Ġrum":12745,"Ġrating":12746,"Ġreliability":12747,"Ġecology":12748,"ĠStanford":12749,"onduct":12750,"Ġger":12751,"ĠCollection":12752,"ĠAllen":12753,"Ġpurchasing":12754,"Ġdialect":12755,"Science":12756,"ĠOttoman":12757,"Ġprecipitation":12758,"Ġremembered":12759,"Mus":12760,"person":12761,"tically":12762,"âĤ¬":12763,"Ġgross":12764,"ĠMuh":12765,"ĠPast":12766,"Ġweeds":12767,"agus":12768,"Ġtravels":12769,"Ġmitochond":12770,"klah":12771,"Ġmines":12772,"Ġexplosion":12773,"Ġlesser":12774,"Ġbelt":12775,"ashing":12776,"ĠGreeks":12777,"ĠCommunist":12778,"Ġlegitimate":12779,"Mat":12780,"Public":12781,"group":12782,"ĠLG":12783,"Ġtech":12784,"Ġoffset":12785,"Ġenters":12786,"Ġneurological":12787,"Sign":12788,"isl":12789,"arse":12790,"Ġglands":12791,"Ġ110":12792,"Ġattending":12793,"Ġcertification":12794,"ĠKenya":12795,"Ġpod":12796,"Ġbapt":12797,"adi":12798,"Ġnotably":12799,"ĠShow":12800,"Ġruler":12801,"Ġinspection":12802,"Ġpetroleum":12803,"Disc":12804,"reach":12805,"eded":12806,"ingham":12807,"Ġliability":12808,"ĠRequ":12809,"Ġmenstru":12810,"Ġsensation":12811,"Ġrevised":12812,"Ġvoluntary":12813,"Ġintermediate":12814,"mill":12815,"ĠGospel":12816,"Ġcontinually":12817,"fficiency":12818,"Ġwarrant":12819,"Ġexclusive":12820,"mother":12821,"Ġrevel":12822,"ĠHart":12823,"Ġranks":12824,"Ġdisin":12825,"Ġinfinite":12826,"Ġdesper":12827,"Ġmodify":12828,"Ġmodules":12829,"scill":12830,"ĠUSDA":12831,"Ġtherapist":12832,"ĠVirt":12833,"Ġperceive":12834,"Ġdisciplines":12835,"Ġpushing":12836,"Ġjurisdiction":12837,"OU":12838,"Ġdictionary":12839,"ilton":12840,"ĠOd":12841,"bercul":12842,"Ġupset":12843,"Ġvariability":12844,"Ġangles":12845,"Ġfears":12846,"Ġunpre":12847,"asis":12848,"Ġchips":12849,"Ġseas":12850,"Ġshifts":12851,"Ġintrig":12852,"okes":12853,"ĠVien":12854,"iencies":12855,"Ġcollaps":12856,"Ġadvocates":12857,"kay":12858,"matic":12859,"itches":12860,"ulse":12861,"atern":12862,"Ġattraction":12863,"ĠTeacher":12864,"Ġcruel":12865,"ĠVisual":12866,"Ġobstacles":12867,"Ġtodd":12868,"Ġlets":12869,"alling":12870,"ensing":12871,"Ġfluctu":12872,"Ġillustrations":12873,"Ġradioactive":12874,"Ġnaval":12875,"enaissance":12876,"Ġdysfunction":12877,"Ġtrains":12878,"Ġlongest":12879,"Ġtrips":12880,"oscow":12881,"FP":12882,"energy":12883,"ĠCert":12884,"ĠGame":12885,"Ġplug":12886,"Ġchemotherapy":12887,"Ġanalyzing":12888,"Ġinputs":12889,"Ġinterference":12890,"ĠVenus":12891,"ouch":12892,"stan":12893,"Ġgay":12894,"ĠBesides":12895,"ĠRout":12896,"ĠArist":12897,"Ġconcentrate":12898,"Ġaltogether":12899,"Ġlegislative":12900,"Ġinformal":12901,"Ġguilty":12902,"ĠHealthy":12903,"Ġgeographical":12904,"Ġwalked":12905,"Ġdia":12906,"Ġalb":12907,"Ġmodes":12908,"Ġdatabases":12909,"Sometimes":12910,"vised":12911,"hend":12912,"adows":12913,"ĠHind":12914,"ĠOw":12915,"ĠKings":12916,"swer":12917,"Ġseparately":12918,"Ġfragments":12919,"ĠPublishing":12920,"Act":12921,"DC":12922,"Ġmant":12923,"ĠTitan":12924,"Ġcontexts":12925,"Ġevolve":12926,"Ġoperates":12927,"ĠPlants":12928,"Ġsurely":12929,"Ġundertaken":12930,"ilibrium":12931,"uate":12932,"aments":12933,"Ġcolours":12934,"Ġcoins":12935,"Ġcarcin":12936,"Ġsafegu":12937,"Ġfossils":12938,"Ġastronomers":12939,"Ġtutorial":12940,"pres":12941,"Ġhate":12942,"ĠSci":12943,"Ġreleases":12944,"ĠÂ»":12945,"Ġadvocate":12946,"Ġtunnel":12947,"ĠPra":12948,"ership":12949,"ĠStock":12950,"Ġqueen":12951,"Ġstrings":12952,"Ġpredictions":12953,"Ġnavigation":12954,"Ġbowl":12955,"tr":12956,"imity":12957,"rained":12958,"ĠMaine":12959,"unct":12960,"plane":12961,"Ġassass":12962,"ĠAlf":12963,"Ġretained":12964,"Ġworkshops":12965,"Ġunclear":12966,"ĠHispanic":12967,"Bet":12968,"uana":12969,"ĠSri":12970,"ĠPersonal":12971,"Ġdispar":12972,"sels":12973,"Ġextinct":12974,"ĠAlcohol":12975,"Ġcritics":12976,"Ġ1942":12977,"Ġmicrobi":12978,"Ġdemonstration":12979,"Ġbitter":12980,"Ġveterin":12981,"ector":12982,"Ġrecru":12983,"Ġcompleting":12984,"Ġidentifies":12985,"Ġlegally":12986,"Ġillum":12987,"amma":12988,"Ġaltitude":12989,"Ġwatched":12990,"vity":12991,"Ġcups":12992,"ĠMun":12993,"ĠPict":12994,"Ġextending":12995,"second":12996,"Ġacquisition":12997,"Ġcoordinate":12998,"Ġpronounced":12999,"Ð¾Ð":13000,"ĠNig":13001,"version":13002,"Ġfunctionality":13003,"Ġsimilarly":13004,"Ġaffirm":13005,"Ġdeny":13006,"Ġpharmaceutical":13007,"Ġcomprised":13008,"klahoma":13009,"count":13010,"tan":13011,"omething":13012,"ĠSyn":13013,"ĠBishop":13014,"Ġseats":13015,"AND":13016,"ĠMcG":13017,"Ġelevation":13018,"Black":13019,"==":13020,"mates":13021,"ĠComb":13022,"ĠGil":13023,"ĠLie":13024,"ietal":13025,"lighten":13026,"Image":13027,"ĠLiterature":13028,"Social":13029,"ĠTu":13030,"resistant":13031,"ĠHad":13032,"Ġlean":13033,"ĠSaturn":13034,"erenn":13035,"Par":13036,"ĠEs":13037,"ĠRa":13038,"Ġsecured":13039,"ĠSpe":13040,"Ġreinforce":13041,"Ġreceptor":13042,"Ġextensively":13043,"March":13044,"ulent":13045,"ĠFile":13046,"ĠArk":13047,"Ġrealm":13048,"Ġ1948":13049,"Ġinterfere":13050,"SC":13051,"Ġtoll":13052,"ĠPa":13053,"Ġseaf":13054,"ĠJordan":13055,"Ġpeas":13056,"letal":13057,"Ġfundament":13058,"Ġblocked":13059,"ĠSwitzerland":13060,"Ġcannab":13061,"Sym":13062,"Ġwires":13063,"ioned":13064,"Ġvoy":13065,"Ġadmin":13066,"Ġregistration":13067,"Ġarrangements":13068,"Ġunprecedented":13069,"ĠMu":13070,"Ġhypertension":13071,"fol":13072,"Ġinability":13073,"Ġprobe":13074,"uma":13075,"Ġneedle":13076,"Ġrefined":13077,"ĠProceed":13078,"Ġ66":13079,"Ġpresenting":13080,"Ġloads":13081,"uters":13082,"ĠBBC":13083,"ryption":13084,"Ġimpacted":13085,"eroids":13086,"ĠNorway":13087,"Ġearthquakes":13088,"Ġaccommodate":13089,"DT":13090,"Ġsake":13091,"uru":13092,"uliar":13093,"than":13094,"ĠEval":13095,"Ġlitter":13096,"Ġcareers":13097,"Ġresting":13098,"Ġbowel":13099,"Ġinadequate":13100,"Ġunconscious":13101,"bird":13102,"vas":13103,"izoph":13104,"ĠYouth":13105,"marks":13106,"direct":13107,"onge":13108,"igs":13109,"ĠCe":13110,"adays":13111,"ĠRoss":13112,"ucks":13113,"Ġretreat":13114,"Ġgasoline":13115,"Ġstretching":13116,"ĠProphet":13117,"Ġappliances":13118,"amous":13119,"Ġplural":13120,"Ġartery":13121,"ĠUsually":13122,"Ġconstitu":13123,"Ġsuited":13124,"ĠKy":13125,"Ġtranscript":13126,"Ġhighlighted":13127,"ĠProtestant":13128,"ĠLtd":13129,"mind":13130,"Ġluck":13131,"ĠTs":13132,"opor":13133,"ĠDak":13134,"Ġrival":13135,"Ġrecur":13136,"Ġrelies":13137,"Ġ58":13138,"Ġnegatively":13139,"Ġdependence":13140,"Ġsanct":13141,"Ġdeployed":13142,"ĠKentucky":13143,"Several":13144,"ĠSustainable":13145,"Ġwast":13146,"ĠUpper":13147,"Ġtrapped":13148,"Ġmonaster":13149,"upuncture":13150,"Ġpracticing":13151,"ĠTele":13152,"ĠArchae":13153,"Sept":13154,"Ġfungi":13155,"Ġoccasions":13156,"oriented":13157,"ĠInitiative":13158,"Yet":13159,"ĠSant":13160,"ĠVeter":13161,"erto":13162,"ttes":13163,"Ġinvestigations":13164,"Ġtribal":13165,"izophren":13166,"ĠEM":13167,"Ġimbal":13168,"Ġediting":13169,"ĠAlways":13170,"Ġdelight":13171,"Ġconceptual":13172,"Ġgrasses":13173,"Ø±":13174,"Ġcous":13175,"Ġasset":13176,"thy":13177,"ococc":13178,"Ġdisse":13179,"Ġutter":13180,"Ġdisappeared":13181,"Ġpurely":13182,"Ġpriests":13183,"ĠIntelligence":13184,"Her":13185,"LO":13186,"ml":13187,"ĠAward":13188,"ĠGi":13189,"rubs":13190,"Ġministry":13191,"Ġgrat":13192,"Chapter":13193,"Ġjoining":13194,"Ġlinguistic":13195,"Di":13196,"kh":13197,"Ġinfl":13198,"Ġinvisible":13199,"Ġphotography":13200,"Ġmyths":13201,"Ġolive":13202,"ĠPhilosophy":13203,"Following":13204,"isa":13205,"ĠMagn":13206,"estinal":13207,"rians":13208,"nee":13209,"Ġloaded":13210,"Ġsettlements":13211,"Ġshells":13212,"wid":13213,"Ġdwell":13214,"adian":13215,"ĠPit":13216,"ĠCollect":13217,"Ġbush":13218,"Ġsynthes":13219,"ĠReference":13220,"unciation":13221,"olith":13222,"ĠSong":13223,"unes":13224,"Ġsho":13225,"Ġinfrared":13226,"interest":13227,"Ġformally":13228,"monary":13229,"ĠBiological":13230,"bled":13231,"inence":13232,"Ġ1917":13233,"ĠBeach":13234,"Ġtruck":13235,"Ġscarce":13236,"Ġentertainment":13237,"Ġsink":13238,"Ġfusion":13239,"Ġvocal":13240,"Ġrhet":13241,"Ġplacement":13242,"Ġbaseline":13243,"ĠPharm":13244,"ĠImage":13245,"Ġachievements":13246,"dec":13247,"Ġaids":13248,"Ġlenses":13249,"Ġalleg":13250,"access":13251,"Ġcounting":13252,"immune":13253,"arb":13254,"aran":13255,"Ġlux":13256,"ĠWas":13257,"Ġsegments":13258,"Ġunhealthy":13259,"gic":13260,"odge":13261,"ultural":13262,"ounding":13263,"Ġassessing":13264,"PM":13265,"Ġbicy":13266,"Ġmast":13267,"ĠRain":13268,"Ġquot":13269,"Ġquoted":13270,"Ġmonetary":13271,"Ġlacking":13272,"Ġbanking":13273,"roscience":13274,"Ġdissolved":13275,"Ġpulse":13276,"Ġbiomass":13277,"ocaust":13278,"Ġdownt":13279,"eur":13280,"ĠRos":13281,"Ġblame":13282,"Ġindivid":13283,"ierce":13284,"Ġbehave":13285,"Ġ1939":13286,"Ġdelayed":13287,"Ġinsufficient":13288,"ĠEN":13289,"ĠViol":13290,"Ġindo":13291,"Ġinsulation":13292,"ĠDeb":13293,"arches":13294,"Ġcritically":13295,"Ġsaturated":13296,"Ġpanic":13297,"Ġtoxicity":13298,"Key":13299,"Ġtrap":13300,"Ġcurrents":13301,"ĠTrump":13302,"ATE":13303,"Ġdraws":13304,"Ġcrafts":13305,"Ġpiano":13306,"Ġbridges":13307,"threat":13308,"ĠRenaissance":13309,"iffs":13310,"ĠAboriginal":13311,"Ġ1944":13312,"ĠPlanning":13313,"Ġrebell":13314,"Ġmelting":13315,"ĠAccessed":13316,"oz":13317,"tics":13318,"ĠPerson":13319,"forming":13320,"Ġmarker":13321,"Ġwarned":13322,"Ġcreature":13323,"Ġdestructive":13324,"proof":13325,"Ġ1963":13326,"Ġtransported":13327,"Ġuncomm":13328,"Ġhoped":13329,"Ġconsultation":13330,"Ġinstructional":13331,"Ġneighborhoods":13332,"SE":13333,"ĠNeb":13334,"Ġplastics":13335,"ĠSche":13336,"ĠImm":13337,"Ġthreatening":13338,"Ġanxious":13339,"Ġlandscapes":13340,"Ġhorizon":13341,"ĠConfederate":13342,"Des":13343,"ĠPil":13344,"ĠEC":13345,"ĠEaster":13346,"ĠTeam":13347,"Ġcitizenship":13348,"Ġbanned":13349,"ocytes":13350,"Know":13351,"Sch":13352,"rator":13353,"erk":13354,"Ġfired":13355,"icism":13356,"otive":13357,"ĠMoscow":13358,"ĠRap":13359,"Ġelite":13360,"system":13361,"ĠAlliance":13362,"Ġconception":13363,"Ġmixing":13364,"roximately":13365,"))":13366,"Ġdot":13367,"ante":13368,"Ġtrillion":13369,"Ġexams":13370,"Ġretention":13371,"Add":13372,"Ġpremature":13373,"ĠAgricultural":13374,"Up":13375,"bound":13376,"etry":13377,"ĠWinter":13378,"Ġintercon":13379,"Which":13380,"ĠRegional":13381,"Ġstimulation":13382,"ĠQuebec":13383,"Ġstrictly":13384,"olen":13385,"ĠCro":13386,"ĠBed":13387,"ĠFox":13388,"Ġenerg":13389,"Ġpedest":13390,"MM":13391,"building":13392,"Ġdump":13393,"Ġnausea":13394,"chi":13395,"esteem":13396,"ĠNan":13397,"ousing":13398,"ĠUniverse":13399,"Ġplanes":13400,"Ġpetition":13401,"ĠKhan":13402,"PE":13403,"×Ļ":13404,"ĠCredit":13405,"Ġexert":13406,"lude":13407,"Ġ1880":13408,"Ġstrat":13409,"Fe":13410,"VA":13411,"hol":13412,"orical":13413,"ĠLORD":13414,"ĠVery":13415,"Ġconfined":13416,"Ġpressing":13417,"ĠSimon":13418,"Ġtragedy":13419,"Aust":13420,"home":13421,"path":13422,"Ġoct":13423,"weed":13424,"week":13425,"Ġnewborn":13426,"Ġtransit":13427,"Ġ63":13428,"ĠCommer":13429,"ĠSummer":13430,"Ġepisodes":13431,"ĠStrateg":13432,"Af":13433,"Ġoutstanding":13434,"Ġvalued":13435,"ĠDeep":13436,"âĢ¦.":13437,"control":13438,"Ġemphasize":13439,"Ġfloods":13440,"Ġexploitation":13441,"Ġtemporal":13442,"Ġdaughters":13443,"Ġsucc":13444,"Ġenroll":13445,"Ġlasted":13446,"Ġmaintains":13447,"Ġsnakes":13448,"Ġextracted":13449,"Ġpreference":13450,"lades":13451,"Ġsor":13452,"ĠWright":13453,"ĠNuclear":13454,"redict":13455,"ĠOklahoma":13456,"Ġdisciples":13457,"Ġcentres":13458,"ĠResource":13459,"ĠCoal":13460,"Ġintegrate":13461,"Ġtablets":13462,"Ġcertified":13463,"HT":13464,"fund":13465,"ĠTrib":13466,"asted":13467,"venile":13468,"process":13469,"Ġfits":13470,"ĠTogether":13471,"ĠVo":13472,"Ġdeck":13473,"ĠHarry":13474,"Ġrabb":13475,"Ġshooting":13476,"Ġtackle":13477,"Ġpeculiar":13478,"Tube":13479,"rea":13480,"ĠBurn":13481,"Ġinterven":13482,"coma":13483,"Ġevaluating":13484,"Ġknock":13485,"ĠMagazine":13486,"Ġantioxidant":13487,"Ġtears":13488,"ĠPent":13489,"ĠLakes":13490,"Ġfirstname":13491,"ĠDisorder":13492,"TSD":13493,"ĠImpact":13494,"pha":13495,"tein":13496,"ethyl":13497,"Ġattribute":13498,"ikh":13499,"Ġbreakdown":13500,"Ġtriggered":13501,"Ġsufficiently":13502,"Ġlikes":13503,"ĠPalestine":13504,"Time":13505,"ĠBron":13506,"Ġconsolid":13507,"Ġsystemic":13508,"Ġselecting":13509,"Ġcompromise":13510,"Ġsends":13511,"Ġbon":13512,"aron":13513,"ĠGP":13514,"Ġunderm":13515,"Ġ59":13516,"Ġpatches":13517,"Ġpassages":13518,"ĠMaybe":13519,"Ġcharts":13520,"Ġfeathers":13521,"ĠTour":13522,"ambers":13523,"ĠDal":13524,"Ġrust":13525,"Ġdozens":13526,"hess":13527,"ĠArmen":13528,"ccessful":13529,"ĠDiseases":13530,"Learning":13531,"ĠProceedings":13532,"dated":13533,"Ġbod":13534,"avy":13535,"ĠKal":13536,"Ġprejud":13537,"ĠYe":13538,"Ġkeyboard":13539,"ĠSyndrome":13540,"Ġcrystals":13541,"Down":13542,"Red":13543,"Ġthumb":13544,"ĠAy":13545,"ĠChemistry":13546,"ĠFem":13547,"Ġjun":13548,"Ġscrew":13549,"Ġcarp":13550,"Ġdivisions":13551,"Ġplanetary":13552,"Ġworthy":13553,"Ġlesions":13554,"Ġspirits":13555,"April":13556,"Ġports":13557,"Ġretrie":13558,"Ġwarfare":13559,"ĠLev":13560,"Ġrecognised":13561,"Ġbrut":13562,"novation":13563,"Ġdrama":13564,"Ġinevitable":13565,"ĠMeanwhile":13566,"Ġwounds":13567,"Ġlining":13568,"Ġinval":13569,"ĠRadio":13570,"oporosis":13571,"Green":13572,"Ġcows":13573,"Ġ1910":13574,"ĠKl":13575,"ĠHoward":13576,"Ġlanded":13577,"Ġinspire":13578,"Unfortunately":13579,"ĠBasin":13580,"Common":13581,"jan":13582,"Ġdedu":13583,"Ġliber":13584,"ĠCzech":13585,"ĠGas":13586,"ĠLoc":13587,"Ġcaring":13588,"lux":13589,"ĠSelect":13590,"Photo":13591,"Ġpreferences":13592,"Ġmad":13593,"Ġbench":13594,"Ġgardening":13595,"Ġsuspended":13596,"ĠSingapore":13597,"Ġsatisfied":13598,"Ġmunicipal":13599,"Good":13600,"sens":13601,"Ġtire":13602,"ĠHal":13603,"ĠDra":13604,"Ġcargo":13605,"prot":13606,"iasis":13607,"Ġmuseums":13608,"Ġtie":13609,"uto":13610,"ĠAra":13611,"Ġstir":13612,"Ġexplores":13613,"Ġeconomically":13614,"mans":13615,"tw":13616,"stable":13617,"igo":13618,"ĠCC":13619,"ĠBegin":13620,"Ġimpaired":13621,"ĠConn":13622,"fortable":13623,"Ġfungus":13624,"ĠSnow":13625,"Ġwashed":13626,"Ġincons":13627,"oths":13628,"Ġactivated":13629,"Ġgoddess":13630,"Ġoutlined":13631,"Ùİ":13632,"arity":13633,"ĠSE":13634,"ĠThings":13635,"ĠAnaly":13636,"Ġlightning":13637,"Start":13638,"ĠAnti":13639,"rophy":13640,"fu":13641,"pit":13642,"Ġstain":13643,"ĠLanc":13644,"Ġ62":13645,"ĠBerkeley":13646,"Ġulcers":13647,"Hel":13648,"anic":13649,"ĠNut":13650,"cerpt":13651,"ĠNewton":13652,"Ġholidays":13653,"Ġprosperity":13654,"illes":13655,"tech":13656,"Ġflame":13657,"ĠProb":13658,"ĠBlock":13659,"elta":13660,"Ġrolling":13661,"ĠColumbus":13662,"ĠAnnual":13663,"July":13664,"Ġecl":13665,"imination":13666,"Ġscreens":13667,"Ġcoin":13668,"acteria":13669,"Ġneglect":13670,"ĠDepending":13671,"Ġstopping":13672,"ĠPeru":13673,"Ġacknowledged":13674,"SP":13675,"artz":13676,"Ġdescent":13677,"Ġprovincial":13678,"Ġsuppress":13679,"Ġexamines":13680,"Ġpublishing":13681,"cery":13682,"Ġstandardized":13683,"Ġnavigate":13684,"Min":13685,"pin":13686,"State":13687,"HC":13688,"odd":13689,"Ġvascular":13690,"udson":13691,"Ġjournals":13692,"Ġconsiders":13693,"ĠSierra":13694,"Ġdisabled":13695,"Ġmedian":13696,"Ġbirthday":13697,"Ġsilent":13698,"1998":13699,"ijuana":13700,"Ġgallons":13701,"nest":13702,"Ġhub":13703,"opter":13704,"Ġspont":13705,"Ġflags":13706,"Ġgenerates":13707,"retion":13708,"Ġpacked":13709,"Ġdemanded":13710,"Ġformerly":13711,"Ġparameter":13712,"ben":13713,"pus":13714,"ĠThom":13715,"eps":13716,"Ġhandful":13717,"enez":13718,"Ġtriangle":13719,"Ġinnovations":13720,"Ġgraphics":13721,"ĠVienna":13722,"ĠEat":13723,"ellar":13724,"anyon":13725,"Ġ97":13726,"Ġcosmic":13727,"berculosis":13728,"Ġmul":13729,"Ġathe":13730,"Ġrash":13731,"ogical":13732,"ĠMechan":13733,"Ġinvestigating":13734,"Ġeliminating":13735,"race":13736,"Ġhomeless":13737,"Ġtourist":13738,"Ġabdomen":13739,"Ġindividually":13740,"Ġtric":13741,"rehend":13742,"itar":13743,"Ġbike":13744,"open":13745,"Ġgenerator":13746,"odynam":13747,"ogenesis":13748,"ĠPlanet":13749,"Ġoutbreaks":13750,"Does":13751,"Sur":13752,"Ġdwarf":13753,"Ġstro":13754,"Ġorth":13755,"ryst":13756,"Ġ1912":13757,"Ġacre":13758,"Ġafterwards":13759,"Ġsubjected":13760,"ĠNev":13761,"Ġjudicial":13762,"Ġmiscon":13763,"Ġunders":13764,"Ġpilgrim":13765,"izophrenia":13766,"lad":13767,"Ġstew":13768,"Ġ2030":13769,"ĠFinancial":13770,"species":13771,"Ġrituals":13772,"Ġwishes":13773,"Ġrept":13774,"ambo":13775,"Ġconsec":13776,"ĠLuke":13777,"Ġemployer":13778,"ĠAmb":13779,"Ġmaternal":13780,"opoly":13781,"Ġram":13782,"Ġ67":13783,"ĠZh":13784,"Ġsexually":13785,"Ġvariants":13786,"Ġreconstruct":13787,"Ġexcluded":13788,"Ġtet":13789,"Ġintim":13790,"Ġanimation":13791,"Ġcyt":13792,"plicity":13793,"Ġframes":13794,"Ġmicrobial":13795,"Ġcavity":13796,"Ġincentives":13797,"Ġempirical":13798,"August":13799,"Ġelectromagnetic":13800,"ĠMuhammad":13801,"Ã¦":13802,"atis":13803,"orrh":13804,"ĠSi":13805,"ĠBird":13806,"Ġtourists":13807,"ĠPrimary":13808,"Ġbureau":13809,"ĠCON":13810,"Ġdrilling":13811,"Ġburial":13812,"Ġembrace":13813,"Ġcombustion":13814,"zi":13815,"erce":13816,"Ġcoding":13817,"ĠWat":13818,"ĠDate":13819,"ĠChair":13820,"ova":13821,"gger":13822,"ĠShah":13823,"Ġflux":13824,"Ġhungry":13825,"Point":13826,"ressions":13827,"Ġsupporters":13828,"ĠColomb":13829,"ĠOrthodox":13830,"Ġpositively":13831,"Ġconnects":13832,"Ġneurot":13833,"Ġharvesting":13834,"Ġphosphorus":13835,"Ġschemes":13836,"ĠByzantine":13837,"Ġproposals":13838,"onut":13839,"ĠTa":13840,"ĠTerm":13841,"urban":13842,"Ġyog":13843,"Ġconve":13844,"Ġweed":13845,"Ġdiscount":13846,"Ġaster":13847,"ĠPatrick":13848,"ĠSwedish":13849,"Ġcortex":13850,"Ġrestaurants":13851,"%),":13852,"houses":13853,"Î¹":13854,"ĠHou":13855,"ĠNile":13856,"Ġwherever":13857,"Ġeverybody":13858,"Ġillustrates":13859,"ĠOlympic":13860,"ĠMarshall":13861,"IH":13862,"tem":13863,"ĠBuild":13864,"acerb":13865,"ocide":13866,"Ġadhes":13867,"month":13868,"Check":13869,"ĠSoftware":13870,"++":13871,"ipt":13872,"Ġtags":13873,"Ġma":13874,"Ġgrab":13875,"Ġrequested":13876,"Ġinstructor":13877,"Ġpipeline":13878,"Ġuncommon":13879,"ĠCab":13880,"Ġhed":13881,"ĠRac":13882,"ĠGive":13883,"aunt":13884,"Ġfailing":13885,"Ġsupervision":13886,"Ġsixth":13887,"Ġcruc":13888,"Ġcrystall":13889,".(":13890,"Mean":13891,"SO":13892,"krit":13893,"writing":13894,"reck":13895,"ĠGE":13896,"Ġclot":13897,"Ġupward":13898,"Ġworkforce":13899,"ysics":13900,"Ġfolks":13901,"Ġadjusted":13902,"Ġinserted":13903,"Ġfluoride":13904,"lie":13905,"via":13906,"Ġgently":13907,"ĠHTML":13908,"ĠLes":13909,"Ġcompiled":13910,"Ġpeat":13911,"ĠChron":13912,"Ġlearner":13913,"Ġstrengthening":13914,"1996":13915,"ĠTravel":13916,"Ġtroubles":13917,"Ġtraumatic":13918,"ĠCaesar":13919,"Vis":13920,"ĠEmb":13921,"Ġresolved":13922,"ĠVideo":13923,"Ġdepressed":13924,"Ġretired":13925,"Ġpotent":13926,"Ġterrain":13927,"Ġsurroundings":13928,"University":13929,"Ġnanop":13930,"ĠMachine":13931,"Mr":13932,"cap":13933,"ĠDog":13934,"Ġabortion":13935,"ardo":13936,"Ġtraces":13937,"intestinal":13938,"Ġamph":13939,"Ġdrum":13940,"ĠPubl":13941,"Ġsculpture":13942,"Ġparadigm":13943,"ĠHug":13944,"ĠDer":13945,"ĠEve":13946,"Ġcontra":13947,"Ġinfo":13948,"Ġproducer":13949,"Three":13950,"Ġveins":13951,"ĠGenerally":13952,"Ġrecipes":13953,"mir":13954,"itated":13955,"ĠSans":13956,"ĠCyp":13957,"aders":13958,"ĠHold":13959,"ĠResults":13960,"Ġpreventive":13961,"ĠPrevent":13962,"Ġcultivation":13963,"Ġadventure":13964,"lightenment":13965,"Ret":13966,"site":13967,"Ġtent":13968,"Ġbesides":13969,"ĠHaz":13970,"Ġhasn":13971,"Ġ1916":13972,"Ġtrunk":13973,"ĠAnton":13974,"Ġdemanding":13975,"Ġwitnessed":13976,"Ġmicroscope":13977,"ĠCitiz":13978,"Ġcater":13979,"Ġdye":13980,"style":13981,"cha":13982,"ĠCanyon":13983,"Ġworms":13984,"Ġjack":13985,"Ġ68":13986,"Ġproblematic":13987,"Ġceiling":13988,"Ġsurgeon":13989,"Ġarom":13990,"Ġcram":13991,"gets":13992,"ĠAlong":13993,"Ġgrasp":13994,"Ġconditioning":13995,"ĠCharacter":13996,"Ġbulb":13997,"Ġremedies":13998,"arency":13999,"Ġfarther":14000,"estab":14001,"ello":14002,"eft":14003,"Ġ1890":14004,"1016":14005,"Ġcouples":14006,"Ġcoupled":14007,"Ġpermanently":14008,"Ġodds":14009,"ĠCuba":14010,"Non":14011,"dig":14012,"Ġghost":14013,"ĠFried":14014,"Ġscans":14015,"ĠForum":14016,"expl":14017,"ĠSmart":14018,"Class":14019,"NET":14020,"emat":14021,"Ġprototype":14022,"regn":14023,"Ġ1966":14024,"Ġcivilian":14025,"Ġembryos":14026,"Ġpyram":14027,"Ben":14028,"Ġbeaches":14029,"Ġstamp":14030,"jective":14031,"arming":14032,"ĠAnth":14033,"acterial":14034,"Ġmatching":14035,"Ġfirmly":14036,"ĠPeninsula":14037,"Mc":14038,"Ġsins":14039,"Ġeager":14040,"ĠGPS":14041,"ailand":14042,"ussian":14043,"Ġderiv":14044,"Whether":14045,"Ġozone":14046,"Ġexacerb":14047,"weg":14048,"Ġcountless":14049,"Ġchecks":14050,"Ġapproaching":14051,"Ġnationwide":14052,"1999":14053,"ĠCompar":14054,"Ġspotted":14055,"ĠSkills":14056,"Ġelephant":14057,"ĠAntarctic":14058,"had":14059,"lav":14060,"leans":14061,"Ġradius":14062,"brev":14063,"represent":14064,"Ġcereb":14065,"Ġdinosaurs":14066,"ĠBanglades":14067,"Ġimpairment":14068,"ĠFrederick":14069,"Ġadulthood":14070,"ĠNapoleon":14071,"Ev":14072,"Ġsits":14073,"amation":14074,"Ġcompression":14075,"Ġoffensive":14076,"Ġreconstruction":14077,"Ġrecipe":14078,"Similar":14079,"ĠBulgarian":14080,"tebrates":14081,
[...]
